/**
  ******************************************************************************
  * @file    weights/conv1d.cc
  * @author  Pierre-Emmanuel Novac <penovac@unice.fr>, LEAT, CNRS, Université Côte d'Azur, France
  * @version 1.0.0
  * @date    24 march 2020
  * @brief   Template generating plain C code for the implementation of Convolutional Neural Networks on MCU
  */

#include <stdint.h>

#define INPUT_CHANNELS    32
#define CONV_FILTERS      32
#define CONV_KERNEL_SIZE  2
#define CONV_GROUPS       1


const float  conv1d_35_bias[CONV_FILTERS] = {0x1.2ce2380000000p-3, -0x1.45b85a0000000p-4, -0x1.5134f20000000p-5, -0x1.b7f7d80000000p-6, -0x1.eaf7980000000p-5, -0x1.ebec1a0000000p-5, -0x1.6e89b60000000p-4, -0x1.eaf60a0000000p-5, 0x1.1ef1e60000000p-3, -0x1.44b5fe0000000p-4, -0x1.959d720000000p-4, -0x1.e020340000000p-5, -0x1.ed464c0000000p-5, -0x1.373b300000000p-4, -0x1.ba0ef80000000p-8, 0x1.ffa1b20000000p-4, 0x1.7da6a40000000p-8, 0x1.f703d60000000p-6, 0x1.e36ef60000000p-8, -0x1.f6b2960000000p-6, -0x1.ec30a20000000p-5, -0x1.4787ae0000000p-6, -0x1.ebf1960000000p-5, -0x1.1700e20000000p-5, -0x1.b762e60000000p-4, -0x1.ec37400000000p-5, 0x1.ac84400000000p-15, 0x1.4f8af40000000p-5, -0x1.99353e0000000p-4, -0x1.6d130c0000000p-4, -0x1.23d5840000000p-4, -0x1.443eaa0000000p-4}
;

const float  conv1d_35_kernel[CONV_FILTERS][CONV_KERNEL_SIZE][INPUT_CHANNELS / CONV_GROUPS] = {{{0x1.0ae3300000000p-6, 0x1.a198000000000p-9, 0x1.4354280000000p-3, 0x1.4685880000000p-8, -0x1.c92ad60000000p-3, 0x1.afeeac0000000p-4, 0x1.804f3c0000000p-3, 0x1.9c1c880000000p-4, 0x1.e193a40000000p-6, -0x1.add7560000000p-3, 0x1.a775ee0000000p-5, 0x1.7f24d40000000p-3, 0x1.1386bc0000000p-4, 0x1.61b4b20000000p-4, 0x1.036b7a0000000p-3, -0x1.b2d0e80000000p-3, 0x1.bf044c0000000p-4, 0x1.51c6580000000p-6, -0x1.df0f3c0000000p-8, 0x1.d263980000000p-6, 0x1.8dcef40000000p-6, 0x1.25e6620000000p-3, 0x1.445c300000000p-4, 0x1.ea74ea0000000p-4, 0x1.9ccefe0000000p-3, -0x1.004a4e0000000p-4, 0x1.715a400000000p-3, -0x1.8bd32a0000000p-4, -0x1.273d340000000p-5, -0x1.1a51c60000000p-3, -0x1.34e12e0000000p-5, 0x1.3a0b2c0000000p-9}
, {0x1.b3b36a0000000p-6, -0x1.d77ad00000000p-4, -0x1.c357c80000000p-4, 0x1.6122ec0000000p-5, 0x1.045d0a0000000p-3, 0x1.9811d80000000p-3, 0x1.e885b20000000p-4, -0x1.3d15ac0000000p-3, -0x1.c5caee0000000p-7, -0x1.3f254a0000000p-7, -0x1.178b880000000p-9, -0x1.524b700000000p-4, -0x1.4518b80000000p-5, 0x1.faa7ce0000000p-9, -0x1.b283060000000p-5, -0x1.836fc20000000p-3, -0x1.163bcc0000000p-4, 0x1.c3e9b60000000p-6, 0x1.5b50e80000000p-5, 0x1.43ec540000000p-3, -0x1.822c660000000p-5, 0x1.4cbf2e0000000p-3, -0x1.3b9fba0000000p-3, 0x1.256fcc0000000p-5, 0x1.6974cc0000000p-5, 0x1.7384d00000000p-5, 0x1.167ab40000000p-8, -0x1.1f12260000000p-3, 0x1.0834d80000000p-5, -0x1.ac37b60000000p-4, -0x1.d3162a0000000p-3, -0x1.2a93040000000p-7}
}
, {{-0x1.ca081a0000000p-4, -0x1.3b457c0000000p-3, -0x1.a004aa0000000p-3, -0x1.a170260000000p-3, 0x1.f0a6800000000p-6, 0x1.43a8f60000000p-4, 0x1.5936dc0000000p-4, 0x1.c507240000000p-4, -0x1.2b60700000000p-5, -0x1.1e8f1e0000000p-3, -0x1.7998e00000000p-6, -0x1.275e220000000p-3, -0x1.5e6f620000000p-3, -0x1.830e140000000p-3, 0x1.64f20a0000000p-3, -0x1.e969d60000000p-3, -0x1.70a3d80000000p-3, 0x1.0a71ae0000000p-3, -0x1.7811cc0000000p-3, 0x1.5eaf820000000p-3, -0x1.66b2240000000p-4, 0x1.38fc240000000p-4, 0x1.9b7e620000000p-3, -0x1.032a040000000p-3, -0x1.2395c00000000p-3, -0x1.e92ccc0000000p-5, -0x1.b3ffa80000000p-3, 0x1.f49fd80000000p-5, 0x1.0cc1ae0000000p-2, -0x1.c4fee60000000p-4, -0x1.1589dc0000000p-3, -0x1.111d280000000p-4}
, {0x1.a6bd3e0000000p-3, -0x1.3eb1f80000000p-6, -0x1.19d66c0000000p-4, -0x1.55a9180000000p-4, -0x1.d4288c0000000p-4, 0x1.14fc740000000p-2, -0x1.e77d040000000p-4, -0x1.ded1aa0000000p-4, -0x1.1e10240000000p-2, -0x1.22ca8c0000000p-3, 0x1.5650e40000000p-4, -0x1.eb73b00000000p-4, 0x1.73dca80000000p-5, 0x1.506ba20000000p-3, 0x1.5de9d40000000p-4, 0x1.0ac99c0000000p-5, -0x1.3f1fd80000000p-5, -0x1.fd73780000000p-4, 0x1.59c3f20000000p-3, -0x1.3fc0ba0000000p-3, -0x1.4978140000000p-3, 0x1.a6fb620000000p-3, -0x1.0da0700000000p-3, 0x1.4876d40000000p-6, -0x1.cf32620000000p-4, 0x1.032a380000000p-4, 0x1.9e5d5e0000000p-3, 0x1.1f369e0000000p-3, 0x1.56f2780000000p-3, 0x1.035c9c0000000p-2, -0x1.82a26c0000000p-4, -0x1.359a180000000p-9}
}
, {{0x1.078a9e0000000p-4, -0x1.69862c0000000p-4, 0x1.917bd00000000p-4, 0x1.a5bd8e0000000p-4, -0x1.8d4efe0000000p-11, -0x1.1cd2ca0000000p-3, 0x1.36a9300000000p-5, 0x1.ca07be0000000p-3, -0x1.13497a0000000p-4, 0x1.4963700000000p-3, -0x1.a85d400000000p-7, -0x1.e0389c0000000p-3, -0x1.11cd020000000p-3, 0x1.8fb9180000000p-4, 0x1.a760520000000p-4, -0x1.6318ea0000000p-4, 0x1.634df20000000p-3, 0x1.9a2f100000000p-3, 0x1.7fd8180000000p-5, 0x1.7bb16c0000000p-4, 0x1.3fb8aa0000000p-7, -0x1.8af8a00000000p-5, -0x1.bc66500000000p-4, -0x1.a9ef600000000p-4, 0x1.33a81e0000000p-5, -0x1.e174500000000p-3, 0x1.487fb20000000p-5, 0x1.b940a20000000p-12, -0x1.ef51ae0000000p-3, 0x1.4996460000000p-5, -0x1.7eda980000000p-5, 0x1.eddcbc0000000p-3}
, {0x1.9a4cea0000000p-3, 0x1.ccf5a80000000p-6, -0x1.5d65e20000000p-3, -0x1.8e85ac0000000p-3, 0x1.de2d4a0000000p-4, 0x1.ae68fc0000000p-5, 0x1.1aba1c0000000p-3, 0x1.bd0f860000000p-3, 0x1.3fcce40000000p-4, 0x1.168ab80000000p-3, -0x1.539baa0000000p-3, -0x1.63d3f20000000p-3, 0x1.a341560000000p-6, -0x1.0e160e0000000p-2, 0x1.482da20000000p-3, -0x1.4e55f80000000p-4, -0x1.b6a65c0000000p-6, 0x1.31a7f40000000p-3, 0x1.f899420000000p-3, 0x1.c7098c0000000p-8, -0x1.4e212a0000000p-3, 0x1.03f12e0000000p-2, -0x1.7cc7b00000000p-4, -0x1.a41f380000000p-3, 0x1.45839e0000000p-7, -0x1.8a985c0000000p-4, 0x1.092fcc0000000p-6, 0x1.9961e60000000p-4, 0x1.691b4c0000000p-4, -0x1.e5f6320000000p-4, 0x1.e34ac00000000p-3, -0x1.33c0e80000000p-5}
}
, {{0x1.efba3a0000000p-4, -0x1.07c2ae0000000p-3, 0x1.ae95340000000p-3, 0x1.0435bc0000000p-3, -0x1.5a95740000000p-3, -0x1.367f780000000p-4, 0x1.a422ae0000000p-4, 0x1.05179a0000000p-2, -0x1.3d90920000000p-5, -0x1.2930e20000000p-3, 0x1.ae060e0000000p-4, -0x1.b30d480000000p-5, -0x1.874f7c0000000p-4, 0x1.8478fc0000000p-3, -0x1.129ce20000000p-3, 0x1.aa524a0000000p-5, 0x1.81497e0000000p-4, 0x1.1785060000000p-9, -0x1.289bcc0000000p-3, -0x1.987c6e0000000p-3, -0x1.881fb80000000p-4, 0x1.6577f60000000p-5, -0x1.5907ac0000000p-5, -0x1.988fa60000000p-4, 0x1.29ce8c0000000p-5, 0x1.07ea6a0000000p-3, 0x1.c3380e0000000p-5, 0x1.085d100000000p-3, -0x1.0e13a00000000p-4, -0x1.ccd0f80000000p-7, -0x1.f122d80000000p-5, 0x1.252f8e0000000p-3}
, {-0x1.8ea3620000000p-3, -0x1.479be20000000p-5, 0x1.1765a40000000p-3, 0x1.16fb120000000p-2, 0x1.016cee0000000p-2, -0x1.49e75e0000000p-3, 0x1.9fb9de0000000p-4, -0x1.392d7e0000000p-3, 0x1.eb3ac60000000p-3, 0x1.d800ca0000000p-3, 0x1.7c98120000000p-4, -0x1.e6a4f80000000p-3, -0x1.4446300000000p-3, -0x1.f639fc0000000p-9, 0x1.cc9e620000000p-4, -0x1.8897ee0000000p-5, 0x1.4675020000000p-3, 0x1.2bb5380000000p-3, 0x1.b20f840000000p-6, -0x1.16b59a0000000p-2, -0x1.6b1ade0000000p-3, 0x1.b0ebfa0000000p-5, 0x1.62e8aa0000000p-5, -0x1.25d7940000000p-5, -0x1.48b76a0000000p-4, -0x1.c64a380000000p-3, -0x1.3ee4ba0000000p-3, 0x1.0a80be0000000p-4, 0x1.cb3d580000000p-6, -0x1.416fae0000000p-7, -0x1.246dce0000000p-4, -0x1.43af960000000p-3}
}
, {{0x1.9c48fc0000000p-4, -0x1.989c760000000p-4, -0x1.c37a580000000p-4, 0x1.bc9ff60000000p-3, -0x1.11296a0000000p-5, -0x1.7c0ef00000000p-5, -0x1.ba7f4a0000000p-4, 0x1.b7e67c0000000p-3, -0x1.a043f00000000p-4, -0x1.0f1d380000000p-3, -0x1.436ad40000000p-8, -0x1.a790980000000p-3, -0x1.8fc13e0000000p-4, 0x1.beaff80000000p-6, -0x1.7811040000000p-3, 0x1.95da3c0000000p-3, -0x1.08f5020000000p-5, -0x1.9e51000000000p-3, 0x1.fd10b40000000p-4, -0x1.70dab40000000p-3, -0x1.ade0580000000p-3, -0x1.8a37dc0000000p-3, 0x1.18bc920000000p-6, 0x1.52e0c20000000p-5, -0x1.2ba4e80000000p-4, -0x1.35d0fa0000000p-3, -0x1.14f7220000000p-4, -0x1.d4a9300000000p-6, -0x1.2a752c0000000p-3, 0x1.64f8980000000p-3, -0x1.a9d4740000000p-3, -0x1.3c0b880000000p-3}
, {0x1.0a01460000000p-3, 0x1.0ef70c0000000p-6, 0x1.472f0c0000000p-4, -0x1.996b800000000p-3, 0x1.32bef80000000p-3, 0x1.52e9de0000000p-4, -0x1.4287f80000000p-3, -0x1.9e24ea0000000p-10, 0x1.507c9e0000000p-3, -0x1.da8c220000000p-4, -0x1.b2f9d40000000p-3, -0x1.4f17e60000000p-6, -0x1.77a6540000000p-4, -0x1.03ea5a0000000p-3, -0x1.70d3760000000p-3, -0x1.1e21ce0000000p-4, 0x1.3af6420000000p-3, -0x1.0767860000000p-3, 0x1.2541e80000000p-3, -0x1.75b7300000000p-3, -0x1.49af200000000p-5, 0x1.81726a0000000p-4, 0x1.bc6e9e0000000p-4, 0x1.d373b60000000p-4, -0x1.3a76e40000000p-3, 0x1.51e7400000000p-5, 0x1.719cd00000000p-3, 0x1.0227880000000p-6, -0x1.62ea620000000p-3, -0x1.e4aa040000000p-4, 0x1.41da3a0000000p-4, -0x1.902df00000000p-5}
}
, {{-0x1.3ecd8e0000000p-4, -0x1.7e36800000000p-3, -0x1.4d29420000000p-3, -0x1.a0ef260000000p-3, -0x1.bf707a0000000p-3, 0x1.34cf0e0000000p-6, -0x1.87ad3e0000000p-4, -0x1.a9b4400000000p-4, -0x1.8f4cfe0000000p-3, 0x1.ba66e20000000p-4, -0x1.084f920000000p-3, 0x1.788a060000000p-6, 0x1.587ed80000000p-4, -0x1.4ccda00000000p-4, -0x1.af733a0000000p-3, -0x1.f945080000000p-5, -0x1.6f5afe0000000p-3, 0x1.5cf09e0000000p-4, 0x1.61c9c20000000p-3, 0x1.2eddf40000000p-5, 0x1.7ce9680000000p-10, 0x1.4674f20000000p-6, 0x1.cee70a0000000p-5, -0x1.962a260000000p-6, -0x1.d214c20000000p-3, -0x1.b236fe0000000p-5, 0x1.adb2400000000p-6, -0x1.d701c80000000p-5, -0x1.577eb80000000p-5, -0x1.ebf8360000000p-5, 0x1.c8bd860000000p-4, 0x1.c7570a0000000p-4}
, {0x1.7d29b40000000p-3, -0x1.5af7b60000000p-3, -0x1.35f5980000000p-3, 0x1.9a05d60000000p-3, -0x1.54280e0000000p-3, -0x1.65951a0000000p-3, -0x1.e456960000000p-5, -0x1.e9b4960000000p-3, -0x1.5328960000000p-4, 0x1.2067280000000p-6, -0x1.3a040a0000000p-6, -0x1.3c1f5e0000000p-3, -0x1.1ddfe80000000p-4, -0x1.2dfd080000000p-3, -0x1.21cc100000000p-3, -0x1.c0c0400000000p-4, 0x1.a92da00000000p-4, -0x1.ac5b8c0000000p-3, 0x1.70c5900000000p-4, -0x1.3234880000000p-4, -0x1.3a9b0e0000000p-3, 0x1.2a28da0000000p-5, 0x1.4940820000000p-4, -0x1.15900a0000000p-4, 0x1.6068be0000000p-4, -0x1.01e61c0000000p-2, -0x1.146fc00000000p-3, 0x1.ccd1460000000p-4, -0x1.1309d40000000p-3, -0x1.b0cffe0000000p-3, 0x1.4fec080000000p-4, -0x1.0192740000000p-4}
}
, {{-0x1.a4004a0000000p-3, -0x1.1a98800000000p-2, 0x1.130d380000000p-5, -0x1.5f5fd60000000p-4, -0x1.8232a40000000p-6, 0x1.db1c7a0000000p-4, 0x1.6b80840000000p-3, -0x1.a41e4c0000000p-3, -0x1.6021a00000000p-5, -0x1.894d840000000p-3, -0x1.8104ea0000000p-4, -0x1.e531e60000000p-3, -0x1.9d24620000000p-4, -0x1.181bce0000000p-3, 0x1.6483180000000p-4, 0x1.fb82200000000p-6, -0x1.c82be60000000p-4, -0x1.be1f7a0000000p-3, -0x1.8ec02c0000000p-3, -0x1.dabf700000000p-6, 0x1.628e1c0000000p-3, -0x1.6d70d00000000p-4, 0x1.5d1e920000000p-4, 0x1.c7994e0000000p-5, 0x1.4bf8b40000000p-4, 0x1.11fcec0000000p-3, -0x1.b1687a0000000p-3, -0x1.1bf4ca0000000p-3, -0x1.67178e0000000p-3, 0x1.e8dddc0000000p-4, -0x1.c29d380000000p-3, -0x1.4f5bb00000000p-4}
, {0x1.7cd58c0000000p-4, -0x1.ec5e0c0000000p-9, -0x1.a0272c0000000p-3, -0x1.bcf6840000000p-3, -0x1.440f400000000p-3, -0x1.09c82c0000000p-2, 0x1.a1ef860000000p-4, -0x1.ea09ae0000000p-3, 0x1.ccf4aa0000000p-3, 0x1.e7cd860000000p-6, 0x1.b59eb40000000p-4, 0x1.2dcca40000000p-3, -0x1.4d335e0000000p-3, 0x1.beced80000000p-6, 0x1.e2d2960000000p-7, -0x1.2ca8c40000000p-3, 0x1.0b79c80000000p-5, 0x1.f564e80000000p-4, 0x1.b3c4c40000000p-4, 0x1.4706260000000p-5, -0x1.483cf20000000p-3, -0x1.2dcc140000000p-3, 0x1.b738c80000000p-3, 0x1.7081ec0000000p-5, -0x1.ad05fc0000000p-3, -0x1.744afa0000000p-3, 0x1.e620ec0000000p-4, 0x1.af542e0000000p-3, 0x1.ed9a340000000p-4, -0x1.9f45420000000p-3, -0x1.7c80ea0000000p-4, 0x1.173fc00000000p-4}
}
, {{0x1.ca59ae0000000p-6, 0x1.7153b80000000p-3, 0x1.0631b80000000p-3, -0x1.a0523a0000000p-5, -0x1.0b56b60000000p-3, 0x1.93793c0000000p-3, -0x1.7abc8c0000000p-3, 0x1.4fbbb80000000p-4, -0x1.6797de0000000p-3, 0x1.71a0220000000p-4, -0x1.93ccdc0000000p-6, -0x1.a8d5d80000000p-3, 0x1.1fcec20000000p-3, -0x1.1f1c140000000p-9, 0x1.569c340000000p-4, -0x1.cef7120000000p-4, 0x1.ff64ba0000000p-6, -0x1.408fde0000000p-4, 0x1.c066220000000p-4, 0x1.c390fc0000000p-4, 0x1.39cdca0000000p-3, -0x1.ca7f0e0000000p-4, 0x1.5d33f00000000p-4, -0x1.c33fa80000000p-3, 0x1.6382080000000p-3, -0x1.df5a500000000p-4, 0x1.ab9fa60000000p-5, 0x1.20a9a80000000p-4, -0x1.e4713a0000000p-6, -0x1.b2204a0000000p-3, -0x1.fc73520000000p-4, -0x1.4137960000000p-5}
, {-0x1.1bcd420000000p-4, 0x1.54c93c0000000p-3, 0x1.1bb4160000000p-4, -0x1.85851a0000000p-3, 0x1.942b120000000p-3, -0x1.b0d67c0000000p-4, 0x1.919b080000000p-3, 0x1.956ed60000000p-3, -0x1.2510980000000p-3, -0x1.953ad40000000p-4, 0x1.c09ed20000000p-3, 0x1.0228c80000000p-4, 0x1.54fa1c0000000p-4, 0x1.92a6720000000p-3, -0x1.6b49bc0000000p-3, -0x1.8d44f60000000p-3, 0x1.65e0fc0000000p-3, -0x1.665c0a0000000p-3, -0x1.9af9e40000000p-5, 0x1.134bb80000000p-4, -0x1.bb39860000000p-6, -0x1.9ff0bc0000000p-3, -0x1.2b2be40000000p-5, -0x1.8bda020000000p-4, -0x1.6d0b7c0000000p-3, -0x1.30ea1c0000000p-6, -0x1.9376400000000p-4, -0x1.5e71d80000000p-4, -0x1.95c0b20000000p-3, -0x1.c5a5ba0000000p-4, 0x1.a8c5b80000000p-3, 0x1.4ad2480000000p-4}
}
, {{0x1.49b1560000000p-4, 0x1.3d6ed00000000p-3, -0x1.3d45d80000000p-4, -0x1.ee83d60000000p-8, 0x1.8bdd660000000p-3, -0x1.09feac0000000p-3, 0x1.02a0660000000p-4, 0x1.24be580000000p-5, -0x1.36d9720000000p-6, -0x1.3ede380000000p-4, 0x1.329de40000000p-2, -0x1.941cb00000000p-3, 0x1.5f4efa0000000p-3, -0x1.06d2500000000p-5, 0x1.0c67240000000p-5, 0x1.05c3680000000p-2, -0x1.486c220000000p-5, -0x1.369ed40000000p-4, 0x1.53ada00000000p-7, -0x1.55344e0000000p-10, 0x1.773a040000000p-3, -0x1.bb18420000000p-3, -0x1.6607ca0000000p-5, 0x1.7a7bf00000000p-3, -0x1.4b65a80000000p-4, 0x1.90fce40000000p-3, 0x1.5286a00000000p-3, -0x1.c81d580000000p-7, 0x1.b330320000000p-3, -0x1.26c6ba0000000p-3, 0x1.34f1560000000p-3, -0x1.093ddc0000000p-2}
, {0x1.558a600000000p-3, 0x1.221ede0000000p-5, -0x1.a619560000000p-5, -0x1.c85faa0000000p-4, -0x1.7e2f620000000p-3, -0x1.0c80ec0000000p-4, 0x1.d2e6ae0000000p-5, 0x1.4029180000000p-4, -0x1.4866f80000000p-8, -0x1.d2303e0000000p-3, -0x1.d480dc0000000p-4, 0x1.78c1800000000p-5, 0x1.5bbc060000000p-3, 0x1.0c968a0000000p-3, 0x1.16cf5a0000000p-3, 0x1.16a7bc0000000p-3, 0x1.33cfe60000000p-3, 0x1.7f76700000000p-4, -0x1.1937a00000000p-3, -0x1.9b90540000000p-3, 0x1.de377c0000000p-3, -0x1.90b2720000000p-3, -0x1.2aa6200000000p-5, 0x1.332c400000000p-5, 0x1.a8cd860000000p-4, 0x1.cc67040000000p-6, 0x1.630a700000000p-4, -0x1.3589b80000000p-3, 0x1.2e9ca80000000p-4, 0x1.1f23ee0000000p-3, -0x1.0b9d5c0000000p-3, -0x1.113aba0000000p-2}
}
, {{-0x1.aa935c0000000p-3, 0x1.be984c0000000p-4, 0x1.261f840000000p-5, -0x1.aa2c880000000p-4, -0x1.db58400000000p-3, 0x1.b83a240000000p-4, -0x1.81869e0000000p-3, -0x1.9360400000000p-4, 0x1.00d2b20000000p-5, 0x1.200ee20000000p-4, -0x1.3739100000000p-4, -0x1.a016a60000000p-4, -0x1.2e06000000000p-5, -0x1.9f6da80000000p-4, -0x1.b8fbea0000000p-4, 0x1.59996c0000000p-7, -0x1.8eddb60000000p-4, 0x1.322ebe0000000p-3, -0x1.1afa0e0000000p-4, -0x1.467e960000000p-3, -0x1.2c324a0000000p-3, 0x1.2eaba00000000p-4, -0x1.02a4920000000p-3, 0x1.12a9a40000000p-5, -0x1.0fa11a0000000p-2, -0x1.36e4b20000000p-4, 0x1.2a75020000000p-4, -0x1.1858140000000p-5, -0x1.952f160000000p-4, -0x1.12b36e0000000p-3, -0x1.2c37b40000000p-3, 0x1.46a7e60000000p-4}
, {0x1.5fbf800000000p-3, -0x1.6a57360000000p-3, -0x1.8588400000000p-3, -0x1.b489720000000p-4, 0x1.7a7c2e0000000p-3, 0x1.5d3fa60000000p-6, 0x1.69bea40000000p-4, -0x1.5c99ea0000000p-3, 0x1.9068020000000p-4, -0x1.bcd1300000000p-7, 0x1.e6a1520000000p-5, 0x1.1cd9be0000000p-4, 0x1.2cb0ee0000000p-5, 0x1.c823b20000000p-3, 0x1.94d9ec0000000p-5, 0x1.694fd60000000p-6, -0x1.60dfde0000000p-3, 0x1.91f9680000000p-3, 0x1.93c0da0000000p-4, -0x1.bf98140000000p-6, 0x1.36addc0000000p-6, 0x1.ad52b00000000p-4, -0x1.ffabb20000000p-7, -0x1.70ceae0000000p-4, 0x1.56cf460000000p-4, -0x1.ab44460000000p-3, -0x1.a9edaa0000000p-3, 0x1.65c5be0000000p-3, 0x1.256ea20000000p-3, 0x1.2a627c0000000p-3, 0x1.28d6360000000p-4, -0x1.77a1900000000p-3}
}
, {{0x1.3e061a0000000p-3, -0x1.4656e40000000p-3, -0x1.fa25260000000p-4, 0x1.768b460000000p-4, 0x1.85ca340000000p-3, 0x1.880cc80000000p-7, -0x1.73bdb40000000p-4, 0x1.7389240000000p-9, 0x1.a326ac0000000p-3, -0x1.9353860000000p-3, 0x1.1e06780000000p-4, 0x1.398d040000000p-5, 0x1.921d160000000p-3, -0x1.6e53720000000p-4, -0x1.b3236e0000000p-5, -0x1.9937de0000000p-3, -0x1.01440e0000000p-2, -0x1.acf4dc0000000p-4, 0x1.5a999c0000000p-3, 0x1.731d620000000p-7, 0x1.2727460000000p-3, -0x1.99f1be0000000p-6, -0x1.416ff00000000p-4, -0x1.05675e0000000p-3, 0x1.0099920000000p-2, 0x1.9833ac0000000p-3, 0x1.522d140000000p-2, -0x1.6afc660000000p-8, -0x1.bfb1fc0000000p-3, 0x1.7955300000000p-4, -0x1.1af6720000000p-3, -0x1.580b900000000p-4}
, {0x1.33509e0000000p-3, -0x1.a3055a0000000p-7, -0x1.191b5e0000000p-3, 0x1.a864fa0000000p-7, -0x1.8a80bc0000000p-4, -0x1.87d0680000000p-3, -0x1.2720960000000p-3, -0x1.86172a0000000p-3, -0x1.94f97e0000000p-5, 0x1.aea6d40000000p-3, 0x1.bdd52c0000000p-3, 0x1.014c800000000p-3, -0x1.37b2d80000000p-3, -0x1.0600340000000p-4, -0x1.ac53d00000000p-5, 0x1.d8be460000000p-4, -0x1.0bc3f20000000p-2, -0x1.b0236a0000000p-3, -0x1.8d0b080000000p-5, -0x1.c961180000000p-4, -0x1.def2d00000000p-3, -0x1.8aa21c0000000p-3, 0x1.0193980000000p-3, -0x1.a1336e0000000p-3, 0x1.0b820e0000000p-7, -0x1.5664b80000000p-3, 0x1.dce5800000000p-5, 0x1.16d3160000000p-3, 0x1.836efa0000000p-3, -0x1.f47a7e0000000p-5, -0x1.629ea00000000p-10, -0x1.0f6a460000000p-2}
}
, {{0x1.4977ac0000000p-4, -0x1.72697a0000000p-3, -0x1.6ef09a0000000p-7, -0x1.1194340000000p-6, -0x1.28e7520000000p-3, 0x1.aacd920000000p-5, -0x1.9d6f100000000p-3, -0x1.824f560000000p-3, -0x1.75629c0000000p-4, 0x1.0a90e00000000p-2, 0x1.0e76e40000000p-3, -0x1.04e78e0000000p-2, 0x1.751b260000000p-5, -0x1.7dfdba0000000p-5, -0x1.1752c00000000p-3, 0x1.8c98500000000p-5, -0x1.6866320000000p-3, 0x1.1259c60000000p-4, -0x1.dd74940000000p-5, -0x1.0516580000000p-3, 0x1.2d0fd40000000p-2, 0x1.2c92cc0000000p-3, 0x1.72ced60000000p-3, -0x1.97c6c40000000p-3, 0x1.eff0700000000p-4, -0x1.d7bc480000000p-4, 0x1.b61d400000000p-4, -0x1.a5a0900000000p-3, 0x1.2a76020000000p-5, 0x1.12918e0000000p-2, -0x1.0e93dc0000000p-6, 0x1.1ade8a0000000p-2}
, {0x1.07a6f60000000p-3, 0x1.d0361c0000000p-6, 0x1.8ef1340000000p-6, -0x1.0d1ae40000000p-3, -0x1.9971a40000000p-5, 0x1.70ea000000000p-5, 0x1.0f61520000000p-3, -0x1.06770c0000000p-3, -0x1.3f9d800000000p-7, -0x1.b623cc0000000p-3, -0x1.03cd140000000p-3, 0x1.91d4600000000p-6, -0x1.b598d80000000p-3, 0x1.f216600000000p-6, 0x1.98247c0000000p-4, -0x1.c991f60000000p-6, -0x1.ab03580000000p-4, -0x1.12af940000000p-3, 0x1.73d6380000000p-8, -0x1.8da9520000000p-3, 0x1.dc50380000000p-4, -0x1.7ccbb40000000p-4, -0x1.c2f5d00000000p-3, -0x1.068d1a0000000p-3, -0x1.2dc2e60000000p-3, 0x1.9141020000000p-6, 0x1.56f9d40000000p-3, -0x1.31ada60000000p-8, -0x1.7cbc3c0000000p-4, 0x1.9e95880000000p-8, 0x1.e781380000000p-4, -0x1.aac1040000000p-5}
}
, {{0x1.aa36ac0000000p-5, -0x1.133c500000000p-2, 0x1.99f60a0000000p-3, 0x1.42e9c80000000p-3, 0x1.7a5a220000000p-4, -0x1.b7995a0000000p-8, -0x1.a4b9ba0000000p-3, 0x1.2c94a60000000p-3, 0x1.f15c880000000p-6, -0x1.c42eee0000000p-3, 0x1.575f5a0000000p-11, -0x1.3f45840000000p-3, -0x1.9969340000000p-3, -0x1.f99bee0000000p-4, -0x1.d3abb40000000p-4, 0x1.ce898e0000000p-4, 0x1.a6870a0000000p-6, -0x1.bc08b20000000p-3, -0x1.b8db480000000p-3, -0x1.315f4c0000000p-5, -0x1.31bf2e0000000p-3, 0x1.14c4c00000000p-6, -0x1.fb879e0000000p-4, -0x1.892d440000000p-4, 0x1.fe38ea0000000p-4, 0x1.6760420000000p-4, 0x1.0d5c000000000p-3, 0x1.5d093c0000000p-3, -0x1.4410080000000p-3, -0x1.0660ce0000000p-3, -0x1.740ad80000000p-4, -0x1.69bc880000000p-7}
, {0x1.711f6e0000000p-3, -0x1.4a13040000000p-4, -0x1.ad3de20000000p-4, 0x1.21fb7e0000000p-4, 0x1.6c5c540000000p-3, 0x1.baf4b20000000p-4, 0x1.ea72a80000000p-8, -0x1.5494f00000000p-4, 0x1.69b4da0000000p-4, -0x1.79b5d40000000p-4, -0x1.5ca9860000000p-4, -0x1.621bfc0000000p-5, 0x1.0cb71c0000000p-4, -0x1.c67f740000000p-5, 0x1.2d04660000000p-4, -0x1.87363a0000000p-4, -0x1.aaac620000000p-3, -0x1.fcde820000000p-6, 0x1.a679bc0000000p-4, -0x1.7e02920000000p-3, -0x1.2d991e0000000p-3, 0x1.4a23d20000000p-4, 0x1.b1be640000000p-5, -0x1.4af3120000000p-3, -0x1.1c8b4c0000000p-3, 0x1.7780920000000p-3, -0x1.ccbd4a0000000p-4, 0x1.66f3280000000p-3, -0x1.6e9a160000000p-3, -0x1.6efbb80000000p-5, -0x1.2ce8260000000p-4, 0x1.937de40000000p-4}
}
, {{-0x1.8f547a0000000p-3, -0x1.2a52f40000000p-3, -0x1.e13b7e0000000p-7, 0x1.0448680000000p-4, -0x1.77af080000000p-3, -0x1.3b21b60000000p-4, -0x1.24cb0e0000000p-3, 0x1.ddfe300000000p-4, -0x1.4f1e220000000p-5, -0x1.d52d260000000p-4, -0x1.2c7b920000000p-3, -0x1.ca0eda0000000p-5, -0x1.ab62580000000p-3, 0x1.1c3b100000000p-3, 0x1.15d1de0000000p-3, -0x1.761c4e0000000p-4, 0x1.5b6dbc0000000p-3, -0x1.b9f3940000000p-3, 0x1.7a4f1a0000000p-3, 0x1.e4bba00000000p-4, 0x1.14813a0000000p-3, 0x1.0ef5340000000p-3, -0x1.d272740000000p-4, 0x1.ecbfa80000000p-6, -0x1.0211540000000p-3, -0x1.f794e20000000p-3, -0x1.473b180000000p-3, 0x1.5bf6b60000000p-4, -0x1.bb049e0000000p-3, -0x1.a6a62a0000000p-4, 0x1.53e2080000000p-3, 0x1.adf19c0000000p-4}
, {0x1.9af7420000000p-4, 0x1.cda9280000000p-5, -0x1.bde4560000000p-4, 0x1.c67e120000000p-3, 0x1.2584de0000000p-4, -0x1.35ec9a0000000p-2, 0x1.5a55860000000p-4, 0x1.b2a6780000000p-3, 0x1.3ba9640000000p-3, 0x1.69f27c0000000p-5, -0x1.75b67c0000000p-3, -0x1.9326200000000p-3, -0x1.3652360000000p-4, 0x1.b7faa60000000p-3, 0x1.2487e20000000p-3, -0x1.aab14e0000000p-3, -0x1.2782540000000p-6, 0x1.b552420000000p-5, 0x1.5bec240000000p-3, -0x1.258aa40000000p-5, 0x1.48f7de0000000p-3, -0x1.2afef40000000p-3, 0x1.a508ce0000000p-3, -0x1.fa74a20000000p-3, -0x1.95bf280000000p-3, -0x1.437b340000000p-5, -0x1.8b5ac60000000p-4, -0x1.4b4fd20000000p-3, -0x1.41f1980000000p-3, -0x1.5993200000000p-3, -0x1.7647b60000000p-9, 0x1.2109860000000p-5}
}
, {{0x1.bc0e180000000p-4, -0x1.bed87a0000000p-5, -0x1.0d31b20000000p-3, -0x1.0dc5ca0000000p-3, -0x1.8f082e0000000p-4, -0x1.188ff80000000p-4, -0x1.c6484e0000000p-7, 0x1.126c7a0000000p-3, 0x1.266d5a0000000p-2, 0x1.3338dc0000000p-4, -0x1.8696d80000000p-4, -0x1.e1f5be0000000p-13, 0x1.67601c0000000p-4, 0x1.657fc80000000p-5, 0x1.365fd20000000p-7, 0x1.9cac0e0000000p-4, 0x1.1aa4d00000000p-4, 0x1.8c06c40000000p-3, -0x1.5b5c500000000p-3, -0x1.3e38780000000p-6, -0x1.c558b60000000p-5, 0x1.10eedc0000000p-3, -0x1.3067520000000p-7, 0x1.2588540000000p-2, 0x1.319f860000000p-2, 0x1.48ae6e0000000p-7, -0x1.76250e0000000p-2, -0x1.6aaebc0000000p-4, 0x1.97a5be0000000p-3, -0x1.d891b60000000p-5, 0x1.d389840000000p-4, 0x1.2db0740000000p-4}
, {0x1.993bf60000000p-4, 0x1.57c5dc0000000p-3, 0x1.95d3be0000000p-3, 0x1.8413920000000p-4, 0x1.09454e0000000p-5, 0x1.c1c03e0000000p-3, 0x1.6519980000000p-5, 0x1.51187e0000000p-4, -0x1.d14cfa0000000p-9, 0x1.913a680000000p-2, -0x1.84e4300000000p-4, 0x1.525c580000000p-11, 0x1.9a67e60000000p-3, -0x1.c39e4c0000000p-6, 0x1.aa823c0000000p-4, 0x1.48c0840000000p-3, 0x1.6382680000000p-3, 0x1.2969d00000000p-4, 0x1.a62b580000000p-6, 0x1.7cfe140000000p-5, 0x1.d7d46a0000000p-5, -0x1.7536a60000000p-6, -0x1.9dd83a0000000p-6, 0x1.86c0bc0000000p-3, 0x1.9eb8860000000p-2, 0x1.0608de0000000p-2, -0x1.9d2dc40000000p-3, 0x1.df89320000000p-4, 0x1.0bcff80000000p-3, 0x1.aa9a2c0000000p-6, 0x1.1092ea0000000p-5, -0x1.20622c0000000p-2}
}
, {{0x1.253d740000000p-3, 0x1.bdb3d60000000p-11, 0x1.d8930c0000000p-4, 0x1.03cfb20000000p-2, 0x1.9b63ba0000000p-5, 0x1.96a87e0000000p-3, 0x1.bf204c0000000p-5, -0x1.5561de0000000p-4, -0x1.0c79600000000p-3, 0x1.8686220000000p-3, 0x1.e9894a0000000p-3, 0x1.ea096e0000000p-4, 0x1.60540c0000000p-4, 0x1.343ac00000000p-3, 0x1.b5d9ea0000000p-7, -0x1.d29d7e0000000p-4, -0x1.32138e0000000p-3, 0x1.079fbe0000000p-3, -0x1.5fe17a0000000p-4, 0x1.f467e40000000p-4, 0x1.0e180e0000000p-2, -0x1.621aa00000000p-4, 0x1.8f081a0000000p-5, 0x1.7ff9e00000000p-4, -0x1.3a21a40000000p-4, -0x1.09b1520000000p-3, 0x1.6422e40000000p-3, -0x1.238cc40000000p-3, 0x1.053c6c0000000p-3, -0x1.4be04e0000000p-4, 0x1.e5989a0000000p-3, 0x1.e5c20c0000000p-5}
, {0x1.07ac900000000p-5, -0x1.e16e500000000p-5, 0x1.b021aa0000000p-3, 0x1.cdea300000000p-11, 0x1.1f701e0000000p-3, -0x1.3fb8ca0000000p-4, 0x1.6a907a0000000p-3, -0x1.48cf180000000p-4, 0x1.1c0c380000000p-6, -0x1.6bb9440000000p-5, 0x1.45a46c0000000p-4, 0x1.f960e20000000p-8, -0x1.15cc100000000p-6, 0x1.db46960000000p-5, 0x1.1333de0000000p-6, 0x1.7829ce0000000p-3, 0x1.b04f740000000p-3, -0x1.5b13500000000p-3, 0x1.0037760000000p-2, 0x1.6f52040000000p-5, -0x1.468d100000000p-4, -0x1.329b040000000p-4, 0x1.aa86ba0000000p-8, -0x1.753a3e0000000p-4, 0x1.c40a0a0000000p-5, -0x1.ccb9ee0000000p-4, -0x1.014bc40000000p-5, -0x1.2bd9080000000p-3, 0x1.e4bab60000000p-3, 0x1.d68d8e0000000p-4, 0x1.acdf1a0000000p-5, 0x1.0557b60000000p-3}
}
, {{0x1.386f020000000p-3, -0x1.0e00020000000p-2, 0x1.40dec40000000p-14, 0x1.51b4520000000p-3, -0x1.fdecce0000000p-5, -0x1.4094460000000p-2, 0x1.c203b20000000p-5, 0x1.a1c29a0000000p-4, -0x1.de0cca0000000p-2, -0x1.6dfa520000000p-2, -0x1.cd92de0000000p-4, 0x1.3c4c8a0000000p-5, 0x1.1a5e4e0000000p-3, 0x1.60a66a0000000p-3, -0x1.e267ea0000000p-4, -0x1.4441300000000p-4, 0x1.19948c0000000p-5, 0x1.29cb160000000p-3, 0x1.c8f4340000000p-3, 0x1.8ff7a20000000p-5, 0x1.3a52800000000p-4, -0x1.3e02b00000000p-8, 0x1.84f78c0000000p-4, -0x1.8651460000000p-5, -0x1.2293c20000000p-3, -0x1.2a69720000000p-2, 0x1.4c42380000000p-7, -0x1.c251260000000p-3, -0x1.eef0ec0000000p-6, -0x1.52aa1e0000000p-2, -0x1.849a5c0000000p-6, 0x1.59708c0000000p-2}
, {0x1.4e1e360000000p-3, 0x1.484fb00000000p-2, -0x1.a12d460000000p-4, -0x1.25dffe0000000p-3, -0x1.c0c9d00000000p-4, 0x1.98739a0000000p-3, 0x1.0d48e80000000p-3, -0x1.79c2c60000000p-4, 0x1.8c89500000000p-4, 0x1.81edac0000000p-6, -0x1.95da7a0000000p-4, 0x1.38302c0000000p-2, 0x1.a974b60000000p-3, -0x1.1edcee0000000p-5, 0x1.3cdd160000000p-3, -0x1.68660c0000000p-5, -0x1.38e60a0000000p-2, -0x1.07968a0000000p-3, -0x1.ef6a8c0000000p-5, 0x1.5841580000000p-3, -0x1.1266a40000000p-5, -0x1.c61da00000000p-5, 0x1.d24b4e0000000p-4, 0x1.517df20000000p-4, 0x1.54266a0000000p-2, 0x1.19dab40000000p-2, -0x1.1636940000000p-2, 0x1.6ccea80000000p-3, 0x1.15e0160000000p-2, 0x1.66300a0000000p-2, 0x1.99323e0000000p-8, -0x1.bd68fa0000000p-3}
}
, {{0x1.28ca9a0000000p-3, -0x1.9767000000000p-6, 0x1.1da5700000000p-3, -0x1.1a25160000000p-3, 0x1.3cc86e0000000p-5, 0x1.84c72e0000000p-3, -0x1.fe7f500000000p-3, 0x1.b1d38a0000000p-4, 0x1.53bd000000000p-6, 0x1.22e13c0000000p-3, 0x1.754e600000000p-4, 0x1.88161c0000000p-6, -0x1.8764680000000p-3, 0x1.9af9de0000000p-3, -0x1.dd21020000000p-5, -0x1.a84ac20000000p-5, 0x1.613a980000000p-2, -0x1.e936020000000p-5, -0x1.940c0e0000000p-4, -0x1.8c24a00000000p-4, 0x1.14e2660000000p-2, 0x1.9716f00000000p-3, 0x1.b37ec00000000p-4, 0x1.1844f40000000p-3, 0x1.50d79e0000000p-2, 0x1.c2f6760000000p-5, -0x1.4df47a0000000p-3, -0x1.005fc80000000p-4, 0x1.ac72a40000000p-7, 0x1.1e06f60000000p-2, 0x1.d2ec8e0000000p-5, -0x1.4407500000000p-2}
, {-0x1.c927ae0000000p-7, 0x1.ba29e00000000p-5, 0x1.b8388e0000000p-3, -0x1.6df7680000000p-6, 0x1.65fc0c0000000p-4, 0x1.08dfc60000000p-4, -0x1.2ec7a40000000p-3, -0x1.b25cc60000000p-3, 0x1.f650360000000p-4, -0x1.fa25760000000p-4, 0x1.057c9c0000000p-4, 0x1.3523640000000p-4, 0x1.9ba7520000000p-3, -0x1.e730900000000p-5, 0x1.b320660000000p-3, -0x1.0d31480000000p-3, -0x1.0731ba0000000p-3, 0x1.2faf840000000p-3, 0x1.1fc47a0000000p-6, 0x1.dab9b00000000p-5, -0x1.ccc6bc0000000p-5, 0x1.a24cb60000000p-4, 0x1.6820f00000000p-3, -0x1.1487200000000p-5, 0x1.1f79580000000p-2, 0x1.bb9e5c0000000p-4, 0x1.9c3a100000000p-7, 0x1.744f400000000p-3, 0x1.dcb8c00000000p-6, 0x1.d983de0000000p-5, -0x1.a3b2da0000000p-3, -0x1.4c00e60000000p-2}
}
, {{0x1.cf3b220000000p-5, -0x1.0017ea0000000p-3, -0x1.c395120000000p-6, -0x1.4938a40000000p-3, 0x1.5273e60000000p-6, 0x1.0de7b00000000p-3, -0x1.9615920000000p-3, -0x1.68a2220000000p-4, -0x1.36fb000000000p-5, 0x1.063be60000000p-3, 0x1.547bac0000000p-8, -0x1.0589460000000p-2, -0x1.a6fc680000000p-3, -0x1.eb8cce0000000p-5, -0x1.02ee540000000p-4, 0x1.a4ec6e0000000p-6, 0x1.20329c0000000p-6, 0x1.b39a9e0000000p-4, 0x1.08177e0000000p-4, -0x1.a5771c0000000p-5, -0x1.202e460000000p-5, 0x1.9bc50a0000000p-9, -0x1.2395e60000000p-3, -0x1.331cb20000000p-3, -0x1.a1e29c0000000p-3, 0x1.1328a60000000p-4, 0x1.96b7c40000000p-3, 0x1.74375a0000000p-3, 0x1.cbb9320000000p-4, 0x1.fa8e820000000p-4, -0x1.5d232e0000000p-3, -0x1.574ba60000000p-3}
, {0x1.35c41e0000000p-3, -0x1.1042980000000p-3, 0x1.c491740000000p-3, 0x1.068d0c0000000p-4, -0x1.74a6ca0000000p-4, -0x1.b8dc100000000p-4, -0x1.7d48880000000p-3, 0x1.67463c0000000p-3, -0x1.9258ac0000000p-4, 0x1.e2ec140000000p-3, 0x1.21be9a0000000p-7, 0x1.566e5e0000000p-4, -0x1.43b19c0000000p-3, -0x1.ba44360000000p-6, -0x1.5503240000000p-3, -0x1.d4a5b20000000p-3, 0x1.266bd40000000p-3, 0x1.c4187e0000000p-5, 0x1.d434620000000p-4, -0x1.028ba00000000p-2, 0x1.5e79ae0000000p-2, 0x1.65450a0000000p-3, -0x1.5af92a0000000p-6, 0x1.1a79f00000000p-4, -0x1.18ccd20000000p-3, 0x1.1775a80000000p-4, 0x1.0afed40000000p-2, 0x1.286e7e0000000p-4, 0x1.2b7b280000000p-5, 0x1.9a97fe0000000p-5, 0x1.2b00ee0000000p-6, -0x1.57f9600000000p-3}
}
, {{0x1.06fcba0000000p-6, 0x1.cc96900000000p-4, 0x1.5501200000000p-4, 0x1.44fc800000000p-3, -0x1.3aabce0000000p-8, 0x1.4da17c0000000p-4, -0x1.ea51d40000000p-5, -0x1.36ac900000000p-5, 0x1.30b1120000000p-3, 0x1.8de62e0000000p-4, 0x1.1800180000000p-3, -0x1.1cf2300000000p-4, -0x1.53a4900000000p-4, -0x1.7b2aa40000000p-4, -0x1.b311e20000000p-5, -0x1.1519c80000000p-11, 0x1.883d1e0000000p-3, -0x1.d3ee7c0000000p-6, -0x1.8d187e0000000p-6, 0x1.b739a40000000p-4, 0x1.ca26640000000p-4, -0x1.29dd300000000p-8, -0x1.2d96a40000000p-3, 0x1.aeba540000000p-3, 0x1.4a581c0000000p-3, 0x1.47738c0000000p-3, -0x1.4353900000000p-3, 0x1.0237820000000p-4, 0x1.6f7ca80000000p-4, 0x1.6a7bd00000000p-4, -0x1.fc01da0000000p-5, 0x1.1abb040000000p-4}
, {-0x1.5388720000000p-3, 0x1.f3d8780000000p-3, -0x1.343aee0000000p-3, -0x1.64ec2c0000000p-4, 0x1.eac0920000000p-3, 0x1.001cf00000000p-2, -0x1.6e624c0000000p-4, -0x1.aafe720000000p-6, 0x1.d8ac2c0000000p-3, 0x1.e13bd00000000p-4, -0x1.45eebc0000000p-3, 0x1.efb99e0000000p-3, -0x1.17fcb40000000p-3, -0x1.f65e7a0000000p-4, 0x1.881ff20000000p-4, 0x1.7c41860000000p-3, 0x1.d419680000000p-5, 0x1.3918b00000000p-3, 0x1.5c03e40000000p-3, -0x1.3fdfbe0000000p-3, -0x1.16069e0000000p-3, 0x1.75fe1a0000000p-6, 0x1.d1befa0000000p-3, 0x1.35d3a20000000p-2, 0x1.1491bc0000000p-2, 0x1.3efe8a0000000p-5, -0x1.9a34580000000p-3, 0x1.ac4b2a0000000p-3, 0x1.96b5a40000000p-3, 0x1.0cbc720000000p-2, -0x1.983aa00000000p-4, -0x1.e08b120000000p-3}
}
, {{-0x1.8b52c80000000p-4, -0x1.2902b80000000p-3, 0x1.4686ec0000000p-4, -0x1.783ee60000000p-6, -0x1.ba8f8c0000000p-4, 0x1.bec76c0000000p-5, -0x1.05fb700000000p-6, -0x1.f0204c0000000p-5, 0x1.76a7580000000p-3, -0x1.91c4a00000000p-3, -0x1.8ec1860000000p-3, 0x1.1c43260000000p-3, 0x1.335a3c0000000p-4, 0x1.11e61a0000000p-6, -0x1.49aa7e0000000p-3, -0x1.1928980000000p-3, 0x1.9c8d620000000p-6, 0x1.023cf20000000p-5, 0x1.8d50040000000p-3, 0x1.96b3600000000p-3, -0x1.3a90f00000000p-3, -0x1.939c740000000p-7, -0x1.2b99740000000p-3, 0x1.8d913c0000000p-9, -0x1.02f8000000000p-2, 0x1.921cbe0000000p-4, -0x1.9116860000000p-5, -0x1.0ba7cc0000000p-4, -0x1.da586a0000000p-4, 0x1.1e50920000000p-3, -0x1.3247580000000p-3, -0x1.49644c0000000p-3}
, {-0x1.8a5c880000000p-5, -0x1.92de8c0000000p-4, -0x1.d0bb0c0000000p-4, -0x1.aa3d180000000p-3, 0x1.82a3900000000p-3, -0x1.3c344e0000000p-4, 0x1.2b41820000000p-5, 0x1.70e99c0000000p-4, 0x1.1662420000000p-3, 0x1.400e5e0000000p-3, 0x1.70a8560000000p-6, -0x1.58384a0000000p-3, 0x1.8f95fa0000000p-3, -0x1.96e2800000000p-3, -0x1.114a880000000p-4, 0x1.2e6e980000000p-6, -0x1.1e5d560000000p-3, 0x1.7f230a0000000p-3, 0x1.3aa30c0000000p-5, -0x1.0b10ee0000000p-3, 0x1.3c180a0000000p-4, -0x1.c638340000000p-5, -0x1.82fdec0000000p-3, -0x1.a1e22a0000000p-3, 0x1.5e612c0000000p-3, 0x1.5b8e220000000p-4, -0x1.97bcd40000000p-5, 0x1.d802860000000p-8, -0x1.bc76e20000000p-6, -0x1.2f881e0000000p-3, -0x1.4409160000000p-5, 0x1.6c4db20000000p-4}
}
, {{-0x1.02d9340000000p-4, 0x1.5ba26e0000000p-3, 0x1.c1b4a40000000p-3, 0x1.4815fe0000000p-3, -0x1.4e8dea0000000p-5, 0x1.ad65560000000p-4, 0x1.7ef0e00000000p-4, 0x1.38def00000000p-11, 0x1.e40c520000000p-7, 0x1.34a6d20000000p-3, 0x1.4a8b1e0000000p-4, 0x1.9ca9480000000p-3, -0x1.3238d00000000p-6, -0x1.899a920000000p-4, 0x1.3dcba80000000p-4, 0x1.b5db900000000p-5, 0x1.ec4c280000000p-4, 0x1.929cd60000000p-3, 0x1.2843720000000p-5, 0x1.2e1b480000000p-2, -0x1.f7f70a0000000p-3, 0x1.83b28e0000000p-7, -0x1.2807c00000000p-3, 0x1.8587fc0000000p-3, 0x1.4f92520000000p-2, 0x1.20eb3a0000000p-2, 0x1.1368040000000p-6, 0x1.8556e40000000p-3, -0x1.0f73d00000000p-6, 0x1.b289ae0000000p-4, 0x1.cf8f680000000p-4, -0x1.ca82e60000000p-3}
, {0x1.e5784a0000000p-4, 0x1.7141380000000p-3, 0x1.8a4d4c0000000p-6, 0x1.9ccd560000000p-3, 0x1.1462f20000000p-3, 0x1.03ea460000000p-6, 0x1.eb66820000000p-4, 0x1.0729480000000p-3, 0x1.6458480000000p-3, -0x1.1b80280000000p-4, -0x1.6ccda00000000p-6, 0x1.611f980000000p-5, 0x1.b3c6ac0000000p-4, 0x1.4180d00000000p-4, 0x1.c670980000000p-3, -0x1.b16b1e0000000p-3, -0x1.0427280000000p-3, -0x1.6cf5080000000p-4, 0x1.08b9be0000000p-2, 0x1.7441080000000p-4, -0x1.8f8b300000000p-7, 0x1.8060d80000000p-4, 0x1.ccc9360000000p-3, 0x1.9169b40000000p-3, -0x1.16bd800000000p-3, -0x1.ef76d60000000p-4, -0x1.caed100000000p-4, -0x1.7c35500000000p-4, -0x1.d623d20000000p-7, 0x1.da03b20000000p-3, 0x1.85a71c0000000p-4, 0x1.ce23260000000p-3}
}
, {{0x1.974abe0000000p-4, 0x1.d431c20000000p-4, 0x1.096fe40000000p-9, -0x1.984aec0000000p-3, 0x1.3a534a0000000p-3, -0x1.1b0e1e0000000p-3, -0x1.ce16d60000000p-3, 0x1.2bd4ee0000000p-3, 0x1.51735e0000000p-3, -0x1.7b11d20000000p-3, -0x1.5b2a000000000p-3, -0x1.6372ae0000000p-3, -0x1.fbeb400000000p-7, -0x1.0582c80000000p-3, 0x1.25d9b60000000p-6, 0x1.2d38e80000000p-3, 0x1.e247aa0000000p-4, -0x1.4119840000000p-3, -0x1.71d5e60000000p-3, -0x1.9e44580000000p-3, -0x1.8fbb7e0000000p-3, -0x1.b5ce440000000p-5, -0x1.7714aa0000000p-3, -0x1.2756360000000p-3, -0x1.89c7be0000000p-3, -0x1.9a85d80000000p-5, 0x1.10b3260000000p-3, 0x1.6154880000000p-4, 0x1.59a78c0000000p-3, 0x1.a604bc0000000p-6, -0x1.62de4a0000000p-3, -0x1.9448de0000000p-5}
, {-0x1.8cabbe0000000p-3, -0x1.2c439a0000000p-3, -0x1.819f540000000p-3, -0x1.6118aa0000000p-5, 0x1.6e8c100000000p-4, 0x1.7b81e20000000p-3, 0x1.f008ae0000000p-4, 0x1.129e9e0000000p-3, -0x1.4dc0260000000p-5, -0x1.acd3980000000p-3, 0x1.b62fb60000000p-5, -0x1.28b6bc0000000p-3, 0x1.5dd1940000000p-4, -0x1.adc46c0000000p-3, -0x1.34b6a40000000p-4, -0x1.a5bebe0000000p-6, -0x1.4ab7340000000p-3, -0x1.69a0560000000p-3, 0x1.3ebc220000000p-8, -0x1.df59ce0000000p-3, -0x1.8c18360000000p-8, -0x1.14782c0000000p-3, 0x1.22bfb40000000p-3, 0x1.2f31e20000000p-4, 0x1.40c2760000000p-4, -0x1.3e64080000000p-3, -0x1.be626c0000000p-3, 0x1.2a24a60000000p-3, -0x1.4bca2c0000000p-4, 0x1.f268000000000p-4, 0x1.92bb640000000p-4, 0x1.c7eef20000000p-4}
}
, {{-0x1.8a3aec0000000p-3, 0x1.34a7fa0000000p-3, 0x1.51ffe80000000p-3, 0x1.0ab4da0000000p-2, 0x1.19d47c0000000p-5, -0x1.fe86a00000000p-4, 0x1.4a0cf00000000p-7, 0x1.cf7d3a0000000p-4, 0x1.c9f1440000000p-5, 0x1.0e6ea40000000p-4, 0x1.ac0e1c0000000p-5, 0x1.264e5c0000000p-2, -0x1.7d64fa0000000p-3, -0x1.c408600000000p-5, -0x1.542ca00000000p-3, 0x1.1030f20000000p-2, -0x1.b43bb60000000p-7, 0x1.d30bcc0000000p-3, -0x1.0fc8640000000p-3, 0x1.51515c0000000p-2, -0x1.cd9a020000000p-4, -0x1.3fa8a00000000p-3, 0x1.099d0c0000000p-3, 0x1.52d1800000000p-2, 0x1.0248cc0000000p-2, 0x1.2c39200000000p-2, -0x1.9d0dec0000000p-4, 0x1.673e3c0000000p-7, 0x1.af3b620000000p-3, 0x1.70cfde0000000p-4, 0x1.33acf40000000p-4, -0x1.3120d20000000p-2}
, {-0x1.4cd46a0000000p-3, -0x1.947e660000000p-4, -0x1.f556ba0000000p-4, -0x1.fbcdec0000000p-5, -0x1.01281c0000000p-3, 0x1.3ab5e60000000p-2, -0x1.96e3a80000000p-5, 0x1.04b6ea0000000p-5, 0x1.47b58a0000000p-3, 0x1.f35a8c0000000p-2, -0x1.0535060000000p-3, 0x1.2d57580000000p-2, -0x1.03d3a00000000p-5, 0x1.a49a280000000p-3, -0x1.f0874a0000000p-4, 0x1.8ef2d00000000p-3, 0x1.7566b40000000p-4, 0x1.ab2dea0000000p-3, -0x1.08557c0000000p-3, 0x1.3bd2b40000000p-3, -0x1.d736aa0000000p-3, -0x1.a9b1ac0000000p-4, 0x1.2832b80000000p-4, 0x1.50ec920000000p-2, 0x1.51ec3c0000000p-2, 0x1.d195100000000p-2, -0x1.dc08220000000p-3, -0x1.19c4120000000p-5, 0x1.285c140000000p-2, 0x1.4a8eb40000000p-2, -0x1.4608000000000p-5, 0x1.c93eee0000000p-4}
}
, {{0x1.09c69e0000000p-4, 0x1.499fce0000000p-4, 0x1.af79dc0000000p-5, 0x1.a7b7900000000p-5, 0x1.bc53ae0000000p-4, -0x1.8231de0000000p-5, 0x1.7a46d00000000p-3, -0x1.71a1e40000000p-3, 0x1.2f70fe0000000p-3, -0x1.8b24c20000000p-5, -0x1.ede82a0000000p-5, -0x1.ad031e0000000p-4, -0x1.dd0c6a0000000p-4, -0x1.0ed5560000000p-3, 0x1.0baf5e0000000p-4, -0x1.871aca0000000p-3, -0x1.3e8d180000000p-3, -0x1.d090ca0000000p-4, -0x1.2a15ba0000000p-3, 0x1.cc275a0000000p-4, -0x1.6551b60000000p-3, 0x1.4098fa0000000p-3, -0x1.b281540000000p-3, -0x1.2e51fe0000000p-2, 0x1.8c8a140000000p-5, 0x1.3442a60000000p-5, -0x1.4212b40000000p-6, 0x1.48c7b00000000p-3, -0x1.8717240000000p-5, -0x1.4d5a140000000p-4, 0x1.1c120a0000000p-3, 0x1.2b1bbc0000000p-4}
, {-0x1.18a9a00000000p-3, 0x1.9b25840000000p-4, -0x1.13ee0a0000000p-4, 0x1.2f30ae0000000p-3, 0x1.6336c40000000p-5, -0x1.43eb8c0000000p-5, 0x1.4182e40000000p-6, 0x1.cb4e800000000p-5, -0x1.dd81540000000p-3, 0x1.dfbb960000000p-5, -0x1.2afa5a0000000p-3, -0x1.334ab40000000p-3, -0x1.2acef00000000p-5, -0x1.2b72fe0000000p-3, 0x1.38a8ec0000000p-3, 0x1.0241a60000000p-4, -0x1.11d1100000000p-2, -0x1.40ca820000000p-3, -0x1.77eb7c0000000p-4, 0x1.998df40000000p-6, -0x1.8fbab60000000p-3, 0x1.46b7d40000000p-3, -0x1.3f78a20000000p-3, 0x1.0b418a0000000p-3, -0x1.be9b0a0000000p-4, 0x1.c4d5040000000p-7, -0x1.8fffc40000000p-5, 0x1.3b81080000000p-3, -0x1.78de3e0000000p-3, -0x1.ea83f00000000p-4, 0x1.2150ee0000000p-4, -0x1.78c6b80000000p-3}
}
, {{0x1.cfd3b20000000p-4, 0x1.ba822e0000000p-4, -0x1.4de2120000000p-4, -0x1.e3c3140000000p-6, 0x1.c7de5e0000000p-4, -0x1.8266300000000p-3, 0x1.246cf40000000p-5, 0x1.95cc9e0000000p-6, -0x1.178d640000000p-3, -0x1.22f2620000000p-4, -0x1.af18140000000p-4, -0x1.f7c4d20000000p-4, -0x1.bcc9400000000p-6, 0x1.df3c4e0000000p-6, -0x1.d069d40000000p-4, -0x1.84b0080000000p-3, 0x1.7f89ee0000000p-5, 0x1.3d02320000000p-4, 0x1.35b7f60000000p-3, -0x1.a06e120000000p-6, -0x1.1c016c0000000p-3, -0x1.f399840000000p-3, 0x1.0674040000000p-3, 0x1.1635640000000p-3, -0x1.0460300000000p-2, -0x1.1cbfe00000000p-5, -0x1.7313460000000p-3, -0x1.3242800000000p-5, -0x1.6249320000000p-4, 0x1.b6b5960000000p-4, 0x1.ceee260000000p-6, 0x1.d8745c0000000p-4}
, {-0x1.0c9c460000000p-3, -0x1.c528540000000p-3, 0x1.a519220000000p-3, -0x1.0e99ea0000000p-3, -0x1.62c1f20000000p-3, 0x1.a0ebd60000000p-5, 0x1.2777d00000000p-7, 0x1.730aca0000000p-4, -0x1.5d86020000000p-5, -0x1.476be00000000p-5, 0x1.c971800000000p-4, -0x1.24d0040000000p-2, 0x1.ef58340000000p-4, 0x1.024c880000000p-3, 0x1.5575b80000000p-4, -0x1.fa6d3a0000000p-3, -0x1.3035140000000p-4, 0x1.ba85260000000p-3, -0x1.73bdd60000000p-3, -0x1.6d3c880000000p-3, 0x1.391f2a0000000p-4, -0x1.7be93c0000000p-5, -0x1.85bd660000000p-3, 0x1.1a24120000000p-4, -0x1.0203fa0000000p-4, -0x1.b6411e0000000p-3, 0x1.7db7540000000p-4, 0x1.41f0080000000p-5, 0x1.d869020000000p-5, -0x1.5a7fc80000000p-3, -0x1.0b94b00000000p-3, -0x1.8513160000000p-4}
}
, {{-0x1.a8edf60000000p-3, 0x1.c367140000000p-4, -0x1.23ec300000000p-3, -0x1.50d5640000000p-8, 0x1.5ea1ca0000000p-3, 0x1.3ff0e80000000p-3, -0x1.92fa8e0000000p-3, -0x1.ff32040000000p-5, 0x1.332cd20000000p-3, 0x1.ef30580000000p-5, 0x1.97ff2a0000000p-3, -0x1.17bbf80000000p-4, -0x1.323d000000000p-4, -0x1.2793a20000000p-3, -0x1.e96d320000000p-4, 0x1.5d319c0000000p-5, 0x1.ac435c0000000p-4, -0x1.4a299a0000000p-3, 0x1.e5efac0000000p-4, 0x1.5995920000000p-3, 0x1.148a100000000p-2, 0x1.9734600000000p-4, 0x1.019a980000000p-10, 0x1.2184040000000p-3, 0x1.e743480000000p-4, 0x1.d3bb1c0000000p-3, 0x1.6299600000000p-4, 0x1.ac00100000000p-4, -0x1.96b0580000000p-4, 0x1.a5d2fc0000000p-3, -0x1.ca1b580000000p-4, -0x1.7853bc0000000p-3}
, {0x1.4572960000000p-3, 0x1.70346e0000000p-4, -0x1.698bbe0000000p-4, 0x1.c2296a0000000p-3, -0x1.3af2b40000000p-3, 0x1.70ed740000000p-6, -0x1.4ace440000000p-5, 0x1.0518520000000p-2, 0x1.4018b60000000p-2, 0x1.c4f0c20000000p-5, 0x1.7529460000000p-4, 0x1.b5dc660000000p-3, -0x1.1fd5b40000000p-4, 0x1.1af8ba0000000p-3, 0x1.dbd8b60000000p-4, 0x1.0ab9440000000p-5, 0x1.5bf2180000000p-7, 0x1.d232ba0000000p-3, 0x1.1bd58e0000000p-4, 0x1.4d7e000000000p-4, 0x1.0f635c0000000p-5, 0x1.786b7c0000000p-6, 0x1.3fe1f80000000p-3, 0x1.e697fe0000000p-3, -0x1.33431c0000000p-4, 0x1.21b7580000000p-3, -0x1.9237700000000p-3, 0x1.36624a0000000p-5, 0x1.34dab60000000p-4, 0x1.c68e080000000p-5, 0x1.e93a000000000p-3, -0x1.58c9800000000p-4}
}
, {{-0x1.801d400000000p-3, 0x1.72a2b80000000p-4, 0x1.c1be7a0000000p-3, -0x1.e8be980000000p-4, 0x1.d9d5760000000p-4, 0x1.3bbad20000000p-2, -0x1.795ac80000000p-4, 0x1.15025e0000000p-4, 0x1.10292e0000000p-1, 0x1.3705160000000p-1, 0x1.5abd760000000p-6, 0x1.5365960000000p-2, -0x1.338eb40000000p-4, 0x1.63ad260000000p-3, -0x1.0b3e8a0000000p-3, 0x1.0fe5c20000000p-1, -0x1.ba302a0000000p-4, 0x1.f17b560000000p-4, 0x1.56de7a0000000p-5, 0x1.3385e80000000p-5, -0x1.d01e8e0000000p-4, 0x1.85a2aa0000000p-3, -0x1.fc1fdc0000000p-8, 0x1.8ef08c0000000p-2, 0x1.2747000000000p-2, 0x1.a3cd2c0000000p-2, -0x1.08a2520000000p-3, 0x1.1604dc0000000p-6, 0x1.5e0bb40000000p-2, 0x1.839a7c0000000p-2, -0x1.148fbe0000000p-3, 0x1.4a44fe0000000p-7}
, {0x1.ae7a2e0000000p-3, -0x1.bff3ca0000000p-2, -0x1.460d1e0000000p-3, -0x1.a7b36e0000000p-8, 0x1.e5ce640000000p-4, -0x1.06f7320000000p-1, 0x1.106a560000000p-5, -0x1.084b860000000p-4, -0x1.9a4d5c0000000p-1, -0x1.8a5b880000000p-1, -0x1.eb2c540000000p-4, -0x1.42a2320000000p-1, 0x1.e532220000000p-4, -0x1.cfd6580000000p-6, 0x1.0ae4e80000000p-3, -0x1.0c80ac0000000p-1, -0x1.308dc80000000p-5, -0x1.036ce80000000p-4, -0x1.310dca0000000p-6, -0x1.19a7300000000p-2, -0x1.3ded920000000p-3, 0x1.5569700000000p-5, -0x1.7efb020000000p-3, -0x1.94bbf40000000p-1, -0x1.09a8580000000p-1, -0x1.6035f40000000p-1, -0x1.410d880000000p-2, -0x1.81a1ae0000000p-5, -0x1.743f2c0000000p-2, -0x1.120d3a0000000p-1, -0x1.b8dc440000000p-3, 0x1.61c9380000000p-2}
}
, {{0x1.20b04c0000000p-3, -0x1.4a92d20000000p-4, -0x1.68945c0000000p-4, -0x1.e52b540000000p-4, -0x1.44a6ba0000000p-3, -0x1.0e1eae0000000p-4, 0x1.5b4d220000000p-3, 0x1.e868a60000000p-4, 0x1.2026320000000p-4, 0x1.4140360000000p-4, -0x1.5ae86e0000000p-6, 0x1.05b0420000000p-3, -0x1.77bdee0000000p-3, -0x1.6847a60000000p-4, 0x1.a6414e0000000p-4, -0x1.1a73f00000000p-2, 0x1.d3cb900000000p-5, 0x1.ad475e0000000p-3, 0x1.07b1680000000p-5, 0x1.8e92cc0000000p-8, 0x1.50c2540000000p-2, 0x1.d9d7ea0000000p-5, -0x1.40df6c0000000p-4, 0x1.b876140000000p-5, -0x1.990c7a0000000p-3, 0x1.960eca0000000p-3, 0x1.22d8660000000p-2, -0x1.25d2d20000000p-3, -0x1.a07eac0000000p-3, -0x1.aebe940000000p-4, -0x1.8a87ac0000000p-6, -0x1.898f4c0000000p-2}
, {0x1.78a7840000000p-3, -0x1.cac88c0000000p-4, 0x1.584cf20000000p-5, 0x1.1211fa0000000p-4, -0x1.70cb7c0000000p-3, 0x1.a166fe0000000p-3, -0x1.26c0d40000000p-3, 0x1.19d5560000000p-3, -0x1.d3a7840000000p-3, 0x1.3a46100000000p-3, 0x1.43c1920000000p-3, 0x1.e493760000000p-5, 0x1.2c0efc0000000p-3, -0x1.8d59b20000000p-4, -0x1.4db0540000000p-3, -0x1.5c1cce0000000p-3, -0x1.3a99740000000p-5, 0x1.19b12a0000000p-3, 0x1.2953e40000000p-5, -0x1.0f3b320000000p-4, 0x1.8b1d820000000p-2, 0x1.edcf380000000p-4, 0x1.db40e00000000p-10, -0x1.b738980000000p-4, 0x1.ee3ae40000000p-6, 0x1.4c06e60000000p-6, 0x1.ee90e80000000p-4, 0x1.a2204a0000000p-3, -0x1.c36d160000000p-4, 0x1.4f18880000000p-4, -0x1.19bb280000000p-8, -0x1.5b00d00000000p-4}
}
, {{-0x1.3252b60000000p-4, 0x1.37cefe0000000p-3, -0x1.e337020000000p-4, -0x1.538bca0000000p-3, 0x1.4194dc0000000p-5, 0x1.94b9f80000000p-8, -0x1.efb6620000000p-8, -0x1.256d640000000p-4, -0x1.8d6b760000000p-3, -0x1.505cf20000000p-3, 0x1.6e1ace0000000p-3, 0x1.0dfd060000000p-3, -0x1.0b15de0000000p-3, -0x1.7cab140000000p-6, -0x1.a7dab80000000p-3, -0x1.b234dc0000000p-3, -0x1.e3995e0000000p-5, 0x1.8ad52c0000000p-4, 0x1.44bd4a0000000p-3, 0x1.7360180000000p-4, 0x1.3156720000000p-3, -0x1.d6aaa00000000p-10, 0x1.35f42e0000000p-3, 0x1.90f9da0000000p-9, -0x1.9d57760000000p-3, 0x1.142ff20000000p-5, 0x1.5468ac0000000p-4, -0x1.93f50e0000000p-3, -0x1.efb0560000000p-4, 0x1.35e9ee0000000p-4, 0x1.8197000000000p-3, -0x1.6e1b6c0000000p-6}
, {-0x1.b2a4360000000p-3, 0x1.475a6e0000000p-3, -0x1.0a7b0e0000000p-4, -0x1.499f6e0000000p-3, 0x1.b099580000000p-3, -0x1.bf58ba0000000p-3, 0x1.25e7820000000p-3, -0x1.5edf100000000p-3, 0x1.8e8a600000000p-3, 0x1.86f5120000000p-9, 0x1.a579fc0000000p-3, -0x1.f888ba0000000p-3, -0x1.17b22c0000000p-3, 0x1.a8467a0000000p-3, -0x1.37ba6c0000000p-5, -0x1.86d2460000000p-4, -0x1.8543120000000p-3, -0x1.4758a20000000p-3, 0x1.9a53980000000p-5, 0x1.d41eb60000000p-4, 0x1.3680820000000p-4, -0x1.1729700000000p-5, -0x1.1805c00000000p-4, -0x1.74a0580000000p-3, -0x1.ada8c60000000p-4, -0x1.c7ba3e0000000p-3, 0x1.9336ea0000000p-3, -0x1.eab7820000000p-5, -0x1.6175b00000000p-3, -0x1.4075de0000000p-9, -0x1.8525cc0000000p-4, 0x1.0599c40000000p-3}
}
, {{0x1.8b96bc0000000p-6, -0x1.e2c5f40000000p-3, 0x1.b611140000000p-4, -0x1.2804a60000000p-3, -0x1.65fe4c0000000p-5, -0x1.8a6bb80000000p-4, 0x1.4e245c0000000p-4, -0x1.a16b2c0000000p-5, -0x1.af167a0000000p-5, -0x1.5d4e4e0000000p-4, -0x1.c5e2500000000p-4, 0x1.f5eeae0000000p-4, 0x1.9321a40000000p-4, -0x1.d383800000000p-3, -0x1.16f9200000000p-3, 0x1.ab8d860000000p-6, 0x1.728d6c0000000p-4, -0x1.64e9200000000p-3, -0x1.e8340c0000000p-5, -0x1.a701a40000000p-4, -0x1.311b900000000p-4, 0x1.53f7120000000p-3, -0x1.050e2c0000000p-3, -0x1.4a31e20000000p-6, -0x1.98ef500000000p-3, -0x1.6855640000000p-3, -0x1.830b340000000p-4, -0x1.8628d60000000p-4, -0x1.cc73300000000p-5, 0x1.c6eb340000000p-5, -0x1.e14d7a0000000p-4, 0x1.e6c2960000000p-8}
, {-0x1.0e858e0000000p-3, -0x1.609d3a0000000p-3, -0x1.7852ee0000000p-4, 0x1.2ee01c0000000p-3, -0x1.9f33200000000p-4, 0x1.5f5ea80000000p-6, -0x1.4d95220000000p-5, -0x1.027f2c0000000p-3, 0x1.7ca3b00000000p-6, -0x1.4be8900000000p-4, -0x1.1ea7a60000000p-4, 0x1.6515380000000p-6, 0x1.4eaf3a0000000p-3, 0x1.4382a80000000p-4, -0x1.1915280000000p-4, -0x1.7504420000000p-3, -0x1.c4e06e0000000p-3, 0x1.6a1d460000000p-3, -0x1.e8aa140000000p-3, 0x1.3f05480000000p-4, -0x1.2642a40000000p-3, 0x1.7d9ce40000000p-3, -0x1.1132ce0000000p-4, 0x1.7130740000000p-4, 0x1.15b0080000000p-3, -0x1.16e5340000000p-2, 0x1.2b597e0000000p-7, -0x1.7950160000000p-5, 0x1.59fb1c0000000p-6, 0x1.6af9840000000p-5, -0x1.b72b440000000p-5, 0x1.04f59c0000000p-7}
}
, {{0x1.3fcf420000000p-3, -0x1.1d63200000000p-3, 0x1.4904c00000000p-7, -0x1.0a3a160000000p-3, 0x1.e5e24c0000000p-4, -0x1.1adc8e0000000p-3, 0x1.18e8f40000000p-4, 0x1.729ff60000000p-3, 0x1.2e6b1c0000000p-4, -0x1.18651c0000000p-4, 0x1.58401e0000000p-3, -0x1.2181900000000p-3, -0x1.c060c00000000p-5, 0x1.45736e0000000p-3, 0x1.0de7ca0000000p-3, -0x1.a479900000000p-3, 0x1.c7b0300000000p-6, -0x1.b8492e0000000p-3, -0x1.6a3f900000000p-4, -0x1.ae7b000000000p-6, -0x1.56c5140000000p-3, -0x1.31bb180000000p-3, -0x1.9cf34a0000000p-4, -0x1.4593080000000p-3, -0x1.64d22a0000000p-4, -0x1.8f61c40000000p-4, -0x1.3398000000000p-9, -0x1.8dd6fe0000000p-3, -0x1.008fde0000000p-3, -0x1.5d5a980000000p-11, -0x1.4fcd780000000p-3, 0x1.8f93ee0000000p-5}
, {-0x1.1a76780000000p-4, -0x1.e393e80000000p-3, 0x1.08959a0000000p-3, -0x1.55fd6c0000000p-4, -0x1.2666f00000000p-4, 0x1.5487ae0000000p-4, -0x1.39fdc40000000p-3, 0x1.5413900000000p-6, 0x1.8683fa0000000p-4, -0x1.82c3240000000p-3, -0x1.fc45e00000000p-4, -0x1.f3e4e40000000p-9, -0x1.d55d580000000p-4, 0x1.a4930c0000000p-4, -0x1.75ea980000000p-3, 0x1.6199c80000000p-7, -0x1.4d981c0000000p-3, 0x1.b545340000000p-4, 0x1.5957c60000000p-3, -0x1.4c50940000000p-3, -0x1.25bb1e0000000p-3, 0x1.35ef740000000p-4, -0x1.a868300000000p-5, -0x1.01b66a0000000p-2, 0x1.74c88e0000000p-5, 0x1.ca8b5e0000000p-5, -0x1.020e3c0000000p-3, 0x1.0a676a0000000p-3, 0x1.7a7ee60000000p-14, -0x1.e0a3c40000000p-3, 0x1.45f83a0000000p-3, -0x1.0376520000000p-3}
}
}
;

#undef INPUT_CHANNELS
#undef CONV_FILTERS
#undef CONV_KERNEL_SIZE
#undef CONV_GROUPS