/**
  ******************************************************************************
  * @file    weights/conv1d.cc
  * @author  Pierre-Emmanuel Novac <penovac@unice.fr>, LEAT, CNRS, Université Côte d'Azur, France
  * @version 1.0.0
  * @date    24 march 2020
  * @brief   Template generating plain C code for the implementation of Convolutional Neural Networks on MCU
  */

#include <stdint.h>

#define INPUT_CHANNELS    1
#define CONV_FILTERS      8
#define CONV_KERNEL_SIZE  40
#define CONV_GROUPS       1


const float  conv1d_24_bias[CONV_FILTERS] = {0x1.1683480000000p-8, 0x1.9d84440000000p-8, -0x1.d92d880000000p-5, -0x1.ecd4da0000000p-5, 0x1.0e8db80000000p-8, -0x1.180f9e0000000p-3, 0x1.0645700000000p-8, -0x1.33b4be0000000p-7}
;

const float  conv1d_24_kernel[CONV_FILTERS][CONV_KERNEL_SIZE][INPUT_CHANNELS / CONV_GROUPS] = {{{0x1.a02c6c0000000p-1}
, {-0x1.528f3e0000000p+0}
, {0x1.a008360000000p-1}
, {-0x1.f2f0bc0000000p-2}
, {0x1.1c68ca0000000p+0}
, {-0x1.dcb2700000000p+0}
, {0x1.3352fe0000000p+0}
, {-0x1.4cf0880000000p+0}
, {0x1.f7e5de0000000p-1}
, {-0x1.eb47020000000p-2}
, {0x1.58a24a0000000p-1}
, {-0x1.c52cda0000000p+0}
, {0x1.0145680000000p+0}
, {-0x1.949f760000000p-2}
, {0x1.9b4e580000000p-1}
, {-0x1.cd03c00000000p+0}
, {0x1.9dbd820000000p+0}
, {-0x1.e214b20000000p+0}
, {0x1.109cce0000000p+1}
, {-0x1.591b820000000p+1}
, {0x1.f2f3da0000000p+0}
, {-0x1.384b4a0000000p+1}
, {0x1.d1bd360000000p+0}
, {-0x1.57f1ec0000000p+0}
, {0x1.8e66b00000000p+0}
, {-0x1.f2500c0000000p-2}
, {0x1.bc87f80000000p+0}
, {0x1.eee47e0000000p-1}
, {-0x1.58cd740000000p-5}
, {0x1.73f8460000000p+0}
, {-0x1.9525380000000p-1}
, {0x1.d378840000000p+0}
, {-0x1.8a3a0a0000000p+1}
, {0x1.89f50a0000000p+0}
, {-0x1.ca473e0000000p+1}
, {0x1.0b51540000000p+1}
, {-0x1.4e72f00000000p+1}
, {0x1.c8ac0a0000000p+0}
, {-0x1.4f71ce0000000p+1}
, {0x1.04f5400000000p+1}
}
, {{0x1.1a20640000000p+0}
, {-0x1.2838d60000000p-3}
, {0x1.56d6d80000000p+0}
, {-0x1.0d35e00000000p+1}
, {0x1.d20c740000000p+0}
, {-0x1.32daf80000000p+1}
, {0x1.a2902c0000000p+0}
, {-0x1.a752080000000p+1}
, {0x1.04ebde0000000p+1}
, {-0x1.d396940000000p+1}
, {0x1.d96e7c0000000p+0}
, {-0x1.f91fd40000000p-1}
, {0x1.7d6d240000000p+0}
, {0x1.07b6ca0000000p-7}
, {0x1.f14ff40000000p-1}
, {0x1.dfa9400000000p-1}
, {0x1.13b4fe0000000p-3}
, {0x1.67b94e0000000p+0}
, {-0x1.8d98140000000p-1}
, {0x1.87efb80000000p+0}
, {-0x1.615ece0000000p+1}
, {0x1.a6fbba0000000p+0}
, {-0x1.7b118e0000000p+1}
, {0x1.d6dcf00000000p+0}
, {-0x1.a2b8680000000p+1}
, {0x1.6338d60000000p+0}
, {-0x1.fc922c0000000p-2}
, {0x1.1f278e0000000p+0}
, {-0x1.9614a40000000p+0}
, {0x1.ab0c380000000p+0}
, {-0x1.2272760000000p+0}
, {0x1.572cd00000000p+0}
, {-0x1.d5852a0000000p-2}
, {0x1.6f2e620000000p+0}
, {-0x1.eefd540000000p+0}
, {0x1.52f4ac0000000p+0}
, {-0x1.b839520000000p-3}
, {0x1.aedc160000000p-1}
, {-0x1.f777620000000p-1}
, {0x1.3958980000000p+0}
}
, {{-0x1.c579f00000000p-7}
, {0x1.0c9e960000000p-5}
, {-0x1.1cea660000000p-4}
, {-0x1.70b9480000000p-5}
, {0x1.f2e89a0000000p-5}
, {0x1.4ac3560000000p-6}
, {-0x1.39c8f00000000p-4}
, {0x1.118be40000000p-4}
, {-0x1.37482e0000000p-4}
, {0x1.0298aa0000000p-4}
, {0x1.6cc8260000000p-4}
, {0x1.4445820000000p-3}
, {-0x1.7a01cc0000000p-4}
, {0x1.2210860000000p-5}
, {-0x1.7d3ed00000000p-7}
, {-0x1.b5ea320000000p-4}
, {0x1.fbbbca0000000p-6}
, {0x1.28757a0000000p-3}
, {-0x1.b291e20000000p-3}
, {0x1.1a03720000000p-4}
, {0x1.f6a2960000000p-5}
, {0x1.85b64c0000000p-5}
, {0x1.9dad200000000p-5}
, {-0x1.681ab20000000p-5}
, {-0x1.7f03640000000p-4}
, {0x1.f407620000000p-5}
, {0x1.a8ecd80000000p-5}
, {0x1.3e045c0000000p-5}
, {0x1.a657ba0000000p-5}
, {0x1.7873120000000p-5}
, {0x1.48b9f20000000p-4}
, {-0x1.4aaaf40000000p-4}
, {-0x1.002d740000000p-4}
, {0x1.337d860000000p-5}
, {-0x1.74c3400000000p-6}
, {-0x1.835a460000000p-4}
, {-0x1.5916540000000p-3}
, {-0x1.88118e0000000p-4}
, {0x1.c3c5940000000p-5}
, {-0x1.7daff60000000p-7}
}
, {{0x1.2fd6940000000p-7}
, {0x1.2bb3f80000000p-6}
, {-0x1.30ae8a0000000p-5}
, {0x1.197ed60000000p-4}
, {0x1.54f2e20000000p-6}
, {0x1.c588c40000000p-6}
, {-0x1.318ffe0000000p-4}
, {0x1.08a5980000000p-3}
, {-0x1.0f06d20000000p-5}
, {0x1.4ce1de0000000p-5}
, {0x1.5d827e0000000p-6}
, {0x1.1e36240000000p-8}
, {-0x1.723e140000000p-3}
, {0x1.7c550a0000000p-4}
, {0x1.1c47d80000000p-5}
, {-0x1.7556d20000000p-4}
, {0x1.3c1d940000000p-4}
, {0x1.3a91f60000000p-5}
, {-0x1.3b60ba0000000p-3}
, {0x1.84f9500000000p-5}
, {0x1.f272520000000p-4}
, {-0x1.327ccc0000000p-4}
, {0x1.5fb28c0000000p-4}
, {0x1.0f69240000000p-4}
, {-0x1.2b9ff20000000p-5}
, {-0x1.33c5680000000p-4}
, {-0x1.5b15e40000000p-5}
, {0x1.9cd2c60000000p-5}
, {0x1.6ef50e0000000p-4}
, {-0x1.8196d80000000p-5}
, {0x1.004a6a0000000p-3}
, {0x1.af46740000000p-4}
, {-0x1.0f2f7c0000000p-5}
, {-0x1.d5e5880000000p-5}
, {-0x1.ac540a0000000p-5}
, {0x1.31ebb20000000p-4}
, {-0x1.8405f00000000p-8}
, {-0x1.0a4bae0000000p-3}
, {0x1.0b01980000000p-4}
, {0x1.e40c600000000p-4}
}
, {{0x1.9983140000000p-2}
, {-0x1.755c000000000p+0}
, {0x1.3d9a9a0000000p-1}
, {-0x1.c125880000000p-2}
, {0x1.86f33e0000000p-1}
, {-0x1.2c60d20000000p+0}
, {0x1.d5f1a80000000p-1}
, {-0x1.c5415e0000000p-3}
, {0x1.2b21500000000p-1}
, {0x1.237a1c0000000p-1}
, {0x1.1731280000000p-1}
, {-0x1.cf9c120000000p-1}
, {0x1.e936e40000000p-1}
, {-0x1.a1c1400000000p-5}
, {0x1.294c7a0000000p-1}
, {-0x1.77463a0000000p+0}
, {0x1.56ccb20000000p+0}
, {-0x1.0c7a900000000p+1}
, {0x1.e228fa0000000p+0}
, {-0x1.8fecce0000000p+1}
, {0x1.f5f55c0000000p+0}
, {-0x1.7ffaf60000000p+1}
, {0x1.d9b6160000000p+0}
, {-0x1.391fbc0000000p+1}
, {0x1.cade920000000p+0}
, {-0x1.2c2f6c0000000p+0}
, {0x1.bfec720000000p+0}
, {0x1.d1a5ec0000000p-2}
, {0x1.0bc4660000000p-1}
, {0x1.39e54e0000000p+0}
, {-0x1.a987420000000p-2}
, {0x1.c474100000000p+0}
, {-0x1.5404740000000p+1}
, {0x1.9f79840000000p+0}
, {-0x1.c996bc0000000p+1}
, {0x1.206eca0000000p+1}
, {-0x1.7342220000000p+1}
, {0x1.9741800000000p+0}
, {-0x1.fca0800000000p+0}
, {0x1.ce22660000000p+0}
}
, {{-0x1.08bdd40000000p-4}
, {0x1.081ac60000000p-5}
, {-0x1.09baa40000000p-7}
, {0x1.eb62ae0000000p-4}
, {-0x1.57dabe0000000p-5}
, {0x1.17b0de0000000p-3}
, {0x1.99eb6c0000000p-6}
, {-0x1.8ecf0a0000000p-5}
, {0x1.2e2af80000000p-3}
, {0x1.224fee0000000p-4}
, {0x1.09155c0000000p-4}
, {-0x1.055ba40000000p-4}
, {0x1.6490a80000000p-4}
, {0x1.4935400000000p-7}
, {0x1.c346c60000000p-4}
, {0x1.6dcc220000000p-4}
, {0x1.2e832c0000000p-3}
, {-0x1.bd20fa0000000p-5}
, {0x1.b780220000000p-5}
, {0x1.0d88d20000000p-4}
, {0x1.29e7a40000000p-3}
, {-0x1.2127900000000p-14}
, {-0x1.9dfd660000000p-5}
, {0x1.06908a0000000p-4}
, {-0x1.7219d80000000p-8}
, {0x1.b017e60000000p-6}
, {0x1.294f780000000p-7}
, {0x1.2fbcc00000000p-4}
, {0x1.b2a9e80000000p-4}
, {-0x1.b277a60000000p-8}
, {0x1.4cd68a0000000p-4}
, {0x1.6279920000000p-5}
, {-0x1.19fa5a0000000p-4}
, {-0x1.18584c0000000p-4}
, {-0x1.396c6a0000000p-4}
, {-0x1.5a63380000000p-5}
, {-0x1.29d87e0000000p-4}
, {-0x1.2be5780000000p-3}
, {0x1.a58bd40000000p-4}
, {-0x1.1534960000000p-5}
}
, {{-0x1.5b04060000000p-5}
, {0x1.50a9a80000000p-2}
, {-0x1.8907aa0000000p+0}
, {0x1.2445d60000000p+0}
, {-0x1.ae12500000000p-5}
, {-0x1.d244b80000000p+0}
, {0x1.50e2e60000000p+0}
, {0x1.05d4680000000p+0}
, {-0x1.39a21a0000000p+1}
, {0x1.b396fc0000000p-6}
, {0x1.f5451c0000000p+0}
, {-0x1.1aac6e0000000p+1}
, {0x1.970bc80000000p-1}
, {0x1.2cfb920000000p-3}
, {0x1.292d380000000p-2}
, {-0x1.15c5fc0000000p+1}
, {0x1.71181e0000000p+1}
, {-0x1.905a080000000p+0}
, {0x1.0d9bc60000000p+0}
, {-0x1.61f5380000000p+1}
, {0x1.b2ecbe0000000p+1}
, {-0x1.7d3f160000000p+1}
, {0x1.bb2f8e0000000p+1}
, {-0x1.94e2040000000p+1}
, {0x1.799e4e0000000p+1}
, {-0x1.a308d40000000p+1}
, {0x1.9044720000000p+1}
, {-0x1.5d8cf20000000p+1}
, {0x1.51b4780000000p+1}
, {-0x1.76dbc80000000p+1}
, {0x1.078d5a0000000p+1}
, {-0x1.f539f00000000p-1}
, {0x1.ecc1260000000p-1}
, {-0x1.6088b40000000p-1}
, {0x1.f1cb860000000p-1}
, {0x1.3795ce0000000p-2}
, {-0x1.e634840000000p-2}
, {0x1.10e3060000000p+0}
, {-0x1.7d655c0000000p+0}
, {0x1.77fe960000000p+0}
}
, {{0x1.96123c0000000p-1}
, {0x1.389b320000000p+0}
, {0x1.0a1c8e0000000p+0}
, {0x1.092bec0000000p+0}
, {0x1.33c9300000000p-1}
, {0x1.b4f4b60000000p-1}
, {0x1.3bad280000000p-1}
, {0x1.a86a740000000p-1}
, {0x1.6e2f620000000p-1}
, {0x1.e73d140000000p-1}
, {0x1.36ae540000000p-1}
, {0x1.29405c0000000p+0}
, {0x1.4be56c0000000p-1}
, {0x1.18539a0000000p+0}
, {0x1.ab95480000000p-1}
, {0x1.22c8100000000p+0}
, {0x1.dd5fda0000000p-1}
, {0x1.20b4ec0000000p+0}
, {0x1.16ee5c0000000p+0}
, {0x1.3312be0000000p+0}
, {0x1.eb95b40000000p-1}
, {0x1.2bc3da0000000p+0}
, {0x1.21d6b00000000p+0}
, {0x1.07c06e0000000p+0}
, {0x1.40ffe60000000p+0}
, {0x1.2ae0ba0000000p+0}
, {0x1.97fb120000000p-1}
, {0x1.aea8c00000000p-1}
, {0x1.40cb6c0000000p+0}
, {0x1.085b520000000p+0}
, {0x1.1f427e0000000p+0}
, {0x1.009ae00000000p-1}
, {0x1.66c3800000000p-1}
, {0x1.b126c00000000p-1}
, {0x1.6d73500000000p-1}
, {0x1.b3a68c0000000p-1}
, {0x1.2ad1ae0000000p+0}
, {0x1.d0bb8c0000000p-1}
, {0x1.2baeac0000000p+0}
, {0x1.0be16a0000000p+0}
}
}
;

#undef INPUT_CHANNELS
#undef CONV_FILTERS
#undef CONV_KERNEL_SIZE
#undef CONV_GROUPS