/**
  ******************************************************************************
  * @file    weights/conv1d.cc
  * @author  Pierre-Emmanuel Novac <penovac@unice.fr>, LEAT, CNRS, Université Côte d'Azur, France
  * @version 1.0.0
  * @date    24 march 2020
  * @brief   Template generating plain C code for the implementation of Convolutional Neural Networks on MCU
  */

#include <stdint.h>

#define INPUT_CHANNELS    32
#define CONV_FILTERS      32
#define CONV_KERNEL_SIZE  2
#define CONV_GROUPS       1


const float  conv1d_23_bias[CONV_FILTERS] = {0x1.11afd80000000p-3, 0x1.dd7fa20000000p-4, -0x1.6a9a4c0000000p-4, -0x1.c4bd380000000p-5, 0x1.4958300000000p-3, 0x1.62b4b80000000p-4, 0x1.23dd780000000p-7, -0x1.2ecce40000000p-2, -0x1.46ba5c0000000p-3, 0x1.303e0c0000000p-1, 0x1.0641c00000000p-2, -0x1.3c3a3a0000000p-2, -0x1.85a1c40000000p-3, -0x1.35c5540000000p-3, -0x1.4e4d080000000p-4, -0x1.1b2fd80000000p-3, -0x1.53f5a00000000p-4, -0x1.2270f20000000p-5, -0x1.e6b3060000000p-6, -0x1.9604a20000000p-6, -0x1.b5e2060000000p-5, 0x1.3e53d20000000p-3, -0x1.138cb20000000p-4, -0x1.5d0c5a0000000p-3, -0x1.fe1a5c0000000p-5, 0x1.1c6b480000000p-5, -0x1.24ffda0000000p-3, -0x1.bab4180000000p-3, 0x1.e57c180000000p-5, 0x1.6f45300000000p-5, -0x1.0566e20000000p-4, -0x1.869f580000000p-3}
;

const float  conv1d_23_kernel[CONV_FILTERS][CONV_KERNEL_SIZE][INPUT_CHANNELS / CONV_GROUPS] = {{{-0x1.74a9820000000p-8, 0x1.6a86be0000000p-2, 0x1.401a1c0000000p-5, -0x1.84be2c0000000p-6, 0x1.24b4300000000p-5, -0x1.c02d8e0000000p-2, 0x1.099d4a0000000p-2, 0x1.433de20000000p-2, 0x1.5a1a380000000p-2, -0x1.068e000000000p-4, -0x1.c6beb80000000p-2, 0x1.53fe5e0000000p-4, -0x1.80c2b60000000p-2, 0x1.46e7320000000p-3, -0x1.d7540c0000000p-3, 0x1.06b4440000000p-2, -0x1.10a0520000000p-3, -0x1.20f08a0000000p-4, -0x1.7bc72a0000000p-3, 0x1.cdb85c0000000p-3, -0x1.ae3e4a0000000p-2, 0x1.89d1b40000000p-2, 0x1.1aa17c0000000p-2, 0x1.2fd9060000000p-3, -0x1.6c328a0000000p-3, -0x1.5a97c80000000p-3, 0x1.08d2600000000p-2, 0x1.6e7a620000000p-6, 0x1.dffd080000000p-3, -0x1.20f82a0000000p-2, -0x1.f3fbb00000000p-3, -0x1.3967120000000p-2}
, {0x1.84a57c0000000p-4, 0x1.9cae960000000p-3, 0x1.ad8a3e0000000p-3, 0x1.03ee7c0000000p-6, 0x1.b9e64e0000000p-4, 0x1.ed30940000000p-7, -0x1.683f2a0000000p-5, 0x1.b18bac0000000p-3, -0x1.dc67ea0000000p-4, -0x1.32042a0000000p-1, -0x1.e376be0000000p-5, 0x1.443c2c0000000p-4, 0x1.3c73180000000p-2, -0x1.4c4fa40000000p-4, -0x1.b2b6700000000p-3, 0x1.e5d20c0000000p-3, 0x1.09d3640000000p-4, -0x1.6500640000000p-2, -0x1.68f05a0000000p-1, 0x1.0f51b60000000p-4, -0x1.20c5e40000000p-2, 0x1.672ca40000000p-2, 0x1.2453bc0000000p-6, -0x1.939cb80000000p-1, 0x1.1679740000000p-3, 0x1.e447040000000p-5, -0x1.6681280000000p-3, -0x1.2d527c0000000p-7, 0x1.54e1f80000000p-2, -0x1.3d811e0000000p-2, -0x1.55a7660000000p-4, 0x1.82330e0000000p-4}
}
, {{-0x1.1185c40000000p-3, 0x1.4923760000000p-4, 0x1.14065c0000000p-3, 0x1.9020fa0000000p-4, -0x1.3fd0a40000000p-4, 0x1.23d2ce0000000p-2, 0x1.72aec00000000p-1, 0x1.d7838c0000000p-3, 0x1.04d6620000000p-7, 0x1.5c56e20000000p-4, 0x1.249a680000000p-2, -0x1.4214540000000p-2, 0x1.b943860000000p-2, -0x1.a3ab680000000p-6, 0x1.19fc760000000p-2, 0x1.1f13680000000p-2, -0x1.013f040000000p-4, -0x1.92f2a60000000p-5, 0x1.56c8ca0000000p-1, 0x1.2a7fe00000000p-2, 0x1.653c4a0000000p-4, 0x1.72732e0000000p-2, 0x1.0b83b60000000p-6, 0x1.32c8d20000000p+0, -0x1.588a840000000p-3, 0x1.2092660000000p-2, 0x1.c900480000000p-3, -0x1.24a9960000000p-3, 0x1.576c540000000p-4, 0x1.29f14e0000000p-2, 0x1.09c16a0000000p-2, 0x1.adce860000000p-5}
, {-0x1.ad81200000000p-5, -0x1.0a4b1e0000000p-1, -0x1.af7b2e0000000p-3, 0x1.4499060000000p-4, 0x1.939d720000000p-9, -0x1.b032700000000p-3, -0x1.ba9d260000000p-3, -0x1.4657ca0000000p-4, -0x1.c1eee20000000p-2, -0x1.4ec94e0000000p+0, -0x1.6c4af40000000p-2, -0x1.bf64cc0000000p-3, -0x1.5ce1de0000000p-1, 0x1.14a00a0000000p-4, -0x1.bbf6600000000p-2, -0x1.cb86300000000p-4, -0x1.cc2d460000000p-5, -0x1.09bf460000000p-4, -0x1.26ce9e0000000p-1, 0x1.67bc120000000p-3, -0x1.ca47120000000p-1, 0x1.79b98a0000000p-2, -0x1.4cb1680000000p-1, 0x1.cd820e0000000p-1, 0x1.2ffd760000000p-4, -0x1.dead7e0000000p-3, -0x1.0efc400000000p+0, 0x1.39f4020000000p-5, -0x1.9711cc0000000p-3, 0x1.93d1e00000000p-5, -0x1.f3116c0000000p-3, -0x1.9523e00000000p-3}
}
, {{-0x1.18e6140000000p-8, -0x1.7285460000000p-2, 0x1.6ceb100000000p-3, 0x1.2721820000000p-2, -0x1.35af420000000p-3, 0x1.9a508c0000000p-2, -0x1.b492280000000p-3, -0x1.56134a0000000p-7, -0x1.9525080000000p-5, -0x1.0df5380000000p+0, 0x1.1a5d400000000p-1, 0x1.06939a0000000p-5, -0x1.1320ba0000000p-1, -0x1.a19b5a0000000p-4, 0x1.e1e8500000000p-2, -0x1.314bfe0000000p-2, 0x1.9b68aa0000000p-3, 0x1.a3f7580000000p-5, -0x1.118a680000000p+0, 0x1.70bf940000000p-4, -0x1.b4186e0000000p-1, -0x1.c309f60000000p-3, 0x1.4653600000000p-3, 0x1.51fe160000000p-2, -0x1.60aee80000000p-6, 0x1.9a438c0000000p-2, -0x1.8295da0000000p-3, -0x1.0ea30a0000000p-3, -0x1.24dae40000000p-5, -0x1.02b73e0000000p-2, 0x1.b5ebf00000000p-3, 0x1.ee0c960000000p-2}
, {0x1.431f100000000p-3, 0x1.c7b4d20000000p-7, -0x1.c3bc120000000p-4, 0x1.5700ac0000000p-2, 0x1.cef3ae0000000p-5, -0x1.58281a0000000p-2, -0x1.d11df60000000p-4, 0x1.1f699c0000000p-5, 0x1.b318340000000p-2, -0x1.8f1db40000000p-2, -0x1.8384f20000000p-1, -0x1.2f89960000000p-5, -0x1.242c4c0000000p-1, 0x1.60a0f20000000p-3, -0x1.44f5420000000p-1, 0x1.dc3ff00000000p-2, -0x1.4c5cf40000000p-4, 0x1.b0e1820000000p-2, 0x1.81d8440000000p-4, 0x1.c896f00000000p-2, -0x1.e32ea40000000p-2, 0x1.60bb780000000p-2, 0x1.f017720000000p-6, 0x1.1ca9940000000p+1, 0x1.e5e7be0000000p-6, -0x1.b486920000000p-2, -0x1.d7aa540000000p-2, -0x1.9f6ab20000000p-5, -0x1.d2a7840000000p-4, -0x1.85d7040000000p-2, -0x1.f588e00000000p-1, -0x1.1666a80000000p-1}
}
, {{0x1.33e7ce0000000p-3, -0x1.26bc980000000p-3, 0x1.710d480000000p-3, -0x1.b741820000000p-3, 0x1.6e2ac40000000p-5, -0x1.c62d060000000p-2, 0x1.eeda4c0000000p-5, -0x1.5522060000000p-3, 0x1.69ccbe0000000p-4, -0x1.49a7940000000p-3, -0x1.127f500000000p-3, 0x1.3c0c780000000p-6, -0x1.946b380000000p-3, 0x1.3d51f40000000p-3, -0x1.35beaa0000000p-2, 0x1.3fa4ba0000000p-6, 0x1.0f41100000000p-3, -0x1.060ae00000000p-4, -0x1.5196000000000p-3, -0x1.691b0c0000000p-6, -0x1.eafe5a0000000p-5, -0x1.629ee20000000p-4, -0x1.3edb220000000p-4, -0x1.5fa80c0000000p-2, 0x1.3347600000000p-5, -0x1.bed0d20000000p-3, -0x1.0306ce0000000p-2, -0x1.d0d9cc0000000p-3, -0x1.2021ce0000000p-4, 0x1.268a8e0000000p-3, -0x1.7ff0340000000p-2, -0x1.b343000000000p-2}
, {0x1.4e30040000000p-8, 0x1.5fe62e0000000p-3, -0x1.184b580000000p-3, -0x1.2db2060000000p-4, 0x1.8c804c0000000p-3, -0x1.49aa000000000p-3, -0x1.b6c9560000000p-5, 0x1.6078600000000p-3, -0x1.3cc94e0000000p-3, -0x1.57f8e40000000p-4, -0x1.c7bc4c0000000p-3, -0x1.39da920000000p-3, 0x1.b8c3c60000000p-4, -0x1.8c1ca60000000p-4, -0x1.1582840000000p-2, -0x1.03a2da0000000p-4, 0x1.c08fee0000000p-9, 0x1.2543100000000p-2, -0x1.348a0a0000000p-4, 0x1.db0f180000000p-3, -0x1.2973b00000000p-2, 0x1.6eb6dc0000000p-4, -0x1.7f890e0000000p-7, -0x1.431ea40000000p-3, 0x1.8833e60000000p-4, -0x1.29cd5e0000000p-2, -0x1.2d444e0000000p-4, -0x1.d51b520000000p-3, 0x1.8c26a00000000p-4, 0x1.0383b40000000p-2, -0x1.d1ca940000000p-3, -0x1.43e5820000000p-3}
}
, {{-0x1.dcb1420000000p-4, 0x1.0dd4280000000p-4, -0x1.13a1400000000p-3, -0x1.2a9da40000000p-4, -0x1.f399540000000p-5, -0x1.6048d20000000p-2, 0x1.5c0f700000000p-3, 0x1.178fe20000000p-2, 0x1.0b9ee00000000p-2, -0x1.4fa04a0000000p-2, -0x1.f322a00000000p-2, -0x1.563ed20000000p-4, -0x1.3361420000000p-1, -0x1.06c19c0000000p-4, -0x1.9e19920000000p-3, 0x1.1e50f60000000p-3, -0x1.e5d1560000000p-7, -0x1.08ba4a0000000p-3, 0x1.bdf5d40000000p-3, 0x1.4122760000000p-4, -0x1.9b3d060000000p-2, 0x1.2c915a0000000p-2, 0x1.29bae00000000p-3, -0x1.a7def20000000p-1, 0x1.3265fc0000000p-4, -0x1.7fdb3c0000000p-3, 0x1.c76c640000000p-3, -0x1.86e1580000000p-9, 0x1.1e73a60000000p-2, 0x1.6dc5080000000p-5, 0x1.2c88100000000p-5, -0x1.bcaa660000000p-2}
, {0x1.619c2a0000000p-4, 0x1.535ef40000000p-3, 0x1.b799080000000p-6, 0x1.ee62880000000p-4, 0x1.bcb2620000000p-4, -0x1.0996240000000p-2, 0x1.e6a4f40000000p-7, 0x1.73a3780000000p-2, 0x1.69e0fc0000000p-2, -0x1.8a983e0000000p-3, -0x1.2cefcc0000000p-4, -0x1.2641ec0000000p-3, -0x1.848b000000000p-2, -0x1.0a13fc0000000p-4, -0x1.f137f40000000p-3, -0x1.eb2cc00000000p-5, 0x1.be02160000000p-4, -0x1.14ccbe0000000p-7, 0x1.af27440000000p-5, 0x1.bb054a0000000p-3, -0x1.3f3cf60000000p-2, 0x1.05cb120000000p-1, -0x1.0670340000000p-5, -0x1.488a620000000p-1, 0x1.58b6440000000p-4, -0x1.548de00000000p-2, 0x1.200e120000000p-2, 0x1.8d1abe0000000p-3, 0x1.d64cd40000000p-3, -0x1.7ec01e0000000p-4, -0x1.f374b40000000p-3, -0x1.252bb20000000p-2}
}
, {{0x1.a4f1940000000p-3, 0x1.b9a3b60000000p-4, 0x1.06c04c0000000p-5, 0x1.0e07f00000000p-3, -0x1.c9f8f20000000p-7, -0x1.7034500000000p-3, 0x1.9f70980000000p-2, 0x1.d0806c0000000p-2, -0x1.6430ae0000000p-4, -0x1.077f480000000p+0, 0x1.7b2e880000000p-7, 0x1.17499e0000000p-3, -0x1.8772fc0000000p-4, 0x1.29feda0000000p-5, -0x1.562f6a0000000p-5, -0x1.c77a780000000p-2, 0x1.39a8560000000p-3, 0x1.cfc3c60000000p-4, -0x1.726e7e0000000p-1, 0x1.0e65e60000000p-5, -0x1.6cbb460000000p+0, 0x1.d0f9ca0000000p-3, -0x1.70115e0000000p-6, -0x1.f674720000000p+0, -0x1.9a47cc0000000p-3, -0x1.10659e0000000p-3, -0x1.55e5440000000p-2, -0x1.434bae0000000p-3, -0x1.77aae20000000p-3, 0x1.5452200000000p-2, -0x1.3911e20000000p-5, -0x1.29f0300000000p-3}
, {-0x1.f03ca60000000p-4, 0x1.f93f040000000p-4, -0x1.4a03d40000000p-4, 0x1.d5c0e00000000p-4, -0x1.2750740000000p-3, -0x1.0a801c0000000p-2, 0x1.d7ff4a0000000p-1, 0x1.18dcca0000000p-6, -0x1.99a31e0000000p-5, -0x1.56f96e0000000p-5, -0x1.0346620000000p-3, 0x1.c667940000000p-5, 0x1.454c2a0000000p-1, -0x1.615c560000000p-3, -0x1.69ec0a0000000p-3, -0x1.340d100000000p-1, -0x1.11cf520000000p-4, 0x1.2bffe80000000p-2, -0x1.684acc0000000p-2, -0x1.75caae0000000p-3, -0x1.43d4340000000p-3, 0x1.6f273c0000000p-1, -0x1.e345f00000000p-4, -0x1.81250a0000000p+0, 0x1.f0b5da0000000p-6, -0x1.a05ef80000000p-3, -0x1.5faef80000000p-3, 0x1.8996900000000p-5, -0x1.d2e02a0000000p-4, 0x1.e731cc0000000p-2, -0x1.f24ce60000000p-4, 0x1.4b92d80000000p-2}
}
, {{-0x1.65d5a80000000p-4, 0x1.7f36740000000p-3, -0x1.7769d80000000p-5, -0x1.c041920000000p-3, -0x1.3b99680000000p-3, 0x1.f01d560000000p-2, -0x1.1104ee0000000p-1, 0x1.2e033e0000000p-3, 0x1.8fa7680000000p-2, 0x1.8e2e340000000p-2, 0x1.a0cf8e0000000p-3, 0x1.f156260000000p-4, -0x1.e63d7a0000000p-5, 0x1.3223e60000000p-8, 0x1.796a240000000p-2, 0x1.df7a100000000p-7, -0x1.9f19a20000000p-5, -0x1.d147480000000p-3, -0x1.4b75bc0000000p-1, -0x1.24c48c0000000p-2, 0x1.dc82e00000000p-4, -0x1.3cbf220000000p-2, 0x1.1317b00000000p-2, -0x1.ef8b7c0000000p-1, 0x1.ef41040000000p-4, 0x1.215b640000000p-3, 0x1.0173ec0000000p-2, -0x1.2f51680000000p-4, -0x1.a7820e0000000p-4, -0x1.3533880000000p-2, -0x1.d2eed00000000p-7, 0x1.098e440000000p-1}
, {-0x1.86d54a0000000p-3, -0x1.40d7100000000p-6, 0x1.532fe40000000p-5, -0x1.916d000000000p-5, -0x1.1507360000000p-5, 0x1.8c196a0000000p-4, -0x1.c1d8f80000000p-1, 0x1.3bc1960000000p-2, -0x1.86b4840000000p-5, 0x1.7590320000000p-2, 0x1.e54c720000000p-3, -0x1.97e8a00000000p-4, -0x1.2be7a20000000p-1, -0x1.c02e8e0000000p-6, 0x1.73c3320000000p-2, -0x1.71cb5c0000000p-5, 0x1.0ad3320000000p-2, 0x1.1bf3c20000000p-6, -0x1.a203ae0000000p-3, -0x1.5e56820000000p-3, -0x1.829e300000000p-8, -0x1.591ea60000000p-3, 0x1.ee26c20000000p-3, -0x1.3604bc0000000p+0, -0x1.b5edea0000000p-5, 0x1.476fae0000000p-3, 0x1.6ac6b80000000p-9, 0x1.a88a7c0000000p-4, -0x1.2f36320000000p-2, 0x1.8879b00000000p-5, 0x1.a3eaac0000000p-2, 0x1.00e4c80000000p-2}
}
, {{0x1.26925c0000000p-4, 0x1.cbff760000000p-5, 0x1.ab35800000000p-4, -0x1.b1211c0000000p-5, -0x1.e2c6f00000000p-4, -0x1.280d160000000p-2, 0x1.4eb41a0000000p-2, 0x1.9fe1a20000000p-3, 0x1.3586b20000000p-1, -0x1.d014b40000000p-1, -0x1.7b857e0000000p-2, -0x1.5ce1040000000p-5, -0x1.6a13840000000p-7, -0x1.19dc6a0000000p-4, -0x1.0116ca0000000p-3, 0x1.3b64380000000p-2, 0x1.d6a6c00000000p-6, 0x1.2914340000000p-2, 0x1.2d17a40000000p-1, 0x1.75716a0000000p-1, -0x1.dd29ec0000000p-4, 0x1.447a560000000p-2, 0x1.7840b80000000p-4, 0x1.3c52c20000000p+1, 0x1.a508440000000p-3, -0x1.9089a60000000p-3, 0x1.4ee84a0000000p-2, 0x1.2015f00000000p-5, -0x1.40cce00000000p-6, -0x1.ead3820000000p-2, -0x1.902ae60000000p-3, -0x1.e257d80000000p-4}
, {0x1.3977540000000p-3, -0x1.0539560000000p-2, -0x1.8e4c420000000p-5, 0x1.3a868c0000000p-2, -0x1.757a200000000p-4, 0x1.7b19a20000000p-2, -0x1.00d0de0000000p-1, 0x1.6b22900000000p-2, 0x1.80e74c0000000p-2, -0x1.a4cb8a0000000p-1, 0x1.e415140000000p-3, 0x1.d724f60000000p-5, -0x1.04a66c0000000p-1, 0x1.827e060000000p-6, 0x1.290dba0000000p-2, -0x1.46cd780000000p-3, 0x1.f556140000000p-6, -0x1.eb2a400000000p-3, 0x1.e28c7a0000000p-5, 0x1.32520c0000000p-2, -0x1.0fafa40000000p-2, 0x1.17211a0000000p-2, 0x1.54f5ea0000000p-2, 0x1.c60cd80000000p-1, -0x1.81d10a0000000p-5, 0x1.a1d7540000000p-2, 0x1.9b5b6a0000000p-3, 0x1.7b308e0000000p-5, -0x1.5ea0c40000000p-5, -0x1.8527840000000p-2, 0x1.1a003e0000000p-2, 0x1.54e10e0000000p-3}
}
, {{0x1.75ccb20000000p-3, -0x1.a2cf4c0000000p-3, 0x1.d67c880000000p-5, 0x1.97a82c0000000p-4, -0x1.48f6420000000p-3, -0x1.3afdc00000000p-3, -0x1.0ff14c0000000p-4, -0x1.a0897e0000000p-4, -0x1.9fd81e0000000p-4, 0x1.b5d4da0000000p-3, -0x1.cc68440000000p-3, -0x1.2ff9780000000p-4, -0x1.1775980000000p-3, 0x1.cdb7bc0000000p-4, -0x1.bf137e0000000p-5, -0x1.fd0f160000000p-4, 0x1.cc33400000000p-6, -0x1.956a300000000p-6, 0x1.a150940000000p-4, -0x1.3f1e740000000p-2, 0x1.a9997e0000000p-3, 0x1.d46d400000000p-7, -0x1.6deea40000000p-3, 0x1.21e46c0000000p-4, 0x1.2d1c3e0000000p-3, -0x1.9552660000000p-4, -0x1.6f85c20000000p-3, 0x1.6460b40000000p-4, -0x1.3767580000000p-3, 0x1.4051c40000000p-4, 0x1.230d460000000p-5, -0x1.6639e00000000p-2}
, {-0x1.656a580000000p-3, -0x1.8737f00000000p-5, -0x1.3ab1980000000p-5, -0x1.8f59600000000p-4, 0x1.c8a5940000000p-4, -0x1.e253a00000000p-7, -0x1.9445800000000p-3, 0x1.59deca0000000p-3, 0x1.2c5eec0000000p-4, -0x1.6476180000000p-3, -0x1.dd7ec20000000p-3, 0x1.bb4efe0000000p-3, 0x1.05c9000000000p-10, -0x1.33f1c00000000p-5, -0x1.0111de0000000p-3, -0x1.d034ae0000000p-4, -0x1.5166aa0000000p-3, -0x1.613a7c0000000p-3, 0x1.249e0a0000000p-3, -0x1.9845c20000000p-3, -0x1.e8bcc00000000p-5, 0x1.b60cd80000000p-5, -0x1.74d9cc0000000p-3, -0x1.94b1440000000p-3, 0x1.1fb9ca0000000p-3, -0x1.959c940000000p-4, -0x1.6590ac0000000p-4, -0x1.1b0f600000000p-4, -0x1.5c06500000000p-5, -0x1.0fbed00000000p-3, -0x1.52bb380000000p-4, -0x1.4468400000000p-2}
}
, {{-0x1.33ad620000000p-3, 0x1.522df00000000p-5, 0x1.0a56620000000p-4, -0x1.ded8040000000p-4, 0x1.fffafc0000000p-5, -0x1.0a07140000000p-2, -0x1.039ffc0000000p-2, 0x1.574b3c0000000p-8, -0x1.9f4b2e0000000p-4, 0x1.0451b60000000p-1, -0x1.b370f40000000p-3, -0x1.1c707e0000000p-3, -0x1.18c8120000000p-2, -0x1.8c42820000000p-3, 0x1.4870d20000000p-3, -0x1.b8edc40000000p-5, -0x1.18c4ba0000000p-3, 0x1.e0765e0000000p-4, -0x1.2ad2900000000p-2, 0x1.fe9f6a0000000p-4, -0x1.e8a5980000000p-4, 0x1.554db80000000p-1, -0x1.90108e0000000p-2, -0x1.1ff34a0000000p+1, 0x1.3ce6900000000p-4, -0x1.0890580000000p-4, -0x1.008a900000000p-2, 0x1.3ac9e20000000p-6, 0x1.8b203a0000000p-2, 0x1.93a7240000000p-3, 0x1.fe66880000000p-5, 0x1.74d14c0000000p-2}
, {0x1.b88cb40000000p-5, 0x1.f194700000000p-3, 0x1.7d3ade0000000p-5, -0x1.2ce7600000000p-3, -0x1.c639ec0000000p-4, -0x1.9669680000000p-4, 0x1.2f62f00000000p-1, 0x1.913b1c0000000p-3, -0x1.b88cec0000000p-5, -0x1.ecb74a0000000p-3, -0x1.ac353a0000000p-4, 0x1.74a1840000000p-3, 0x1.65cdac0000000p-4, -0x1.70707e0000000p-11, 0x1.86246c0000000p-3, 0x1.5a439e0000000p-3, -0x1.d889c80000000p-6, 0x1.3535b40000000p-3, 0x1.1524960000000p-2, 0x1.5b7a100000000p-2, -0x1.99fdae0000000p-4, 0x1.cb93a00000000p-2, -0x1.ceb0f00000000p-4, 0x1.5cf6ec0000000p-1, -0x1.d6a14e0000000p-5, -0x1.9856f00000000p-5, -0x1.2fa60a0000000p-3, 0x1.da221e0000000p-5, 0x1.2d5de80000000p-2, 0x1.e255d00000000p-2, -0x1.642d180000000p-3, 0x1.9e8bc60000000p-3}
}
, {{-0x1.a1b8bc0000000p-3, 0x1.dad6fe0000000p-6, -0x1.8d8bc80000000p-3, 0x1.1240f80000000p-2, -0x1.9756680000000p-3, -0x1.d414c60000000p-1, 0x1.2fb1440000000p-1, 0x1.cdc7ec0000000p-5, -0x1.aaf4620000000p-11, -0x1.c1a3cc0000000p-2, -0x1.eccb980000000p-1, -0x1.0f2b9a0000000p-3, -0x1.2a1c440000000p-5, -0x1.c7b5a80000000p-4, -0x1.aa83ec0000000p-1, -0x1.e11aa00000000p-1, -0x1.5f511a0000000p-3, -0x1.3459ee0000000p-5, 0x1.b3db5c0000000p-2, -0x1.978d980000000p-1, -0x1.ae1f6c0000000p-1, 0x1.c986f60000000p-2, 0x1.8f9bcc0000000p-3, -0x1.0e2fa80000000p+0, 0x1.40ab6e0000000p-3, -0x1.5d78380000000p+0, 0x1.c1f3660000000p-1, -0x1.9d3c700000000p-5, -0x1.9c6f560000000p-5, 0x1.c10a600000000p-3, -0x1.0aeeb60000000p+0, -0x1.8c583c0000000p-4}
, {0x1.c840780000000p-9, 0x1.090d500000000p-4, -0x1.8b82c60000000p-7, -0x1.12b97a0000000p-4, 0x1.1be8220000000p-4, -0x1.bfa79c0000000p-5, 0x1.10a8cc0000000p-1, 0x1.11537a0000000p-2, -0x1.26083a0000000p-2, -0x1.eb25900000000p-2, 0x1.a7cdcc0000000p-5, -0x1.b539520000000p-4, -0x1.a6087c0000000p-5, 0x1.72ccbe0000000p-4, -0x1.3e702a0000000p-5, -0x1.2ec81e0000000p+0, 0x1.806fa60000000p-4, -0x1.494d0a0000000p-2, 0x1.0d6eb60000000p-2, -0x1.09e0b20000000p+0, -0x1.55bf860000000p-1, -0x1.24878c0000000p-1, -0x1.edd7200000000p-4, -0x1.8422b20000000p-1, -0x1.28e5860000000p-4, 0x1.ff70c80000000p-5, 0x1.f8a5520000000p-1, 0x1.97233a0000000p-5, 0x1.1be0340000000p-6, -0x1.4a86e80000000p-4, -0x1.13bb360000000p-3, 0x1.afdff20000000p-3}
}
, {{-0x1.1348ac0000000p-4, -0x1.30349a0000000p-3, 0x1.639b7a0000000p-3, -0x1.2dc28c0000000p-3, -0x1.0a12f60000000p-4, -0x1.b999980000000p-2, -0x1.f0baf20000000p-4, -0x1.d8bc040000000p-5, -0x1.09d0ae0000000p-3, 0x1.3b9b920000000p-3, -0x1.2290020000000p-2, 0x1.455a540000000p-4, -0x1.0898f40000000p-2, -0x1.e11a7e0000000p-5, -0x1.721fd20000000p-2, -0x1.7278e80000000p-2, 0x1.3e2dbe0000000p-3, -0x1.4e49fc0000000p-6, 0x1.798e5a0000000p-3, -0x1.d609800000000p-6, -0x1.399fd80000000p-7, -0x1.5792640000000p-2, 0x1.1ec97c0000000p-7, -0x1.8aecda0000000p-2, -0x1.75ce8e0000000p-4, -0x1.86e7580000000p-4, -0x1.ce0dd40000000p-3, -0x1.36c1080000000p-3, -0x1.f159ac0000000p-4, 0x1.de47ce0000000p-6, -0x1.3859c60000000p-2, -0x1.4d80100000000p-2}
, {-0x1.fb211c0000000p-4, 0x1.d685f20000000p-3, 0x1.64207c0000000p-3, -0x1.5c6f540000000p-4, -0x1.0111e00000000p-4, -0x1.02e9ba0000000p-2, -0x1.2a36760000000p-3, 0x1.6c081c0000000p-3, 0x1.a7ebaa0000000p-3, 0x1.0c20260000000p-3, -0x1.d0a3ac0000000p-2, 0x1.30c2c60000000p-6, -0x1.58b75c0000000p-6, -0x1.3b388c0000000p-4, -0x1.23218e0000000p-2, -0x1.7863ac0000000p-3, -0x1.0426de0000000p-3, 0x1.155df20000000p-4, -0x1.78af8a0000000p-3, -0x1.0c3c400000000p-7, -0x1.b3344e0000000p-8, 0x1.a88fe20000000p-4, 0x1.b84fb60000000p-3, -0x1.1fadb80000000p-3, 0x1.36a2860000000p-5, -0x1.e2a6b60000000p-3, 0x1.ee1cba0000000p-3, -0x1.5b7a780000000p-4, -0x1.3febfe0000000p-3, -0x1.20db6a0000000p-4, -0x1.918b8a0000000p-4, -0x1.6a1b7a0000000p-4}
}
, {{-0x1.88af760000000p-3, -0x1.0129060000000p-3, -0x1.a88ff00000000p-7, 0x1.25b9520000000p-3, -0x1.26e4c60000000p-3, 0x1.70356e0000000p-4, -0x1.3a1b1a0000000p-3, -0x1.981fb20000000p-5, 0x1.3663f40000000p-4, 0x1.1420b40000000p-3, -0x1.fc617e0000000p-3, 0x1.a240aa0000000p-3, 0x1.0f84d00000000p-3, 0x1.3de6320000000p-3, -0x1.59a88a0000000p-4, 0x1.370f800000000p-5, 0x1.9190d60000000p-4, -0x1.9eb3160000000p-3, -0x1.f650720000000p-5, 0x1.dabd020000000p-5, -0x1.1c485c0000000p-3, 0x1.1f58a40000000p-4, -0x1.15d3460000000p-2, 0x1.03ab640000000p-7, -0x1.6a5eb00000000p-4, -0x1.34a3b00000000p-3, -0x1.e019e80000000p-3, -0x1.159a760000000p-4, 0x1.1d9ebe0000000p-4, -0x1.6e9ffc0000000p-4, -0x1.bce3100000000p-3, 0x1.a7e57e0000000p-7}
, {0x1.9177840000000p-3, -0x1.79e4080000000p-3, -0x1.840c1e0000000p-3, 0x1.52c3860000000p-3, 0x1.28298a0000000p-3, -0x1.ed3b500000000p-4, -0x1.ebc10e0000000p-4, -0x1.711faa0000000p-5, 0x1.68dd760000000p-4, 0x1.f61f980000000p-9, -0x1.1988460000000p-2, -0x1.e8660c0000000p-5, -0x1.17f8560000000p-7, -0x1.b038000000000p-9, 0x1.0228d20000000p-3, 0x1.f210c60000000p-7, 0x1.69754c0000000p-4, -0x1.5760a60000000p-2, -0x1.96b7880000000p-4, -0x1.2324800000000p-2, 0x1.2602ca0000000p-3, -0x1.18fbb80000000p-2, -0x1.19c9100000000p-2, 0x1.0c3cd60000000p-4, 0x1.7564800000000p-3, -0x1.7156b80000000p-3, 0x1.ca771a0000000p-7, -0x1.9a014a0000000p-3, -0x1.177bec0000000p-3, 0x1.a5f87a0000000p-3, -0x1.1c6ba00000000p-3, -0x1.36eafc0000000p-5}
}
, {{0x1.e0fbd80000000p-5, -0x1.9297980000000p-3, 0x1.765c5e0000000p-3, -0x1.c295f00000000p-5, -0x1.3843d40000000p-3, -0x1.3a90be0000000p-2, -0x1.5aa5e40000000p-4, 0x1.43e4940000000p-4, 0x1.2471bc0000000p-4, -0x1.648ee40000000p-3, -0x1.0f79b60000000p-3, -0x1.1f5e480000000p-3, 0x1.4413200000000p-7, -0x1.4bceb00000000p-4, 0x1.c651820000000p-7, -0x1.080db40000000p-2, 0x1.b958b00000000p-6, 0x1.69a0880000000p-6, -0x1.4107b40000000p-4, -0x1.4fe2780000000p-2, 0x1.5b54380000000p-5, 0x1.2b242a0000000p-3, 0x1.102ee40000000p-4, -0x1.8a41fc0000000p-3, 0x1.21b54e0000000p-3, -0x1.b7fcda0000000p-3, 0x1.16768c0000000p-4, -0x1.1c51140000000p-3, 0x1.2d176e0000000p-3, -0x1.af49600000000p-5, -0x1.43a5360000000p-2, -0x1.518a7a0000000p-2}
, {-0x1.5302ec0000000p-3, -0x1.abea880000000p-3, -0x1.b540b80000000p-5, 0x1.a6f78e0000000p-3, 0x1.c265c80000000p-5, -0x1.c958360000000p-3, -0x1.5d86400000000p-2, -0x1.1708f00000000p-3, 0x1.5291c00000000p-6, -0x1.fc291a0000000p-4, -0x1.1c24e20000000p-4, 0x1.b014780000000p-5, 0x1.eeb77e0000000p-5, 0x1.4cfdb00000000p-6, -0x1.9079e40000000p-4, -0x1.c86eb20000000p-3, 0x1.993e880000000p-5, -0x1.db98400000000p-5, 0x1.b3bd3e0000000p-3, 0x1.841d520000000p-4, 0x1.ecbf720000000p-5, -0x1.9acbe00000000p-6, 0x1.7b6efa0000000p-3, 0x1.6683c00000000p-8, 0x1.f1b1040000000p-4, -0x1.5706a20000000p-2, 0x1.3336c80000000p-5, -0x1.30e8540000000p-3, -0x1.a9da800000000p-9, -0x1.34dd500000000p-3, -0x1.afaec40000000p-3, -0x1.0f924a0000000p-2}
}
, {{-0x1.969d1a0000000p-8, -0x1.3f9f480000000p-3, -0x1.d09d4e0000000p-4, 0x1.8483120000000p-9, -0x1.789ee20000000p-3, 0x1.d3cbca0000000p-4, -0x1.df01540000000p-3, -0x1.25016e0000000p-4, -0x1.db5bee0000000p-4, -0x1.1f3b620000000p-3, -0x1.0f55be0000000p-4, 0x1.8ba1860000000p-4, -0x1.a116e60000000p-5, 0x1.7495740000000p-6, -0x1.d70ffe0000000p-3, -0x1.8818300000000p-3, 0x1.3c10d80000000p-3, 0x1.0118d80000000p-3, -0x1.32bf580000000p-5, -0x1.81d1e60000000p-3, -0x1.862a0a0000000p-3, -0x1.4375180000000p-5, 0x1.204efe0000000p-6, -0x1.a7eea20000000p-3, -0x1.89d70c0000000p-3, -0x1.662eb00000000p-6, 0x1.d638820000000p-4, 0x1.681bc80000000p-3, -0x1.94674c0000000p-5, -0x1.4a54300000000p-3, 0x1.584a620000000p-7, -0x1.2029de0000000p-4}
, {0x1.722f300000000p-5, -0x1.261e820000000p-3, 0x1.9d7fba0000000p-4, -0x1.7c80880000000p-3, -0x1.117d200000000p-3, -0x1.7f0b500000000p-7, -0x1.0769960000000p-2, 0x1.afe2080000000p-3, -0x1.865ca00000000p-3, -0x1.da17c00000000p-4, -0x1.44221c0000000p-3, -0x1.1f44be0000000p-3, 0x1.78cc120000000p-5, -0x1.e8694e0000000p-4, -0x1.e37b340000000p-3, 0x1.4a941a0000000p-3, -0x1.7785b20000000p-4, 0x1.ad18640000000p-4, -0x1.8240320000000p-7, -0x1.430e020000000p-5, -0x1.9aa69e0000000p-5, -0x1.92197e0000000p-4, -0x1.3d81ee0000000p-4, -0x1.de39c40000000p-3, -0x1.00ea220000000p-4, 0x1.69a7140000000p-5, 0x1.7f633a0000000p-3, -0x1.cd80ea0000000p-3, -0x1.c5ce8e0000000p-4, 0x1.654fe80000000p-4, 0x1.f809260000000p-4, 0x1.9e418e0000000p-10}
}
, {{-0x1.61590a0000000p-6, 0x1.f83a9c0000000p-6, -0x1.732cb00000000p-5, 0x1.3a09c00000000p-3, -0x1.8c08fe0000000p-9, -0x1.4857a00000000p-3, -0x1.6c32e20000000p-2, 0x1.3843360000000p-3, 0x1.90bd6c0000000p-3, -0x1.e24c900000000p-4, -0x1.f0e7da0000000p-4, -0x1.df7ed20000000p-3, -0x1.dde53a0000000p-5, 0x1.5d3e6c0000000p-3, -0x1.f455960000000p-2, 0x1.8dbb400000000p-5, 0x1.7b4ef60000000p-3, 0x1.0271f80000000p-2, -0x1.9399a00000000p-5, 0x1.6afc360000000p-3, -0x1.26f5de0000000p-4, 0x1.0799e60000000p-3, 0x1.73c39c0000000p-4, -0x1.026ec00000000p-3, -0x1.22f3120000000p-6, -0x1.eed70a0000000p-3, -0x1.9897300000000p-3, -0x1.15faea0000000p-3, 0x1.7c0a6c0000000p-11, -0x1.0b28420000000p-5, -0x1.e44ea80000000p-2, -0x1.2894a80000000p-2}
, {0x1.0110a80000000p-3, -0x1.24a05c0000000p-3, 0x1.27ffa60000000p-6, 0x1.5fbb8a0000000p-3, -0x1.2b604e0000000p-5, -0x1.1de2840000000p-3, -0x1.f6d7360000000p-3, 0x1.db86440000000p-4, 0x1.ba601a0000000p-5, -0x1.03d5ae0000000p-3, -0x1.36cb100000000p-2, -0x1.310e920000000p-3, -0x1.4880de0000000p-3, -0x1.b268c60000000p-3, -0x1.270f6c0000000p-2, -0x1.6f6b940000000p-3, 0x1.7f1aec0000000p-4, 0x1.5b6fee0000000p-3, 0x1.4045ca0000000p-4, 0x1.1b157c0000000p-3, -0x1.392c860000000p-2, -0x1.a3ec180000000p-3, -0x1.d312a60000000p-3, 0x1.1dda7a0000000p-4, -0x1.24dd700000000p-6, -0x1.36956c0000000p-2, -0x1.9e5a2a0000000p-3, 0x1.b78bda0000000p-4, -0x1.18588c0000000p-3, -0x1.7741f60000000p-3, -0x1.a114640000000p-2, -0x1.1059620000000p-3}
}
, {{-0x1.950b460000000p-3, -0x1.5980e00000000p-1, 0x1.15ce000000000p-4, -0x1.18d7ca0000000p-2, -0x1.8ee7680000000p-6, -0x1.2a1a620000000p-3, 0x1.20a59a0000000p-1, -0x1.1233820000000p-1, -0x1.a939ce0000000p-3, 0x1.314a6e0000000p-2, -0x1.261dba0000000p-1, 0x1.e869740000000p-7, 0x1.b149100000000p-1, 0x1.4fd7300000000p-3, -0x1.f7321a0000000p-2, 0x1.8e0e860000000p-3, 0x1.0ab58c0000000p-3, -0x1.23af700000000p-6, -0x1.3dbae60000000p-6, 0x1.c75ca40000000p-3, 0x1.d90cb40000000p-2, -0x1.7335700000000p+0, 0x1.65be200000000p-8, 0x1.b279ca0000000p-4, -0x1.2b76980000000p-4, 0x1.7f5c740000000p-6, -0x1.2ec3000000000p-3, 0x1.1b2aac0000000p-8, 0x1.68323c0000000p-4, 0x1.844c5c0000000p-4, -0x1.09d01e0000000p-1, -0x1.ae32580000000p-5}
, {-0x1.93822c0000000p-4, 0x1.0a46000000000p-4, -0x1.a2a61c0000000p-3, 0x1.3523280000000p-5, 0x1.e168020000000p-4, -0x1.b21f0c0000000p-3, -0x1.8768040000000p-1, 0x1.8a1c5c0000000p-3, 0x1.d757dc0000000p-5, -0x1.6302840000000p-5, -0x1.6e990a0000000p-4, 0x1.4c1aea0000000p-3, -0x1.2aae5a0000000p-1, -0x1.4984700000000p-3, -0x1.0cf24e0000000p-2, -0x1.da2db80000000p-5, 0x1.0e52440000000p-3, -0x1.314eb20000000p-7, 0x1.1ef6b40000000p-3, 0x1.1554de0000000p-2, -0x1.ee87740000000p-2, 0x1.01378e0000000p+0, 0x1.dbf47e0000000p-3, 0x1.2816e40000000p-5, 0x1.5aca4a0000000p-5, 0x1.7189540000000p-3, 0x1.113a9e0000000p-2, -0x1.3724da0000000p-3, 0x1.a4b5a00000000p-3, -0x1.71147e0000000p-1, -0x1.7ff3dc0000000p-6, -0x1.9672ce0000000p-3}
}
, {{-0x1.2f0ce20000000p-3, -0x1.93bac20000000p-6, -0x1.6a652c0000000p-5, 0x1.dc1ef60000000p-4, 0x1.e386b20000000p-5, 0x1.f70e600000000p-2, -0x1.0cba5c0000000p-2, 0x1.72c95e0000000p-3, 0x1.1db9440000000p-4, -0x1.37f9dc0000000p+0, 0x1.fd4f220000000p-2, 0x1.c699be0000000p-4, -0x1.ba00ea0000000p-2, -0x1.16b6cc0000000p-3, 0x1.b727ba0000000p-3, -0x1.3a33620000000p-3, -0x1.a242700000000p-3, -0x1.2c724a0000000p-5, -0x1.8507460000000p-2, 0x1.9b05440000000p-5, -0x1.6985360000000p+0, 0x1.e2a2020000000p-2, -0x1.621ff40000000p-4, 0x1.e262d80000000p-1, 0x1.9092b60000000p-3, 0x1.794f0a0000000p-2, 0x1.be28960000000p-6, -0x1.7d29180000000p-4, 0x1.08ada80000000p-2, -0x1.a329220000000p-2, 0x1.ca44b60000000p-2, 0x1.0a6ede0000000p-1}
, {-0x1.be0d080000000p-4, -0x1.84e53e0000000p-3, 0x1.17b47c0000000p-3, 0x1.6e3fa40000000p-2, -0x1.c79b4a0000000p-5, -0x1.ac827a0000000p-1, -0x1.fb2a940000000p-1, 0x1.08b4080000000p-3, -0x1.1c6f940000000p-3, 0x1.5054e80000000p-1, -0x1.e31d180000000p-1, 0x1.0afc100000000p-3, -0x1.6975a20000000p+0, 0x1.4093040000000p-6, -0x1.e7dbbc0000000p-1, 0x1.2b67c60000000p-2, -0x1.75905c0000000p-4, 0x1.a59b680000000p-3, 0x1.1242480000000p-6, 0x1.321e660000000p-1, -0x1.8c8b720000000p-2, 0x1.8eda8c0000000p-2, 0x1.988a8e0000000p-6, 0x1.5a22ec0000000p+0, -0x1.6615fc0000000p-3, -0x1.3e1f640000000p-1, -0x1.5180c60000000p-3, -0x1.7abcfc0000000p-3, 0x1.839c560000000p-4, -0x1.b7b65c0000000p-7, -0x1.9833280000000p-1, -0x1.ca22000000000p-2}
}
, {{-0x1.ef3d040000000p-4, -0x1.4d13b20000000p-6, 0x1.5b830a0000000p-3, 0x1.39af160000000p-2, -0x1.9f05a40000000p-4, 0x1.2abefc0000000p-1, -0x1.4f4dae0000000p-3, 0x1.c945900000000p-3, 0x1.144f3c0000000p-2, -0x1.ff54100000000p-1, 0x1.af1c480000000p-2, -0x1.0347f60000000p-4, -0x1.1f9c1c0000000p-1, -0x1.1414ea0000000p-2, 0x1.e703480000000p-2, 0x1.3493180000000p-3, -0x1.0986aa0000000p-3, -0x1.d9fa380000000p-3, -0x1.1f2a9c0000000p-1, 0x1.63f22a0000000p-5, -0x1.108be20000000p+0, 0x1.b3eb1c0000000p-3, -0x1.71999e0000000p-5, 0x1.8baec80000000p-1, -0x1.4bdefe0000000p-6, 0x1.3c8d800000000p-1, 0x1.4be77e0000000p-3, 0x1.6d03cc0000000p-3, 0x1.0f55840000000p-5, -0x1.240a040000000p-3, 0x1.52c7400000000p-2, 0x1.7f61420000000p-2}
, {-0x1.99b1940000000p-3, 0x1.8df0fc0000000p-12, -0x1.e21dfa0000000p-4, 0x1.42515c0000000p-2, -0x1.86980c0000000p-4, -0x1.ae2a5c0000000p-1, -0x1.03c9d00000000p+0, 0x1.aea3600000000p-7, 0x1.c64e040000000p-3, 0x1.38af5a0000000p-1, -0x1.5876000000000p-1, 0x1.a2ab6a0000000p-3, -0x1.4dbb2c0000000p+0, 0x1.2da4e60000000p-3, -0x1.cfbbe40000000p-1, 0x1.669eae0000000p-3, 0x1.3d06b20000000p-7, 0x1.5eb8d60000000p-3, 0x1.0666580000000p-1, 0x1.18e4f40000000p-1, -0x1.7377660000000p-2, 0x1.af76e40000000p-2, 0x1.022a660000000p-5, 0x1.e227260000000p+0, 0x1.ec63840000000p-5, -0x1.e222d20000000p-1, -0x1.0f82500000000p-5, 0x1.ae99880000000p-5, -0x1.e72ae60000000p-5, -0x1.1462f00000000p-3, -0x1.44dc020000000p-1, -0x1.6eee060000000p-1}
}
, {{0x1.eb8c780000000p-6, -0x1.50d75e0000000p-8, 0x1.d808420000000p-8, -0x1.6704ba0000000p-4, -0x1.d56b3c0000000p-5, 0x1.146cde0000000p-1, -0x1.64e5040000000p-2, 0x1.51a1e00000000p-3, -0x1.860faa0000000p-4, 0x1.c0a3c20000000p-2, 0x1.ef6a860000000p-2, -0x1.b280d20000000p-3, -0x1.4c55a80000000p-2, 0x1.176df80000000p-4, 0x1.a828580000000p-2, -0x1.1fd3d00000000p-2, 0x1.44c54e0000000p-2, 0x1.0f7a340000000p-2, -0x1.2dbcb60000000p-1, -0x1.fa39780000000p-4, 0x1.02f3620000000p-1, -0x1.f77ec60000000p-3, -0x1.8007340000000p-3, -0x1.2f951c0000000p-2, -0x1.bab0fe0000000p-4, 0x1.1d6c0c0000000p-4, -0x1.b9af1c0000000p-2, 0x1.31f7120000000p-3, -0x1.09b5c60000000p-4, -0x1.62ef880000000p-4, -0x1.fd0e8e0000000p-4, 0x1.2ee80c0000000p-2}
, {-0x1.161c440000000p-3, 0x1.8619660000000p-4, -0x1.fdcc8c0000000p-5, 0x1.b82b640000000p-5, 0x1.d3214c0000000p-6, 0x1.136c840000000p-1, -0x1.70351c0000000p-2, 0x1.9ce8d80000000p-3, -0x1.b219ce0000000p-8, 0x1.8597b40000000p-2, 0x1.af77d20000000p-3, 0x1.84281c0000000p-3, -0x1.cdbbb80000000p-3, 0x1.5f43540000000p-3, 0x1.281f280000000p-2, -0x1.0470c80000000p-2, -0x1.bef43c0000000p-6, 0x1.e9c2fa0000000p-5, 0x1.c5d3340000000p-2, -0x1.708c360000000p-3, -0x1.c21f4a0000000p-3, -0x1.4c23be0000000p-4, -0x1.cb4f1a0000000p-5, -0x1.4aeb220000000p-1, 0x1.ff61f80000000p-6, 0x1.32337c0000000p-2, 0x1.6ed92e0000000p-3, -0x1.8f05140000000p-4, 0x1.eec2dc0000000p-5, 0x1.4ae3ee0000000p-4, 0x1.7a04320000000p-2, 0x1.14e0380000000p-2}
}
, {{0x1.35e3f60000000p-3, 0x1.1c6dd40000000p-3, -0x1.fae3f00000000p-7, 0x1.40698e0000000p-6, 0x1.1de5240000000p-2, 0x1.d2e81c0000000p-2, -0x1.4600b20000000p-2, 0x1.28705c0000000p-8, -0x1.ef55320000000p-3, 0x1.a4182a0000000p-3, 0x1.8dd2980000000p-2, -0x1.c1fabe0000000p-3, 0x1.939c080000000p-8, 0x1.f770980000000p-6, 0x1.2fcd720000000p-2, -0x1.cfab7c0000000p-4, -0x1.1301ae0000000p-4, 0x1.8cbb3c0000000p-4, -0x1.9391560000000p-1, -0x1.85d2620000000p-3, 0x1.db7cee0000000p-2, -0x1.31f4fe0000000p-3, 0x1.94375a0000000p-4, -0x1.61539e0000000p-2, -0x1.46e9140000000p-3, 0x1.1906b20000000p-2, 0x1.214a7c0000000p-4, 0x1.c01fa00000000p-5, -0x1.90f1e20000000p-3, 0x1.1770dc0000000p-3, 0x1.e849300000000p-3, 0x1.203e300000000p-4}
, {-0x1.c2d1d40000000p-5, 0x1.44c0ae0000000p-5, 0x1.076cac0000000p-4, -0x1.7aab940000000p-5, -0x1.3c27fa0000000p-3, 0x1.1b225e0000000p-2, -0x1.2e69bc0000000p-1, -0x1.3b609e0000000p-3, -0x1.09c5900000000p-2, 0x1.8b81fa0000000p-4, 0x1.8dc2060000000p-2, 0x1.31856a0000000p-5, -0x1.0471ba0000000p-2, 0x1.77d5780000000p-3, 0x1.acddbc0000000p-2, -0x1.448a980000000p-3, 0x1.52177c0000000p-2, 0x1.d767760000000p-4, 0x1.9c03e60000000p-3, -0x1.36ac4c0000000p-3, -0x1.e20bec0000000p-4, 0x1.39440e0000000p-5, -0x1.2eb2fa0000000p-4, -0x1.27cbbc0000000p-1, 0x1.e8c8980000000p-5, 0x1.8ca22a0000000p-2, 0x1.e9debc0000000p-3, -0x1.34db080000000p-3, -0x1.2f79760000000p-2, 0x1.20dac00000000p-3, 0x1.16cc8a0000000p-2, 0x1.6b5f7e0000000p-2}
}
, {{-0x1.43e7000000000p-3, -0x1.37d4ec0000000p-8, 0x1.ac16320000000p-9, 0x1.0caa2e0000000p-4, -0x1.99d6b20000000p-3, -0x1.a9c86e0000000p-1, -0x1.59bd440000000p-2, 0x1.c12d720000000p-5, 0x1.ddac240000000p-3, 0x1.70f1ae0000000p-4, -0x1.5349520000000p-1, -0x1.8aeaba0000000p-3, -0x1.c64e8e0000000p-2, -0x1.ef55fe0000000p-4, -0x1.517a360000000p-2, 0x1.1954a40000000p-1, -0x1.7d17ee0000000p-5, -0x1.f27a640000000p-4, -0x1.c27d2c0000000p-5, 0x1.3c581c0000000p-1, 0x1.1cfcca0000000p-1, -0x1.1f30e40000000p-3, 0x1.8963e00000000p-3, 0x1.49f1560000000p-1, 0x1.eacf640000000p-6, -0x1.0333160000000p-1, 0x1.00e2000000000p-4, 0x1.54973c0000000p-3, 0x1.2fb6240000000p-4, -0x1.488cbe0000000p-2, -0x1.469ba80000000p-2, -0x1.4c71c80000000p-1}
, {-0x1.9967540000000p-3, 0x1.3ec9a80000000p-4, 0x1.2b97320000000p-5, 0x1.ac1b1e0000000p-2, 0x1.529d780000000p-5, 0x1.70d0120000000p-2, -0x1.249f6a0000000p-2, 0x1.a0dde40000000p-4, 0x1.b4ed0e0000000p-3, -0x1.de22400000000p-2, 0x1.39a83e0000000p-2, 0x1.2f84d20000000p-3, -0x1.d2e0000000000p-2, -0x1.24f06e0000000p-4, 0x1.2bdec00000000p-2, 0x1.5d7f480000000p-4, -0x1.72d5e00000000p-3, -0x1.a7134a0000000p-4, -0x1.43219e0000000p-1, 0x1.edb32c0000000p-3, -0x1.b6791c0000000p-1, -0x1.5b219a0000000p-2, -0x1.5b9fbe0000000p-5, 0x1.0b54ba0000000p-7, -0x1.40cf700000000p-3, 0x1.58c9de0000000p-3, -0x1.0036220000000p-3, -0x1.e4a1a40000000p-4, 0x1.f0c5c00000000p-5, -0x1.9f63c40000000p-2, 0x1.0522500000000p-2, 0x1.8ad2ba0000000p-7}
}
, {{-0x1.3e967e0000000p-5, 0x1.d5456a0000000p-6, -0x1.8a89ba0000000p-3, -0x1.3b57d20000000p-3, 0x1.8b48800000000p-4, -0x1.0262e80000000p-2, 0x1.186c000000000p-6, -0x1.0902f60000000p-6, -0x1.1cfa5a0000000p-2, -0x1.3a77b40000000p-6, 0x1.4e02fe0000000p-5, 0x1.80d9420000000p-8, -0x1.cc04da0000000p-3, 0x1.e813b00000000p-5, -0x1.9f9e7e0000000p-3, -0x1.27a5800000000p-5, -0x1.a5cf800000000p-4, -0x1.ef67640000000p-3, 0x1.b65bf60000000p-3, -0x1.1004280000000p-2, -0x1.8a9fa40000000p-4, -0x1.64ea0a0000000p-3, -0x1.12eb040000000p-2, -0x1.aae0720000000p-6, -0x1.d4f7b40000000p-7, 0x1.5f166c0000000p-3, -0x1.59f0360000000p-3, 0x1.294bba0000000p-3, 0x1.346e820000000p-3, 0x1.95dc060000000p-4, -0x1.9474780000000p-8, -0x1.e156920000000p-3}
, {-0x1.b3e5f20000000p-5, -0x1.3a9b480000000p-3, 0x1.457b880000000p-3, -0x1.5f56e60000000p-3, 0x1.9cc2840000000p-5, -0x1.02fd1c0000000p-3, -0x1.d76dc80000000p-3, -0x1.062f380000000p-9, 0x1.3890460000000p-4, -0x1.1e8cd80000000p-3, -0x1.54f6240000000p-3, 0x1.9cb6460000000p-5, -0x1.e817400000000p-3, -0x1.5bed000000000p-5, -0x1.7ee50e0000000p-3, -0x1.5a80940000000p-5, 0x1.ea25340000000p-7, -0x1.22af4c0000000p-2, -0x1.18a7b00000000p-4, -0x1.5974c00000000p-3, 0x1.0401c20000000p-3, -0x1.b7e49c0000000p-3, -0x1.0602080000000p-2, -0x1.ba3eec0000000p-5, -0x1.34238e0000000p-4, -0x1.52ac060000000p-3, -0x1.0ded6a0000000p-4, -0x1.adc13c0000000p-7, 0x1.d3fdfc0000000p-4, -0x1.0d864a0000000p-3, -0x1.3c81e80000000p-2, -0x1.1b4a240000000p-3}
}
, {{-0x1.b9c4e20000000p-5, -0x1.7720720000000p-4, 0x1.777a780000000p-3, -0x1.720aec0000000p-4, -0x1.6618940000000p-3, -0x1.1fb45c0000000p-2, 0x1.29f4260000000p-7, -0x1.7f17da0000000p-4, 0x1.69caca0000000p-4, -0x1.6558fa0000000p-4, -0x1.e4be5e0000000p-4, -0x1.7474e20000000p-10, 0x1.6011900000000p-6, 0x1.22fcfa0000000p-3, -0x1.19d4440000000p-4, -0x1.37c3060000000p-1, -0x1.11c3140000000p-3, -0x1.557aba0000000p-3, -0x1.8a803a0000000p-4, -0x1.d0f19e0000000p-2, -0x1.83d6820000000p-4, -0x1.85b1dc0000000p-8, 0x1.19abee0000000p-5, -0x1.b93c080000000p-2, 0x1.06d3120000000p-3, -0x1.edb53c0000000p-3, -0x1.3a8dd20000000p-4, 0x1.1ec9c20000000p-3, -0x1.eb7c780000000p-4, -0x1.7b6cf00000000p-6, 0x1.3689fe0000000p-3, -0x1.e9157a0000000p-7}
, {0x1.0141d40000000p-4, -0x1.4cffdc0000000p-4, -0x1.9ccd300000000p-3, -0x1.93abbe0000000p-5, 0x1.8d39460000000p-3, -0x1.83d17e0000000p-3, -0x1.2601560000000p-8, 0x1.5e5b6e0000000p-4, -0x1.46d40c0000000p-5, -0x1.0bcdce0000000p-2, 0x1.2b32e20000000p-7, 0x1.e1d6de0000000p-8, -0x1.8347d60000000p-4, 0x1.cbc9900000000p-4, -0x1.9fcef40000000p-4, -0x1.fb31ba0000000p-2, 0x1.56e2700000000p-3, -0x1.370e9a0000000p-2, -0x1.06d35e0000000p-2, -0x1.cca0ea0000000p-2, -0x1.29f7540000000p-4, 0x1.5c647c0000000p-5, 0x1.07555c0000000p-2, -0x1.79e9c60000000p-2, 0x1.2bbb920000000p-3, 0x1.30f9720000000p-5, 0x1.5ea0780000000p-3, -0x1.ae87420000000p-3, 0x1.8fccb00000000p-4, -0x1.abbd900000000p-3, -0x1.8c2b3e0000000p-3, 0x1.dc1ae40000000p-9}
}
, {{-0x1.9fa0a40000000p-3, -0x1.e4c9b60000000p-5, -0x1.b5a5500000000p-4, 0x1.6247ba0000000p-3, -0x1.956c560000000p-4, -0x1.be112c0000000p-4, -0x1.19daca0000000p-2, -0x1.8810c20000000p-3, -0x1.e604c40000000p-5, -0x1.cc12720000000p-5, -0x1.06a2860000000p-3, 0x1.1e379c0000000p-4, 0x1.7d70260000000p-7, 0x1.920ec00000000p-3, -0x1.5a6bb00000000p-4, -0x1.136a380000000p-3, -0x1.10a57a0000000p-5, 0x1.74e8c40000000p-5, -0x1.01a7aa0000000p-2, 0x1.4c40e20000000p-4, 0x1.11a1e20000000p-3, -0x1.46cbc80000000p-3, -0x1.9994a80000000p-3, -0x1.047cdc0000000p-2, -0x1.d570b60000000p-5, -0x1.45db680000000p-4, -0x1.5f366a0000000p-3, 0x1.1e1a700000000p-6, -0x1.d79c720000000p-5, 0x1.26eaa60000000p-6, -0x1.baec4e0000000p-6, 0x1.134e9c0000000p-6}
, {-0x1.dde3140000000p-4, -0x1.3796000000000p-4, -0x1.d72f920000000p-3, 0x1.f1c4300000000p-4, -0x1.6047000000000p-3, -0x1.7b20ea0000000p-3, -0x1.7586320000000p-4, 0x1.ca64be0000000p-6, -0x1.453a4e0000000p-4, -0x1.2f7c440000000p-2, -0x1.1b73ae0000000p-2, 0x1.70543a0000000p-4, -0x1.366c400000000p-5, 0x1.bde4ba0000000p-3, -0x1.4516ba0000000p-3, 0x1.7d8ffc0000000p-7, 0x1.82bd400000000p-3, -0x1.fc74b60000000p-7, -0x1.dfe5560000000p-3, -0x1.1323fc0000000p-3, -0x1.5411a60000000p-3, 0x1.289e6e0000000p-3, 0x1.e64f6e0000000p-5, -0x1.d3e05c0000000p-5, -0x1.a454ea0000000p-5, -0x1.3b50000000000p-3, -0x1.665f9e0000000p-3, -0x1.0cfde20000000p-2, 0x1.a209140000000p-4, -0x1.0c3d2e0000000p-2, -0x1.c45e2a0000000p-4, -0x1.5fea160000000p-3}
}
, {{0x1.5abaa00000000p-5, 0x1.7fff540000000p-5, 0x1.c04b080000000p-4, -0x1.95a3ac0000000p-4, 0x1.b3d0ca0000000p-3, 0x1.0713980000000p-1, -0x1.08e0dc0000000p-1, 0x1.0b03120000000p-5, 0x1.8150bc0000000p-2, -0x1.e469040000000p-1, 0x1.428ac00000000p-2, 0x1.e32b0e0000000p-5, -0x1.3f39b20000000p-1, 0x1.929d740000000p-5, 0x1.cb7ef00000000p-3, -0x1.b19f580000000p-2, 0x1.55a2000000000p-2, 0x1.b30c920000000p-6, -0x1.101cfc0000000p-1, -0x1.148d2a0000000p-2, -0x1.c157e60000000p-5, -0x1.4f1e1c0000000p-3, 0x1.84cfee0000000p-5, -0x1.9d26c80000000p-4, 0x1.300ef60000000p-3, 0x1.f07f940000000p-4, 0x1.a75b060000000p-1, -0x1.21d8fe0000000p-9, -0x1.49107e0000000p-3, -0x1.566d700000000p-3, 0x1.d2e7800000000p-3, 0x1.ab2c6c0000000p-3}
, {-0x1.8f87d40000000p-4, -0x1.ef8d000000000p-4, 0x1.098e7c0000000p-3, -0x1.c53f180000000p-3, 0x1.1410460000000p-3, 0x1.ccd2ba0000000p-2, -0x1.2ada860000000p-1, 0x1.60d4b60000000p-3, -0x1.6549b20000000p-7, 0x1.7c87540000000p-4, 0x1.44d2c80000000p-2, -0x1.036b380000000p-3, -0x1.da47440000000p-3, -0x1.cd0a780000000p-5, 0x1.709c760000000p-2, -0x1.ac9cf20000000p-6, 0x1.801c920000000p-4, 0x1.17d42a0000000p-8, -0x1.4e26420000000p-3, -0x1.2143f60000000p-2, 0x1.20b8ee0000000p-2, -0x1.388a460000000p-3, -0x1.9f56fc0000000p-4, -0x1.850c9c0000000p-1, -0x1.495ee00000000p-5, 0x1.53b3260000000p-2, 0x1.bb23d20000000p-2, 0x1.1c2a1a0000000p-4, -0x1.011c600000000p-2, 0x1.bf05b80000000p-4, 0x1.43ea860000000p-2, 0x1.454ab80000000p-4}
}
, {{0x1.a7898c0000000p-4, -0x1.5b30160000000p-4, -0x1.0a8f360000000p-6, 0x1.9df2320000000p-4, -0x1.27926e0000000p-4, 0x1.8a041a0000000p-4, -0x1.c7ea560000000p-3, -0x1.27a51a0000000p-2, -0x1.ec60c20000000p-4, 0x1.1809bc0000000p-5, 0x1.23fc100000000p-2, -0x1.c2f3340000000p-5, -0x1.846e1a0000000p-3, 0x1.fe3aa60000000p-7, 0x1.6bd7560000000p-6, -0x1.7a3c240000000p-5, -0x1.c207f40000000p-4, 0x1.278cbc0000000p-3, -0x1.957f980000000p-4, 0x1.1d19f20000000p-2, 0x1.47fe660000000p-2, -0x1.0ae1e60000000p-1, 0x1.cf1e520000000p-5, 0x1.53c3fa0000000p-3, -0x1.d4b3540000000p-6, 0x1.8b1f180000000p-4, -0x1.2b33cc0000000p-3, -0x1.8337780000000p-3, -0x1.1026b60000000p-3, -0x1.a7aea80000000p-6, 0x1.60cace0000000p-7, 0x1.bfb8500000000p-4}
, {0x1.9f411e0000000p-6, -0x1.1f90d20000000p-3, 0x1.bfa1500000000p-4, 0x1.98ab5c0000000p-5, 0x1.1147b20000000p-3, 0x1.0df4b60000000p-2, -0x1.246e2e0000000p-1, -0x1.e3014a0000000p-3, -0x1.0667b60000000p+0, 0x1.93ab700000000p-1, 0x1.b643ca0000000p-2, 0x1.67c35a0000000p-5, -0x1.e1371e0000000p-4, 0x1.42f9b00000000p-5, 0x1.7696840000000p-2, -0x1.0f4af60000000p-2, -0x1.8e8d9e0000000p-6, 0x1.fb61500000000p-5, -0x1.225ccc0000000p-5, -0x1.4c32840000000p-2, -0x1.6434580000000p-6, -0x1.245ad40000000p-3, -0x1.326d6e0000000p-3, -0x1.a6c7da0000000p-2, 0x1.9d8a8a0000000p-4, 0x1.d807620000000p-3, -0x1.b944360000000p-3, 0x1.2f8cf60000000p-2, 0x1.c5d29c0000000p-4, -0x1.1b65740000000p-2, 0x1.b961520000000p-4, 0x1.6dc00a0000000p-3}
}
, {{0x1.4f347a0000000p-3, 0x1.34403e0000000p-3, -0x1.6618fc0000000p-4, -0x1.28de5a0000000p-2, -0x1.b810c20000000p-3, -0x1.5bb4ce0000000p-2, -0x1.706c0e0000000p-2, -0x1.8390aa0000000p-2, -0x1.e2dfb00000000p-2, 0x1.aa8e200000000p-3, -0x1.6ab3420000000p-4, -0x1.204c6c0000000p-4, -0x1.e067220000000p-3, 0x1.bb9cc40000000p-5, -0x1.d42d040000000p-3, -0x1.cc09900000000p-2, -0x1.98dc180000000p-5, -0x1.690c740000000p-1, -0x1.8a474c0000000p-1, -0x1.f1b9880000000p-2, 0x1.56fcc60000000p-3, 0x1.2587760000000p-1, -0x1.3b5c7e0000000p-1, -0x1.2b782c0000000p+0, -0x1.2b62860000000p-3, 0x1.3aa2ee0000000p-3, -0x1.c850f20000000p+0, 0x1.bd8e640000000p-4, 0x1.01f7da0000000p-4, 0x1.2f6f800000000p-1, 0x1.1641ac0000000p-3, -0x1.1658380000000p-2}
, {0x1.7da7980000000p-3, 0x1.430bec0000000p-3, -0x1.c75f1a0000000p-3, -0x1.7ea90a0000000p-3, 0x1.742f980000000p-4, 0x1.e44a080000000p-3, 0x1.18ea8c0000000p-3, 0x1.70773a0000000p-3, 0x1.b8914c0000000p-3, -0x1.82b4980000000p-2, 0x1.b3165a0000000p-2, -0x1.8ed6b40000000p-2, 0x1.f00b6c0000000p-5, -0x1.98e1820000000p-3, 0x1.c6fcee0000000p-2, 0x1.6aef400000000p-2, 0x1.ab80a80000000p-6, 0x1.16e6980000000p-2, 0x1.bf39740000000p-3, 0x1.7c7c260000000p-1, -0x1.e30a100000000p-2, 0x1.36cd800000000p-4, -0x1.864a800000000p-3, 0x1.e918c00000000p-1, 0x1.017f4e0000000p-5, 0x1.7257b80000000p-4, -0x1.d9483a0000000p-1, 0x1.452e6e0000000p-3, 0x1.50f0640000000p-7, -0x1.7f5ca80000000p-5, 0x1.7283860000000p-2, 0x1.e2ac1e0000000p-3}
}
, {{-0x1.1dfb740000000p-5, -0x1.c894320000000p-3, -0x1.3aeb980000000p-3, 0x1.da214c0000000p-3, 0x1.cfae9a0000000p-3, -0x1.e886e20000000p-2, -0x1.7f6d2e0000000p-2, -0x1.a5e64c0000000p-4, 0x1.abe2160000000p-2, -0x1.b4a3680000000p-1, -0x1.45919c0000000p-1, -0x1.10b4e40000000p-3, -0x1.0159b00000000p-1, 0x1.640a020000000p-6, -0x1.4d1f720000000p-2, 0x1.06f8520000000p-2, -0x1.92bfae0000000p-3, 0x1.b185dc0000000p-3, -0x1.6c0abe0000000p-2, 0x1.e2bdb80000000p-2, -0x1.13c2280000000p-5, 0x1.1e447e0000000p-3, 0x1.357e640000000p-3, 0x1.84c1da0000000p+0, -0x1.be51c00000000p-5, -0x1.6a1be80000000p-2, -0x1.a90f1c0000000p-2, 0x1.370eb60000000p-3, 0x1.1f6c400000000p-2, -0x1.2cef2c0000000p-1, -0x1.9688a60000000p-2, -0x1.ac821c0000000p-2}
, {0x1.ae2e0a0000000p-3, -0x1.1128fe0000000p-2, -0x1.0f8d060000000p-4, 0x1.e95cba0000000p-2, -0x1.d073f60000000p-4, 0x1.dc1a700000000p-3, -0x1.a9c78c0000000p-3, -0x1.9bc5660000000p-3, 0x1.7965d20000000p-3, -0x1.2248ee0000000p-1, 0x1.69796a0000000p-2, -0x1.67a7900000000p-4, -0x1.c1d5ac0000000p-2, -0x1.fe5f7c0000000p-4, 0x1.068db20000000p-2, -0x1.30ae3c0000000p-6, -0x1.1205f00000000p-3, -0x1.67c47e0000000p-3, -0x1.91fc880000000p-2, 0x1.5e3c9e0000000p-2, -0x1.28e17e0000000p-1, -0x1.641c440000000p-3, 0x1.336c8e0000000p-3, 0x1.2fdbf20000000p+0, -0x1.2608b60000000p-4, 0x1.788d500000000p-2, -0x1.f53d8e0000000p-3, -0x1.796e4c0000000p-5, 0x1.007ef20000000p-2, -0x1.b8bdb80000000p-2, 0x1.3c676a0000000p-2, 0x1.cd62d00000000p-3}
}
, {{-0x1.a695080000000p-4, 0x1.d565320000000p-4, 0x1.cda0900000000p-6, 0x1.8e85be0000000p-5, 0x1.22de8e0000000p-3, 0x1.cc87060000000p-3, -0x1.2e36080000000p-1, 0x1.89fe560000000p-2, 0x1.47b5ee0000000p-4, -0x1.439fc80000000p+0, 0x1.3accea0000000p-2, 0x1.694e120000000p-3, -0x1.005d960000000p-2, 0x1.163f1e0000000p-3, 0x1.016b320000000p-1, 0x1.d77aaa0000000p-5, 0x1.d9f9480000000p-5, 0x1.eddf0a0000000p-5, -0x1.28b4280000000p-2, -0x1.ce8bf00000000p-7, -0x1.18c58a0000000p-4, -0x1.fc76bc0000000p-3, -0x1.3196c60000000p-3, -0x1.a3b0840000000p-1, 0x1.1e9d460000000p-3, 0x1.f4e1b00000000p-3, 0x1.b16a8c0000000p-3, 0x1.d66a0c0000000p-3, -0x1.4d4ebc0000000p-8, 0x1.4bb3780000000p-2, 0x1.5574340000000p-2, 0x1.69dbaa0000000p-5}
, {0x1.8030d60000000p-4, 0x1.1c32140000000p-2, -0x1.38e2760000000p-6, -0x1.9a4b600000000p-3, 0x1.4883460000000p-3, 0x1.72ee680000000p-2, -0x1.7bb6ae0000000p-1, 0x1.4cb9040000000p-3, 0x1.80106a0000000p-3, -0x1.f99fa00000000p-2, 0x1.786c380000000p-2, 0x1.29d27a0000000p-8, -0x1.3c84680000000p-1, -0x1.3454740000000p-8, 0x1.fc5f9c0000000p-2, -0x1.4fd2940000000p-3, 0x1.7f99060000000p-3, 0x1.ab66a00000000p-9, -0x1.da33100000000p-2, -0x1.2d976c0000000p-2, -0x1.b3609e0000000p-1, -0x1.3a01220000000p-2, 0x1.4c7dca0000000p-7, -0x1.d36ea20000000p-1, -0x1.47e3520000000p-3, 0x1.67d4500000000p-6, -0x1.6a36060000000p-2, 0x1.1646860000000p-3, -0x1.8cce2c0000000p-4, 0x1.db34d60000000p-6, 0x1.516b480000000p-4, 0x1.868dfc0000000p-2}
}
, {{0x1.ad6d760000000p-4, -0x1.33004c0000000p-2, -0x1.feaf2c0000000p-4, -0x1.5ff6b60000000p-6, 0x1.178d5e0000000p-3, -0x1.baffd40000000p-4, -0x1.b348320000000p-3, -0x1.b278980000000p-3, -0x1.08ca220000000p-2, -0x1.77c20a0000000p-2, -0x1.c4458c0000000p-3, -0x1.0bab7a0000000p-3, -0x1.a4a6360000000p-6, -0x1.2f4a680000000p-3, 0x1.02d64a0000000p-3, -0x1.5894b60000000p-2, -0x1.c66cf20000000p-7, 0x1.bcb90c0000000p-5, -0x1.2aaa840000000p-2, -0x1.651aa40000000p-4, -0x1.5ba06e0000000p-3, -0x1.4eaec40000000p-2, 0x1.f18fb60000000p-6, -0x1.a567500000000p-2, 0x1.fc43120000000p-6, 0x1.3ba6120000000p-3, -0x1.271c7c0000000p-2, 0x1.aede440000000p-6, -0x1.2ce94a0000000p-3, -0x1.c61cd00000000p-4, -0x1.60a8140000000p-3, -0x1.3b9c020000000p-2}
, {-0x1.2250e00000000p-5, -0x1.61cb340000000p-4, 0x1.3b14740000000p-4, 0x1.d3ed420000000p-4, 0x1.cccb4c0000000p-5, 0x1.5ae4140000000p-6, -0x1.3a43020000000p-3, -0x1.5af1a00000000p-3, -0x1.4b98c40000000p-3, -0x1.5317200000000p-5, -0x1.4222800000000p-4, -0x1.79faca0000000p-5, 0x1.35865a0000000p-4, 0x1.64fd700000000p-3, 0x1.2f7bb40000000p-3, -0x1.86dd560000000p-3, 0x1.2588cc0000000p-5, -0x1.19717a0000000p-2, -0x1.18d4680000000p-3, -0x1.1bcf8a0000000p-2, -0x1.6a14640000000p-4, -0x1.3e98f20000000p-3, -0x1.4c0c040000000p-4, -0x1.9fd6560000000p-3, 0x1.3d7c6a0000000p-3, 0x1.5b77fa0000000p-7, -0x1.3ee8e60000000p-2, 0x1.45d3c80000000p-3, -0x1.6017260000000p-7, -0x1.452cfe0000000p-6, -0x1.671d3e0000000p-3, -0x1.dd86620000000p-4}
}
, {{-0x1.8a5dfa0000000p-3, -0x1.43e4e40000000p-7, -0x1.97d8d00000000p-7, -0x1.74beae0000000p-3, 0x1.2ce7a00000000p-3, -0x1.a5ef540000000p-4, -0x1.6d2cca0000000p-2, 0x1.07a0480000000p-3, -0x1.8cb71e0000000p-2, -0x1.409fb40000000p-2, -0x1.2390ee0000000p-2, 0x1.bc70b40000000p-6, -0x1.31fcf20000000p-2, 0x1.1499c60000000p-3, -0x1.5310000000000p-2, -0x1.7242340000000p-5, 0x1.0251380000000p-3, -0x1.1c456e0000000p-3, -0x1.056c660000000p-3, -0x1.6024200000000p-4, -0x1.06e30c0000000p-3, 0x1.10b20a0000000p-5, -0x1.49035a0000000p-4, -0x1.8b12ec0000000p-2, 0x1.848ff40000000p-4, -0x1.248c960000000p-4, -0x1.e1121e0000000p-3, -0x1.10ea300000000p-3, 0x1.7c6cc60000000p-3, 0x1.1cc3a60000000p-4, 0x1.a930420000000p-4, -0x1.b653a00000000p-3}
, {-0x1.554c440000000p-5, -0x1.7cacdc0000000p-2, 0x1.5304c80000000p-4, 0x1.94f05c0000000p-4, 0x1.f8a35c0000000p-4, -0x1.8d7de60000000p-4, -0x1.3b950c0000000p-2, -0x1.93e7f60000000p-2, -0x1.442db60000000p-2, -0x1.50d9960000000p-3, -0x1.b2a2a20000000p-6, -0x1.9cf0640000000p-7, -0x1.d03e480000000p-3, 0x1.6eec300000000p-3, -0x1.5f4fe60000000p-3, -0x1.8920280000000p-4, 0x1.3ff58c0000000p-3, -0x1.7b5d2e0000000p-3, -0x1.10b29e0000000p-2, -0x1.70e4660000000p-2, -0x1.8f879c0000000p-4, 0x1.32a45c0000000p-6, -0x1.514fe60000000p-3, 0x1.d9f0a40000000p-4, -0x1.5bedae0000000p-3, -0x1.16770a0000000p-5, -0x1.3a8c560000000p-4, 0x1.66286a0000000p-3, -0x1.9f6bcc0000000p-3, -0x1.11a15c0000000p-8, -0x1.a8e8d60000000p-2, -0x1.66569e0000000p-2}
}
}
;

#undef INPUT_CHANNELS
#undef CONV_FILTERS
#undef CONV_KERNEL_SIZE
#undef CONV_GROUPS