/**
  ******************************************************************************
  * @file    weights/conv1d.cc
  * @author  Pierre-Emmanuel Novac <penovac@unice.fr>, LEAT, CNRS, Université Côte d'Azur, France
  * @version 1.0.0
  * @date    24 march 2020
  * @brief   Template generating plain C code for the implementation of Convolutional Neural Networks on MCU
  */

#include <stdint.h>

#define INPUT_CHANNELS    16
#define CONV_FILTERS      32
#define CONV_KERNEL_SIZE  3
#define CONV_GROUPS       1


const float  conv1d_107_bias[CONV_FILTERS] = {0x1.7477000000000p-4, 0x1.4626000000000p-18, -0x1.6c448e0000000p-4, -0x1.37008e0000000p-5, -0x1.d7f89e0000000p-6, -0x1.2e08600000000p-4, -0x1.0b87120000000p-4, -0x1.c590bc0000000p-2, -0x1.fb67920000000p-5, 0x1.4ee0e20000000p-3, -0x1.7415b40000000p-5, -0x1.f6b3d40000000p-4, 0x1.2a275c0000000p-2, -0x1.1e39aa0000000p-5, 0x1.1e64600000000p-4, -0x1.6705ee0000000p-5, -0x1.13bb700000000p-4, -0x1.ebb9ce0000000p-5, -0x1.528b460000000p-3, -0x1.270ab40000000p-4, 0x1.19ef2a0000000p-2, -0x1.09a95e0000000p-5, -0x1.7b259c0000000p-2, -0x1.c1636c0000000p-5, -0x1.b6d24a0000000p-5, -0x1.8a7b9c0000000p-4, -0x1.8146600000000p-12, -0x1.5fb21a0000000p-4, -0x1.78204c0000000p-5, 0x1.fa220c0000000p-12, -0x1.a1a4600000000p-7, -0x1.c413e40000000p-3}
;

const float  conv1d_107_kernel[CONV_FILTERS][CONV_KERNEL_SIZE][INPUT_CHANNELS / CONV_GROUPS] = {{{0x1.3b78140000000p-1, -0x1.c060ea0000000p-4, 0x1.70b5120000000p-2, -0x1.99edbe0000000p-4, 0x1.aabecc0000000p-4, 0x1.42bab80000000p-2, -0x1.e4bf480000000p-5, 0x1.b6ed820000000p-6, 0x1.506aee0000000p-3, 0x1.fdef740000000p-6, 0x1.a100620000000p-9, 0x1.57f6880000000p-6, 0x1.7b9ca40000000p-4, -0x1.e327b00000000p-3, 0x1.25cd060000000p-3, 0x1.f6dc740000000p-5}
, {-0x1.00ddac0000000p+0, -0x1.89f7940000000p-2, -0x1.ab11700000000p-9, 0x1.f218420000000p-9, -0x1.8370da0000000p-2, 0x1.a8550c0000000p-2, 0x1.91932e0000000p-3, -0x1.02bf120000000p-5, 0x1.06ea5e0000000p-3, -0x1.8752c60000000p-3, -0x1.03f22c0000000p-6, 0x1.0796920000000p-2, 0x1.732e740000000p-2, -0x1.60e49a0000000p-2, 0x1.c807580000000p-5, 0x1.e931a00000000p-4}
, {-0x1.1df82c0000000p-6, 0x1.0792340000000p-2, 0x1.e03d040000000p-3, 0x1.51f5ee0000000p-5, 0x1.1273e80000000p-4, 0x1.2867a80000000p-3, 0x1.421d660000000p-6, 0x1.8576420000000p-8, 0x1.6915440000000p-3, 0x1.eb35ea0000000p-4, -0x1.a110860000000p-4, -0x1.20228a0000000p-3, 0x1.5581fc0000000p-4, -0x1.aacdd20000000p-3, 0x1.c3b61c0000000p-4, -0x1.5f86f00000000p-3}
}
, {{0x1.9532120000000p+0, 0x1.7e15660000000p-2, 0x1.17a76a0000000p-1, -0x1.5084bc0000000p-6, -0x1.86670e0000000p-3, 0x1.5fb71a0000000p-6, 0x1.6e00a60000000p-1, -0x1.f608260000000p-4, -0x1.4a3e7c0000000p-5, 0x1.09669a0000000p-5, 0x1.2b1c0c0000000p-4, 0x1.adbcf00000000p-3, 0x1.235ab40000000p-1, 0x1.6e7bdc0000000p-3, -0x1.791ac80000000p-3, -0x1.3ed0c40000000p-3}
, {0x1.9917b00000000p-4, -0x1.670f0e0000000p+0, 0x1.dd2c5e0000000p-4, -0x1.5b8ef40000000p-4, 0x1.6ac0560000000p-2, -0x1.5b28660000000p-2, 0x1.bd8f9a0000000p-2, -0x1.d8fc0c0000000p-5, 0x1.c2f3520000000p-3, -0x1.1217920000000p-4, -0x1.16e8820000000p-3, -0x1.62fae00000000p-4, 0x1.6ad4360000000p-3, -0x1.d6cb400000000p-2, 0x1.6f15180000000p-3, -0x1.1318460000000p-3}
, {0x1.f499820000000p-2, -0x1.1b3da40000000p+2, -0x1.49abf60000000p+0, -0x1.b1906c0000000p-7, -0x1.c23fae0000000p+0, -0x1.071e420000000p-3, -0x1.776f600000000p+0, 0x1.c4b3d80000000p-5, -0x1.1adbce0000000p-7, 0x1.5ac9a40000000p-4, 0x1.de65860000000p-3, 0x1.1edd7e0000000p-3, -0x1.173d9a0000000p+0, -0x1.b382540000000p+0, 0x1.8ccbd60000000p-5, 0x1.c17bf00000000p-7}
}
, {{-0x1.70494c0000000p-2, -0x1.6a1ede0000000p-2, -0x1.65fac40000000p-3, -0x1.21c3aa0000000p-3, -0x1.39279c0000000p-4, -0x1.1571980000000p-4, -0x1.541f960000000p-3, -0x1.57ab7a0000000p-3, 0x1.204abe0000000p-3, -0x1.0034ac0000000p-5, -0x1.19b6e80000000p-4, -0x1.69b49a0000000p-4, 0x1.6d0fcc0000000p-4, 0x1.dbfce00000000p-5, 0x1.ff76a20000000p-6, 0x1.be45320000000p-4}
, {-0x1.0f93020000000p-3, -0x1.7633b40000000p-2, -0x1.eab7460000000p-4, -0x1.b62dda0000000p-4, 0x1.82576a0000000p-4, 0x1.8a0c7a0000000p-6, 0x1.4641a00000000p-4, 0x1.a9cba80000000p-4, 0x1.5fa0660000000p-7, 0x1.5445140000000p-9, 0x1.9719d60000000p-4, 0x1.27f1c40000000p-6, -0x1.a9428c0000000p-3, -0x1.2db0c40000000p-4, 0x1.1b13e20000000p-4, 0x1.8290a20000000p-3}
, {-0x1.6f8b0a0000000p-6, -0x1.8be0780000000p-3, -0x1.3c7c000000000p-3, -0x1.485b8c0000000p-5, -0x1.7bb1720000000p-3, 0x1.801f860000000p-3, -0x1.b038b20000000p-3, 0x1.8ece660000000p-4, -0x1.02d3760000000p-4, -0x1.9666dc0000000p-3, 0x1.162fdc0000000p-3, -0x1.ff2f820000000p-12, 0x1.8a4e1a0000000p-4, 0x1.2230440000000p-5, 0x1.24db480000000p-3, 0x1.8f6b360000000p-4}
}
, {{-0x1.8568700000000p-3, 0x1.39a4b40000000p-5, -0x1.6dfe800000000p-3, -0x1.1115840000000p-5, -0x1.d3a33c0000000p-6, 0x1.0cc2360000000p-6, -0x1.3855700000000p-3, 0x1.72d6260000000p-5, 0x1.9b79cc0000000p-4, 0x1.344c1a0000000p-6, 0x1.74c3ce0000000p-4, -0x1.980fa60000000p-4, -0x1.b1b8d00000000p-3, 0x1.4998980000000p-4, -0x1.7fc92c0000000p-5, 0x1.fb108c0000000p-5}
, {0x1.db2ca40000000p-5, -0x1.5cfa860000000p-5, -0x1.c34d180000000p-3, 0x1.253b260000000p-3, -0x1.cae0260000000p-3, -0x1.d22f0a0000000p-4, -0x1.21098e0000000p-6, -0x1.7bd45c0000000p-3, 0x1.03b71e0000000p-5, -0x1.4ce1460000000p-3, 0x1.3f145c0000000p-4, 0x1.2b73ca0000000p-4, -0x1.5493a40000000p-6, 0x1.8c0af80000000p-4, 0x1.8728c00000000p-4, 0x1.af71640000000p-4}
, {-0x1.7411720000000p-4, -0x1.023eec0000000p-5, -0x1.5506f20000000p-4, -0x1.104fd40000000p-3, 0x1.473e5a0000000p-4, -0x1.9a1b200000000p-4, 0x1.acca140000000p-4, -0x1.3e51380000000p-4, -0x1.282c0c0000000p-3, 0x1.b380ce0000000p-4, 0x1.432b1e0000000p-10, -0x1.2e8f6a0000000p-3, 0x1.86e7020000000p-6, -0x1.8c24040000000p-3, -0x1.c741360000000p-4, -0x1.e96fbe0000000p-4}
}
, {{0x1.95b6640000000p-4, -0x1.3ff85e0000000p-3, -0x1.6e5d800000000p-4, -0x1.45fc160000000p-5, 0x1.3a84080000000p-6, -0x1.1e4fd00000000p-5, -0x1.b5dfc20000000p-4, 0x1.0377a00000000p-3, 0x1.5ff6a00000000p-4, 0x1.1fca2e0000000p-4, -0x1.a079040000000p-3, -0x1.55a6960000000p-3, -0x1.43a8740000000p-2, -0x1.81ca1e0000000p-4, 0x1.c27d780000000p-4, -0x1.e567980000000p-5}
, {-0x1.69cb3e0000000p-3, -0x1.c14f780000000p-3, -0x1.2ba6f20000000p-2, 0x1.6a26960000000p-15, 0x1.ccffb80000000p-4, -0x1.5174a40000000p-3, 0x1.4366c40000000p-4, 0x1.e8b41c0000000p-4, 0x1.ecbf4c0000000p-7, -0x1.e1eb920000000p-4, 0x1.1f6cc20000000p-3, -0x1.645e0c0000000p-5, -0x1.7894ce0000000p-3, 0x1.b2a4e40000000p-5, -0x1.3789d20000000p-3, -0x1.1596780000000p-4}
, {0x1.3c52780000000p-5, -0x1.32eb680000000p-4, -0x1.a202420000000p-2, 0x1.ee4cfa0000000p-5, -0x1.9289c80000000p-3, -0x1.15578c0000000p-5, -0x1.89cdca0000000p-5, 0x1.2868220000000p-6, 0x1.c8061c0000000p-4, 0x1.ca250a0000000p-6, 0x1.60ab4a0000000p-4, -0x1.f55baa0000000p-3, -0x1.90e62a0000000p-4, -0x1.15a4da0000000p-2, -0x1.4a4a860000000p-3, -0x1.221c1c0000000p-3}
}
, {{-0x1.e90a400000000p+0, 0x1.e43ab40000000p-3, 0x1.313d200000000p-1, -0x1.56d1c80000000p-3, 0x1.0c6e460000000p+0, 0x1.3de3140000000p-2, 0x1.f7d4580000000p-4, 0x1.811dc80000000p-3, -0x1.2dc5720000000p-3, 0x1.dd28060000000p-7, -0x1.a2f4200000000p-4, -0x1.7c374c0000000p-3, 0x1.769db40000000p-2, -0x1.8d16320000000p+0, -0x1.f3b5680000000p-4, -0x1.2352a20000000p-3}
, {-0x1.f101d60000000p-1, 0x1.73759c0000000p-1, -0x1.b440340000000p-1, -0x1.a812800000000p-4, 0x1.90ee4a0000000p+0, 0x1.39026a0000000p-4, -0x1.fca49a0000000p-1, -0x1.4fcfa40000000p-3, -0x1.13f7a40000000p-3, -0x1.4bd1520000000p-3, -0x1.6221020000000p-5, 0x1.2c6d3a0000000p-4, -0x1.ef05920000000p+0, -0x1.3e85540000000p+0, 0x1.463b4a0000000p-6, -0x1.21ee6e0000000p-2}
, {-0x1.0f628e0000000p+0, 0x1.4d7f9c0000000p-1, 0x1.56fb640000000p-2, 0x1.e9d08e0000000p-4, 0x1.5f09300000000p+0, 0x1.15a3ba0000000p-2, -0x1.4c5d020000000p-6, 0x1.14f2460000000p-4, -0x1.ccf4660000000p-5, 0x1.2cb22c0000000p-3, 0x1.a940400000000p-4, -0x1.1ea5940000000p-6, -0x1.ca03ca0000000p-2, -0x1.6a12a40000000p-2, -0x1.95de060000000p-3, -0x1.32d4ae0000000p-4}
}
, {{0x1.b9b3b00000000p-8, -0x1.5d59aa0000000p-4, -0x1.3816ee0000000p-3, 0x1.5f45320000000p-3, -0x1.8940e80000000p-3, -0x1.35e1340000000p-11, 0x1.061dba0000000p-3, 0x1.2800de0000000p-3, -0x1.b59dea0000000p-3, -0x1.019af00000000p-5, -0x1.068fec0000000p-4, 0x1.c476ce0000000p-9, -0x1.a7de2a0000000p-3, 0x1.72f3900000000p-3, 0x1.b4409a0000000p-6, -0x1.07dbe00000000p-3}
, {0x1.2dc89e0000000p-3, -0x1.092a2c0000000p-2, 0x1.6101660000000p-4, 0x1.78453c0000000p-3, -0x1.7b95da0000000p-9, 0x1.0742120000000p-4, -0x1.6aaeb80000000p-3, -0x1.5b4cf00000000p-3, 0x1.075af20000000p-3, -0x1.be85e40000000p-4, -0x1.410bfc0000000p-4, -0x1.b5f0d40000000p-4, -0x1.400cd80000000p-4, -0x1.5a98a20000000p-4, -0x1.a0c7980000000p-3, 0x1.5e36c60000000p-5}
, {0x1.06bb5a0000000p-4, -0x1.a39c0a0000000p-3, -0x1.1451dc0000000p-6, 0x1.7aa6260000000p-3, -0x1.c467ca0000000p-4, -0x1.98aed80000000p-4, -0x1.2727c00000000p-3, 0x1.bace660000000p-5, -0x1.c17e2a0000000p-4, 0x1.37adec0000000p-3, -0x1.e1ed640000000p-5, -0x1.5e72300000000p-3, -0x1.950e1c0000000p-3, 0x1.4d08640000000p-5, 0x1.84cb960000000p-4, 0x1.23fec80000000p-4}
}
, {{-0x1.131e660000000p+1, -0x1.238ab20000000p+0, -0x1.7f01be0000000p-4, -0x1.7ca42c0000000p-4, -0x1.e873fe0000000p-1, -0x1.54acf20000000p-5, 0x1.4efa960000000p-4, 0x1.ce6d8e0000000p-4, 0x1.d8a1420000000p-3, 0x1.7804800000000p-4, 0x1.4773900000000p-3, 0x1.3d68d00000000p-3, 0x1.d10a2e0000000p-3, 0x1.42eb340000000p-4, 0x1.8d740a0000000p-4, -0x1.9ccd4c0000000p-3}
, {-0x1.308be80000000p-1, -0x1.492ec00000000p-1, 0x1.93fd660000000p-3, -0x1.c2a11e0000000p-5, -0x1.9b1eb40000000p-3, -0x1.132a9e0000000p-2, 0x1.481e560000000p-3, -0x1.24e5a00000000p-5, 0x1.692fda0000000p-5, 0x1.8a9cc20000000p-4, 0x1.3a850a0000000p-3, -0x1.91fa860000000p-3, -0x1.444a9a0000000p-5, 0x1.bf35520000000p-2, 0x1.10faa20000000p-9, 0x1.16b4540000000p-3}
, {-0x1.31d3860000000p+1, -0x1.9cc7500000000p+0, -0x1.1200760000000p-6, -0x1.13807c0000000p-3, -0x1.ff00fc0000000p-1, -0x1.58505e0000000p-3, 0x1.7ec3fa0000000p-3, -0x1.42f5d00000000p-5, 0x1.51dc4a0000000p-3, 0x1.bb83a60000000p-3, -0x1.6ba2420000000p-3, -0x1.130e540000000p-3, 0x1.25af060000000p-2, 0x1.bfeca80000000p-6, 0x1.3588fc0000000p-3, -0x1.b901740000000p-9}
}
, {{0x1.6e6d140000000p-3, -0x1.28cbe80000000p-3, 0x1.e9c2b60000000p-4, 0x1.6bfa7a0000000p-3, 0x1.d5274a0000000p-4, 0x1.1de17a0000000p-6, -0x1.847a760000000p-3, -0x1.c459ce0000000p-12, -0x1.73a8640000000p-5, 0x1.a575680000000p-4, 0x1.38dbc00000000p-3, 0x1.bf48d80000000p-8, 0x1.84d60a0000000p-5, -0x1.d38c520000000p-10, 0x1.bec0da0000000p-4, -0x1.6008940000000p-6}
, {-0x1.31a5a20000000p-3, -0x1.7fe6ca0000000p-3, -0x1.6478460000000p-4, 0x1.354c2c0000000p-3, 0x1.74f7da0000000p-5, -0x1.22c95c0000000p-6, -0x1.0211ac0000000p-3, 0x1.3b28a40000000p-6, -0x1.cc86560000000p-6, -0x1.1b3e720000000p-3, -0x1.4332c00000000p-3, 0x1.1465420000000p-5, -0x1.922cbe0000000p-11, -0x1.6f9df20000000p-4, 0x1.6b0f760000000p-3, 0x1.a7f47e0000000p-4}
, {0x1.5a20360000000p-6, -0x1.a7968c0000000p-4, 0x1.86d7a40000000p-5, 0x1.27acac0000000p-3, 0x1.d5efbc0000000p-4, -0x1.186e480000000p-5, -0x1.acbeee0000000p-4, -0x1.a3b7a20000000p-4, -0x1.c0f4060000000p-4, -0x1.1142240000000p-3, -0x1.a54faa0000000p-4, -0x1.7743bc0000000p-3, -0x1.8396080000000p-3, 0x1.d33e780000000p-5, -0x1.7827fc0000000p-4, -0x1.e1956c0000000p-5}
}
, {{0x1.a0c5700000000p+0, 0x1.c7eed60000000p-3, 0x1.2cfa8c0000000p-2, -0x1.a5c1c40000000p-3, -0x1.5b588c0000000p-3, 0x1.f44f7e0000000p-2, 0x1.58379e0000000p-3, -0x1.f176dc0000000p-4, 0x1.fc6cca0000000p-4, 0x1.22db4a0000000p-4, 0x1.ea76380000000p-3, -0x1.1f60720000000p-8, 0x1.41eb880000000p-4, -0x1.e129340000000p-2, 0x1.bda1560000000p-8, -0x1.5c2eda0000000p-8}
, {0x1.6a59360000000p-2, -0x1.d186da0000000p-2, 0x1.aac90a0000000p-2, -0x1.6866d00000000p-9, -0x1.079ed60000000p-2, 0x1.e136ca0000000p-2, 0x1.2659ee0000000p-2, 0x1.5a8eec0000000p-3, 0x1.b281480000000p-3, 0x1.2387420000000p-4, 0x1.2933b20000000p-8, 0x1.21233a0000000p-4, 0x1.a843d00000000p-3, -0x1.33c3bc0000000p-2, -0x1.9bab0c0000000p-4, -0x1.e373700000000p-5}
, {-0x1.b36ef00000000p-2, -0x1.8ef7200000000p-3, 0x1.65477c0000000p-2, 0x1.a0413a0000000p-5, -0x1.cac21e0000000p-7, 0x1.b925400000000p-2, -0x1.befbb00000000p-12, -0x1.2c00360000000p-5, -0x1.3cdd2a0000000p-4, 0x1.f9ffd00000000p-4, 0x1.4907560000000p-4, -0x1.6b2af80000000p-4, 0x1.93dcc60000000p-3, -0x1.7db5520000000p-2, 0x1.4ae44c0000000p-3, -0x1.e52f180000000p-5}
}
, {{-0x1.89e2480000000p-3, -0x1.f2ad1e0000000p-3, -0x1.ebc92a0000000p-6, 0x1.920c8a0000000p-3, -0x1.09ba280000000p-3, -0x1.d8a1420000000p-5, -0x1.70b07e0000000p-3, 0x1.9d18720000000p-3, -0x1.1ec5b60000000p-5, -0x1.5b1a540000000p-3, 0x1.46c8080000000p-4, -0x1.1783ca0000000p-3, 0x1.c8d67c0000000p-4, 0x1.3ed0e20000000p-4, -0x1.d5a3ba0000000p-3, -0x1.0405000000000p-3}
, {-0x1.9e876a0000000p-6, -0x1.12e7020000000p-5, -0x1.2650380000000p-5, 0x1.b80ff20000000p-3, 0x1.ff19a80000000p-6, 0x1.6bd6a60000000p-4, 0x1.3e87000000000p-6, 0x1.085bb00000000p-3, -0x1.f113cc0000000p-5, 0x1.5262940000000p-5, -0x1.8414660000000p-4, 0x1.aca3800000000p-4, -0x1.231de80000000p-4, -0x1.dba1060000000p-7, 0x1.b215ea0000000p-6, 0x1.0d24f80000000p-4}
, {-0x1.901afc0000000p-4, -0x1.9f3a100000000p-4, -0x1.1a22a80000000p-2, 0x1.9304c20000000p-3, -0x1.37ec4a0000000p-3, 0x1.a20a820000000p-3, -0x1.1814320000000p-2, -0x1.3bd8d00000000p-6, -0x1.305c6e0000000p-5, -0x1.b7e47c0000000p-3, -0x1.9018b60000000p-4, -0x1.4a4eca0000000p-7, -0x1.74dc5e0000000p-4, -0x1.0b7a2c0000000p-6, -0x1.d08de60000000p-5, -0x1.95eec20000000p-4}
}
, {{-0x1.0081be0000000p-2, -0x1.1f2d020000000p-2, -0x1.9ce0780000000p-2, 0x1.228c7a0000000p-5, -0x1.44f8500000000p-2, 0x1.6915ca0000000p-4, -0x1.477f400000000p-2, 0x1.1750b40000000p-3, -0x1.7c05c60000000p-6, 0x1.211d0c0000000p-4, 0x1.23dcd60000000p-6, -0x1.ebb3600000000p-6, -0x1.f2e5700000000p-4, -0x1.6e51660000000p-3, -0x1.c5695c0000000p-5, -0x1.b782c60000000p-3}
, {-0x1.3fe5760000000p-2, -0x1.cf99460000000p-5, -0x1.49a3740000000p-2, 0x1.2082160000000p-3, 0x1.ed05420000000p-4, -0x1.ae904a0000000p-4, -0x1.a1d0440000000p-3, -0x1.ff54360000000p-8, 0x1.cb46360000000p-5, -0x1.776ecc0000000p-4, 0x1.0fb7ee0000000p-5, -0x1.1e3a920000000p-4, -0x1.9d42860000000p-3, -0x1.d25f3a0000000p-2, 0x1.00b2ee0000000p-3, 0x1.017e280000000p-3}
, {0x1.0c2c7c0000000p-5, -0x1.0d58540000000p-2, -0x1.c376600000000p-3, -0x1.518b7c0000000p-3, -0x1.5ab6380000000p-2, 0x1.2390a80000000p-3, -0x1.89fcea0000000p-3, 0x1.62b2a40000000p-3, -0x1.72c9140000000p-4, 0x1.51fb8a0000000p-4, 0x1.bbdd640000000p-4, 0x1.f391b60000000p-4, -0x1.9932be0000000p-2, -0x1.8c78560000000p-3, -0x1.23e0ce0000000p-5, -0x1.03f46a0000000p-3}
}
, {{0x1.c8dedc0000000p-2, 0x1.8f65780000000p-1, 0x1.ed68b80000000p-3, 0x1.28a5ba0000000p-4, 0x1.5b422c0000000p-1, -0x1.e1387e0000000p-2, 0x1.ab4a8a0000000p-3, 0x1.7f95680000000p-4, 0x1.0cb1ca0000000p-5, -0x1.be45060000000p-4, 0x1.a77d260000000p-5, -0x1.b6febc0000000p-6, -0x1.95812a0000000p-5, 0x1.05b82c0000000p+0, 0x1.3bdaca0000000p-3, -0x1.dcdd6e0000000p-4}
, {0x1.8cfa6c0000000p-5, 0x1.5d14ae0000000p-6, -0x1.9ee5e20000000p-4, 0x1.1f38e20000000p-9, 0x1.13180e0000000p-1, -0x1.6b63e40000000p-4, 0x1.0592fe0000000p-3, -0x1.926bf40000000p-3, -0x1.a1b48c0000000p-3, 0x1.75edfa0000000p-4, -0x1.8306d40000000p-3, 0x1.a93c0e0000000p-3, -0x1.1d9baa0000000p-4, -0x1.6a494c0000000p-2, -0x1.3e1fde0000000p-4, 0x1.2e43b80000000p-5}
, {-0x1.144a960000000p-1, -0x1.07dcd60000000p-2, -0x1.686ab20000000p-2, -0x1.05e17a0000000p-3, 0x1.bc714c0000000p-2, -0x1.b6e4d40000000p-3, -0x1.5371320000000p-3, 0x1.2bc4200000000p-4, -0x1.25b67e0000000p-3, -0x1.69a50a0000000p-3, 0x1.08e6fa0000000p-3, -0x1.ba3a080000000p-5, 0x1.b6267a0000000p-6, -0x1.aac2b80000000p-1, -0x1.50dd820000000p-4, -0x1.727c460000000p-2}
}
, {{-0x1.42f1640000000p-2, -0x1.6020ee0000000p-4, -0x1.121c120000000p-3, -0x1.39cb9e0000000p-4, -0x1.0dffd80000000p-3, -0x1.0819740000000p-6, -0x1.8f50f20000000p-4, 0x1.5b6de40000000p-9, -0x1.c533b20000000p-3, 0x1.7ca3f60000000p-4, -0x1.a271620000000p-4, -0x1.8330300000000p-4, -0x1.338cb60000000p-3, 0x1.6f9a500000000p-4, -0x1.ea43d40000000p-4, -0x1.b3b4b60000000p-3}
, {-0x1.dc3fa60000000p-6, 0x1.2b37840000000p-6, -0x1.2a2f060000000p-3, -0x1.189ba80000000p-9, -0x1.0df4940000000p-3, 0x1.c7b2380000000p-4, -0x1.2fff9e0000000p-4, -0x1.6a29500000000p-5, -0x1.8472f40000000p-3, -0x1.d441100000000p-3, 0x1.18223c0000000p-3, -0x1.7729fa0000000p-3, -0x1.65c8860000000p-3, 0x1.49d05a0000000p-4, -0x1.04e4440000000p-2, -0x1.5a49e40000000p-4}
, {-0x1.892f8a0000000p-6, -0x1.1ba7020000000p-2, -0x1.00dfd60000000p-2, 0x1.68e0480000000p-3, -0x1.3131aa0000000p-2, 0x1.b43f7a0000000p-5, 0x1.55cad60000000p-6, -0x1.8555ea0000000p-5, 0x1.bc60c80000000p-4, 0x1.4148540000000p-4, -0x1.cc62b40000000p-3, 0x1.fb3b960000000p-5, 0x1.1e17780000000p-5, -0x1.8efc700000000p-3, 0x1.1356520000000p-5, 0x1.babb300000000p-5}
}
, {{0x1.6ccb3e0000000p-1, 0x1.19a2b40000000p-4, -0x1.77b3920000000p-8, -0x1.654bfc0000000p-3, -0x1.f18b900000000p-6, 0x1.e3f54c0000000p-3, 0x1.016a640000000p-3, 0x1.0e60fa0000000p-3, -0x1.4ce1480000000p-6, -0x1.6b86260000000p-4, -0x1.3226c60000000p-5, -0x1.1b30a20000000p-4, 0x1.051d5c0000000p-2, -0x1.7e2ee20000000p-3, 0x1.bcc9460000000p-4, 0x1.19b8c40000000p-3}
, {-0x1.50ccda0000000p-2, -0x1.565fd40000000p-3, 0x1.3cc83e0000000p-2, 0x1.fbf1d00000000p-4, -0x1.5bb8e60000000p-4, 0x1.9218500000000p-3, 0x1.a4dd200000000p-3, 0x1.5b04080000000p-3, 0x1.ab90320000000p-3, -0x1.d1c9740000000p-5, 0x1.585ea80000000p-4, 0x1.e41dc80000000p-3, 0x1.e6a0aa0000000p-5, -0x1.53296e0000000p-2, 0x1.9b9c960000000p-6, -0x1.b401e80000000p-4}
, {-0x1.6255da0000000p-1, -0x1.29e2040000000p-3, 0x1.217bc20000000p-2, 0x1.1e39ca0000000p-4, -0x1.f218520000000p-3, 0x1.1a6aec0000000p-3, 0x1.356f720000000p-3, 0x1.1922ac0000000p-3, -0x1.19f2e60000000p-3, -0x1.eb64780000000p-4, 0x1.53fbc00000000p-3, 0x1.35dee80000000p-4, 0x1.7dd8440000000p-2, -0x1.b6b1a80000000p-2, 0x1.a3fd020000000p-5, -0x1.b5a1260000000p-4}
}
, {{-0x1.4b80740000000p-1, -0x1.aa06ec0000000p-3, 0x1.7b9c1c0000000p-3, 0x1.2b10500000000p-5, -0x1.88add80000000p-4, 0x1.0202f00000000p-4, 0x1.489a9e0000000p-4, 0x1.59387c0000000p-3, -0x1.0fee6a0000000p-3, -0x1.b0666a0000000p-6, 0x1.f2cbf00000000p-5, -0x1.32fb0c0000000p-5, 0x1.ebd64c0000000p-3, -0x1.0081c40000000p+0, 0x1.0707bc0000000p-3, -0x1.90bb840000000p-5}
, {-0x1.a42d400000000p+0, -0x1.3479600000000p-1, 0x1.0d630e0000000p-1, -0x1.0e63a20000000p-6, -0x1.48d76c0000000p-1, 0x1.4a37ce0000000p-4, 0x1.51b2ca0000000p-6, -0x1.b92bd40000000p-5, 0x1.4700320000000p-3, 0x1.65b2ce0000000p-4, 0x1.1e22a40000000p-3, -0x1.d3f5e40000000p-4, 0x1.7fc1960000000p-2, -0x1.53b3b40000000p+0, 0x1.d444280000000p-3, 0x1.67b3ae0000000p-7}
, {-0x1.9745a80000000p+0, -0x1.4145700000000p-2, 0x1.d209440000000p-2, -0x1.a2647c0000000p-3, -0x1.dd00920000000p-2, 0x1.62cdbe0000000p-3, 0x1.1a08940000000p-2, -0x1.3e0c440000000p-3, 0x1.9799960000000p-3, -0x1.d9f7980000000p-4, 0x1.7cd2460000000p-5, 0x1.1d36220000000p-4, 0x1.dd40a80000000p-3, -0x1.056ec00000000p-1, 0x1.75aa800000000p-3, -0x1.6736000000000p-9}
}
, {{-0x1.048ab60000000p-5, -0x1.8094000000000p-4, 0x1.c257fc0000000p-5, -0x1.53d33a0000000p-3, -0x1.56247e0000000p-4, -0x1.bbd2a00000000p-5, -0x1.ae85620000000p-4, -0x1.55c8300000000p-4, -0x1.cf42cc0000000p-5, 0x1.ea6e820000000p-4, -0x1.ee6b1c0000000p-7, -0x1.79ae740000000p-3, -0x1.2328500000000p-7, -0x1.f92f5a0000000p-3, -0x1.0d504c0000000p-3, 0x1.1f5fdc0000000p-6}
, {-0x1.90dd720000000p-3, -0x1.1595460000000p-9, 0x1.62567c0000000p-3, 0x1.79335c0000000p-3, 0x1.71ca1c0000000p-4, 0x1.206f7c0000000p-4, -0x1.fd309a0000000p-3, -0x1.9ebb8c0000000p-5, -0x1.389e460000000p-3, 0x1.00965a0000000p-3, 0x1.56730e0000000p-3, -0x1.701e940000000p-3, -0x1.896f960000000p-3, -0x1.383a340000000p-3, 0x1.224bec0000000p-3, -0x1.df72000000000p-4}
, {-0x1.aeff920000000p-3, 0x1.3b4bfe0000000p-12, 0x1.3a4cae0000000p-3, -0x1.68f7120000000p-3, -0x1.85ebc40000000p-3, 0x1.0752540000000p-9, 0x1.5f42240000000p-6, 0x1.3cabe60000000p-3, 0x1.e35fb40000000p-4, 0x1.fb817e0000000p-5, 0x1.5af9580000000p-3, -0x1.96165c0000000p-10, -0x1.5f077a0000000p-4, -0x1.e5dfec0000000p-3, -0x1.184c8a0000000p-3, -0x1.2a84700000000p-6}
}
, {{0x1.1372bc0000000p-7, -0x1.39f60e0000000p-3, 0x1.6305580000000p-4, 0x1.0a916c0000000p-3, -0x1.15841a0000000p-6, 0x1.8220660000000p-3, -0x1.2980a40000000p-3, 0x1.4a84c00000000p-4, -0x1.5a6fea0000000p-6, -0x1.5bf8760000000p-5, -0x1.b621320000000p-5, -0x1.c921760000000p-4, -0x1.363b340000000p-4, -0x1.2af4c00000000p-3, 0x1.42a0a60000000p-8, -0x1.c760f80000000p-4}
, {0x1.4c78ca0000000p-4, -0x1.1db5220000000p-4, -0x1.b7dd600000000p-3, 0x1.77a17a0000000p-3, 0x1.98b7280000000p-3, 0x1.34d06e0000000p-4, 0x1.ee35140000000p-5, 0x1.011fa60000000p-6, 0x1.36aca40000000p-4, 0x1.1d089e0000000p-3, 0x1.343eb00000000p-3, -0x1.574ef40000000p-3, -0x1.2a3e1a0000000p-7, -0x1.41970e0000000p-3, -0x1.c7d9840000000p-5, 0x1.049ee20000000p-3}
, {-0x1.8f15c40000000p-4, -0x1.1c62f00000000p-4, -0x1.bcbb240000000p-3, 0x1.7ef1220000000p-6, 0x1.a9ae080000000p-7, -0x1.a9291c0000000p-5, 0x1.f6c4880000000p-4, -0x1.b9e9920000000p-4, -0x1.ba33700000000p-4, -0x1.1e1ab20000000p-5, 0x1.6f470e0000000p-3, 0x1.0ccc6c0000000p-3, 0x1.1805560000000p-6, -0x1.8d78ce0000000p-5, -0x1.980df80000000p-4, -0x1.e4f24c0000000p-5}
}
, {{0x1.eeb5360000000p-4, -0x1.09e3320000000p-4, -0x1.786abe0000000p-2, -0x1.5da70c0000000p-3, -0x1.f2d3140000000p-6, 0x1.a453000000000p-6, -0x1.5feaba0000000p-2, 0x1.3dbb980000000p-3, -0x1.389ad20000000p-3, -0x1.73aadc0000000p-4, -0x1.bfbb180000000p-5, -0x1.3220640000000p-3, -0x1.af3d5a0000000p-2, -0x1.2c1b880000000p-5, -0x1.d1be8c0000000p-4, -0x1.0f88000000000p-12}
, {0x1.883e800000000p-8, -0x1.f594260000000p-3, -0x1.2dde5a0000000p-4, -0x1.7176680000000p-3, -0x1.8ca3d20000000p-2, -0x1.0289000000000p-5, 0x1.d81f900000000p-6, -0x1.49e9300000000p-3, 0x1.06d2b80000000p-3, -0x1.0b03340000000p-3, 0x1.452e780000000p-7, -0x1.8235600000000p-6, -0x1.0b703e0000000p-5, -0x1.c5365a0000000p-3, 0x1.0dda000000000p-11, 0x1.7fb0cc0000000p-3}
, {-0x1.97eb6a0000000p-4, -0x1.750cae0000000p-2, -0x1.1bfb000000000p-2, -0x1.96d4d60000000p-4, -0x1.ea0bc40000000p-6, -0x1.7b73ba0000000p-4, -0x1.53c3700000000p-3, 0x1.8765800000000p-5, -0x1.07381c0000000p-3, 0x1.5336980000000p-4, -0x1.70a8760000000p-4, -0x1.0d480c0000000p-4, -0x1.1b87b00000000p-2, -0x1.61e3920000000p-2, 0x1.edd5b00000000p-4, -0x1.a49a1c0000000p-4}
}
, {{-0x1.87287a0000000p-3, -0x1.37cae60000000p-5, -0x1.e9168c0000000p-4, -0x1.1a44980000000p-3, -0x1.24b2b20000000p-4, 0x1.f7cfc80000000p-4, -0x1.5a325c0000000p-5, -0x1.f066680000000p-4, 0x1.a20c420000000p-3, 0x1.95ec320000000p-3, -0x1.96627c0000000p-4, 0x1.ad77b60000000p-3, 0x1.2d51e00000000p-4, 0x1.8802980000000p-5, 0x1.4e136a0000000p-5, 0x1.a1fff20000000p-4}
, {0x1.0464880000000p-4, -0x1.ea370e0000000p-3, 0x1.08d2780000000p-4, -0x1.9a934a0000000p-4, -0x1.36632e0000000p-2, 0x1.9f00e40000000p-3, -0x1.8bb21a0000000p-3, -0x1.bde3bc0000000p-4, 0x1.f04fc60000000p-11, 0x1.ef42200000000p-3, -0x1.5ebe9a0000000p-5, 0x1.00c0e20000000p-2, -0x1.bb0e200000000p-4, -0x1.cd57680000000p-4, 0x1.3ab4820000000p-9, 0x1.b7184e0000000p-4}
, {-0x1.42d0c60000000p-4, -0x1.1660980000000p-3, -0x1.d9d9b20000000p-3, 0x1.d02bf40000000p-7, -0x1.ef2f260000000p-3, -0x1.f2a89a0000000p-5, 0x1.12d72e0000000p-5, -0x1.d50d900000000p-4, 0x1.656bbc0000000p-5, 0x1.caf51a0000000p-6, -0x1.a190300000000p-3, 0x1.182a420000000p-4, -0x1.4b76520000000p-3, 0x1.09f3740000000p-3, 0x1.518a760000000p-3, -0x1.3e601c0000000p-3}
}
, {{-0x1.5af7be0000000p-3, 0x1.8033860000000p-1, -0x1.1c0ffc0000000p-2, 0x1.2a83d40000000p-5, 0x1.088a740000000p+0, -0x1.085b720000000p-4, 0x1.74e30a0000000p-4, -0x1.78411c0000000p-3, 0x1.1036b40000000p-3, -0x1.2063480000000p-7, 0x1.393b240000000p-2, -0x1.4161be0000000p-4, 0x1.61f7a40000000p-3, 0x1.2753360000000p+0, -0x1.85aa0a0000000p-3, -0x1.8815b00000000p-4}
, {-0x1.64ed100000000p-6, -0x1.98c9e60000000p-3, -0x1.49da180000000p-2, 0x1.e0cf7c0000000p-3, 0x1.aa62be0000000p-2, -0x1.87de840000000p-5, -0x1.230d120000000p-3, -0x1.41e5c80000000p-4, -0x1.c29c780000000p-5, -0x1.52f4320000000p-3, -0x1.223de00000000p-6, 0x1.2340bc0000000p-4, -0x1.65841e0000000p-2, -0x1.a0ca020000000p-3, -0x1.17019c0000000p-3, -0x1.0c54fa0000000p-3}
, {-0x1.7d3d540000000p+0, -0x1.a9490c0000000p-2, -0x1.9a67420000000p-2, 0x1.fb2f9c0000000p-5, 0x1.6d4d5c0000000p-2, -0x1.0f61e00000000p-2, 0x1.95e3700000000p-3, -0x1.6d4cc60000000p-4, -0x1.41d2a00000000p-4, -0x1.74346a0000000p-5, -0x1.8e54560000000p-4, 0x1.01642c0000000p-5, -0x1.cf19040000000p-3, -0x1.651e840000000p-1, -0x1.7940f80000000p-6, -0x1.e914dc0000000p-5}
}
, {{0x1.9197380000000p-7, -0x1.5047da0000000p-4, -0x1.f91dc80000000p-5, -0x1.1ca5280000000p-5, 0x1.10a0e40000000p-4, -0x1.7f5ac20000000p-3, 0x1.b65b840000000p-7, -0x1.0884f40000000p-5, 0x1.0dcc140000000p-3, 0x1.9bff120000000p-8, -0x1.fc1a9a0000000p-4, -0x1.501c0c0000000p-4, -0x1.caad2a0000000p-3, -0x1.18eca40000000p-4, -0x1.5554680000000p-3, -0x1.2fcf260000000p-5}
, {-0x1.e3ecf40000000p-4, -0x1.ca92040000000p-3, -0x1.36d5e60000000p-5, 0x1.e0370a0000000p-7, 0x1.8591b00000000p-4, -0x1.7f8c2c0000000p-3, -0x1.d4f3860000000p-4, 0x1.8994ba0000000p-4, 0x1.2cea8c0000000p-6, -0x1.94b6360000000p-8, 0x1.045ad00000000p-3, -0x1.158fc60000000p-11, -0x1.0fe36a0000000p-4, -0x1.89c92c0000000p-3, 0x1.701dbe0000000p-4, -0x1.0dfe020000000p-3}
, {-0x1.d10d1a0000000p-4, 0x1.0a5a5c0000000p-4, 0x1.8823600000000p-8, 0x1.7bd7300000000p-10, -0x1.b754f40000000p-4, 0x1.adc6da0000000p-5, -0x1.0f44b20000000p-3, 0x1.6fcdbc0000000p-4, -0x1.1c531c0000000p-5, 0x1.61e1a00000000p-5, -0x1.89f6a80000000p-4, -0x1.0e4dfc0000000p-4, 0x1.6a36ce0000000p-6, -0x1.07e6a00000000p-3, 0x1.3575760000000p-5, -0x1.0443600000000p-4}
}
, {{-0x1.2851a20000000p-3, -0x1.c536040000000p-2, -0x1.25373e0000000p-2, 0x1.47c84c0000000p-5, -0x1.db86220000000p-3, -0x1.2d15660000000p-3, -0x1.e7b2b60000000p-5, -0x1.75feea0000000p-3, -0x1.f9cf3e0000000p-5, 0x1.56e92c0000000p-3, -0x1.6ab2d20000000p-3, 0x1.2746720000000p-3, -0x1.03fc020000000p-2, 0x1.f6349c0000000p-6, -0x1.8917520000000p-3, 0x1.5bda580000000p-4}
, {0x1.9d7ed00000000p-3, -0x1.aeb7160000000p-3, -0x1.14a4d40000000p-2, -0x1.48fe6a0000000p-3, -0x1.aee9080000000p-2, -0x1.f9df060000000p-2, -0x1.29cf000000000p-2, 0x1.50dabe0000000p-7, -0x1.5c8e480000000p-3, 0x1.2f55580000000p-4, -0x1.63eca60000000p-4, 0x1.fac2bc0000000p-4, -0x1.701e120000000p-2, -0x1.84e2920000000p-5, 0x1.6666f60000000p-8, 0x1.ebe68c0000000p-8}
, {0x1.aeb2080000000p-4, -0x1.4fb3d80000000p-4, -0x1.08c3b20000000p-1, -0x1.1adf560000000p-3, -0x1.4a42260000000p-4, -0x1.7668400000000p-3, -0x1.1300820000000p-1, 0x1.2403ee0000000p-3, -0x1.19e4680000000p-4, -0x1.087f120000000p-3, -0x1.b45f9a0000000p-5, -0x1.44a60a0000000p-3, -0x1.25f57e0000000p-2, -0x1.da0f3e0000000p-3, -0x1.859d900000000p-3, 0x1.91abe40000000p-5}
}
, {{0x1.92fc860000000p-4, -0x1.e929420000000p-2, -0x1.7c2fc00000000p-3, 0x1.d5a94a0000000p-4, -0x1.e69e160000000p-3, -0x1.9046040000000p-4, -0x1.ed3d460000000p-5, 0x1.1ae0820000000p-5, -0x1.8d08240000000p-4, -0x1.041b4a0000000p-2, 0x1.611ec40000000p-4, 0x1.88da780000000p-5, -0x1.2f143c0000000p-2, 0x1.5b9bde0000000p-5, 0x1.51020e0000000p-5, -0x1.08108c0000000p-4}
, {-0x1.6c0f700000000p-2, -0x1.70c0000000000p-2, -0x1.ea24e80000000p-3, -0x1.0d97dc0000000p-8, -0x1.90dda40000000p-3, 0x1.b385ce0000000p-6, -0x1.4bf8520000000p-4, -0x1.6778040000000p-3, -0x1.cae0600000000p-4, 0x1.d1da740000000p-6, -0x1.93b3680000000p-3, 0x1.07b2b80000000p-4, 0x1.50e2300000000p-5, 0x1.3e82540000000p-4, -0x1.c3cc840000000p-6, 0x1.3096780000000p-4}
, {-0x1.6620920000000p-4, -0x1.fd2aac0000000p-3, -0x1.8a218c0000000p-3, 0x1.2987100000000p-3, 0x1.060d240000000p-4, -0x1.b4a2be0000000p-4, -0x1.2688500000000p-2, 0x1.98ac020000000p-6, 0x1.c636240000000p-4, -0x1.e6a61c0000000p-5, 0x1.3f62200000000p-3, -0x1.c287460000000p-3, -0x1.7f5f520000000p-3, -0x1.ea63d80000000p-3, 0x1.3b6c6c0000000p-5, 0x1.b882cc0000000p-3}
}
, {{-0x1.01c45e0000000p-4, -0x1.61fecc0000000p-4, -0x1.48122e0000000p-3, 0x1.5b32d00000000p-3, 0x1.bf06820000000p-6, 0x1.0652180000000p-4, 0x1.85ea060000000p-6, 0x1.33a9fe0000000p-3, -0x1.1e89a60000000p-3, 0x1.a79b880000000p-6, -0x1.0d1fc00000000p-4, 0x1.2f96aa0000000p-3, -0x1.12df680000000p-3, -0x1.7ada640000000p-4, -0x1.07a95a0000000p-6, -0x1.217eea0000000p-4}
, {0x1.28a3300000000p-3, -0x1.e8370c0000000p-5, -0x1.4f2bc00000000p-6, -0x1.6925ca0000000p-3, 0x1.231c020000000p-3, -0x1.b9adf20000000p-8, -0x1.00fefe0000000p-3, 0x1.70adda0000000p-4, -0x1.7bedd40000000p-3, -0x1.5325b80000000p-4, -0x1.32f2aa0000000p-4, 0x1.2a46bc0000000p-3, 0x1.3743680000000p-4, -0x1.cefc4a0000000p-6, -0x1.1d9f220000000p-4, -0x1.7e24280000000p-4}
, {-0x1.8041c60000000p-3, -0x1.08c5e40000000p-2, -0x1.e0c6da0000000p-3, -0x1.09bcb80000000p-4, -0x1.0b85fe0000000p-3, -0x1.ff3c560000000p-5, -0x1.598f020000000p-3, -0x1.d8af9c0000000p-4, 0x1.5cb1c20000000p-3, 0x1.14df880000000p-3, -0x1.e3da480000000p-4, -0x1.78e1440000000p-4, -0x1.1568b40000000p-2, -0x1.c4bae80000000p-3, -0x1.1434680000000p-3, 0x1.5c44dc0000000p-4}
}
, {{-0x1.c48eda0000000p-3, -0x1.4cfa740000000p-2, -0x1.722e100000000p-2, -0x1.85ca500000000p-3, -0x1.6247e40000000p-4, 0x1.1de0400000000p-5, -0x1.32fe5e0000000p-3, -0x1.47b7880000000p-4, -0x1.7b212e0000000p-4, -0x1.84e0b60000000p-7, -0x1.976bb00000000p-4, 0x1.331e6a0000000p-3, -0x1.b4155a0000000p-2, -0x1.2b88b80000000p-11, -0x1.d8ed3c0000000p-4, -0x1.0185920000000p-5}
, {-0x1.6cb7a60000000p-4, -0x1.1e0a860000000p-2, 0x1.359d220000000p-4, 0x1.6018680000000p-4, -0x1.5d878a0000000p-3, -0x1.92a68c0000000p-3, -0x1.03464a0000000p-3, -0x1.322f240000000p-5, 0x1.39d1fa0000000p-4, -0x1.69c8480000000p-3, -0x1.52ab740000000p-4, -0x1.52bb080000000p-3, -0x1.e8d0180000000p-5, -0x1.190aee0000000p-2, -0x1.d3e37e0000000p-4, 0x1.370f920000000p-4}
, {0x1.9d2f6a0000000p-5, -0x1.7e69d20000000p-3, -0x1.23fece0000000p-4, -0x1.b436460000000p-5, -0x1.3cc8f80000000p-5, -0x1.2084340000000p-4, -0x1.50b9780000000p-4, -0x1.8ce8700000000p-6, -0x1.18e7fa0000000p-4, -0x1.32075e0000000p-7, -0x1.c510920000000p-5, 0x1.ad49600000000p-6, -0x1.262bf40000000p-3, -0x1.0daca80000000p-5, -0x1.e130620000000p-4, -0x1.9cb87c0000000p-3}
}
, {{0x1.4a0fce0000000p-6, -0x1.966baa0000000p-3, -0x1.8288f80000000p-3, -0x1.4af1500000000p-3, -0x1.0aeca20000000p-4, 0x1.73c3440000000p-5, -0x1.0c88580000000p-2, -0x1.9c78860000000p-4, 0x1.039faa0000000p-4, 0x1.2f68620000000p-3, -0x1.a8806a0000000p-3, 0x1.24777c0000000p-3, -0x1.7e6b360000000p-2, 0x1.dd39f20000000p-4, -0x1.da56160000000p-4, -0x1.93cb0a0000000p-3}
, {0x1.0048b20000000p-4, -0x1.eaa52c0000000p-5, -0x1.bcd98a0000000p-4, 0x1.4274960000000p-3, -0x1.8fd4c80000000p-4, -0x1.4affa60000000p-4, 0x1.9d7eda0000000p-5, 0x1.ab34240000000p-4, -0x1.1ee81a0000000p-3, -0x1.4cbfb40000000p-4, -0x1.d4be080000000p-7, -0x1.b02a9e0000000p-4, 0x1.1f78500000000p-3, -0x1.21788c0000000p-3, 0x1.334d320000000p-4, -0x1.98ea940000000p-4}
, {-0x1.3845d00000000p-7, -0x1.df1d680000000p-5, -0x1.3246bc0000000p-4, 0x1.3757000000000p-9, -0x1.854b320000000p-4, -0x1.60cd3c0000000p-7, 0x1.c22e7e0000000p-6, -0x1.c2a3140000000p-4, -0x1.c9633a0000000p-3, 0x1.1cbaa40000000p-3, -0x1.75aa8a0000000p-4, -0x1.560c860000000p-4, -0x1.bba0f80000000p-3, 0x1.16baf00000000p-4, -0x1.30666e0000000p-5, -0x1.558a820000000p-3}
}
, {{-0x1.ea1a400000000p-4, -0x1.69645e0000000p-3, -0x1.a409f00000000p-4, -0x1.1b04f00000000p-3, 0x1.9df6140000000p-5, 0x1.db57320000000p-5, -0x1.4dab120000000p-5, -0x1.8ac5360000000p-3, 0x1.d799460000000p-8, -0x1.544b380000000p-4, 0x1.300eda0000000p-5, 0x1.b037a00000000p-7, 0x1.b84f3e0000000p-5, 0x1.785a840000000p-5, 0x1.5cc40e0000000p-3, 0x1.4e3c720000000p-3}
, {-0x1.50f0dc0000000p-3, -0x1.75bd2c0000000p-2, -0x1.1c80540000000p-9, -0x1.63031e0000000p-3, -0x1.ac2be40000000p-4, 0x1.0eff0e0000000p-4, -0x1.4e084e0000000p-4, 0x1.694da80000000p-3, -0x1.cfc4360000000p-4, 0x1.8bc53c0000000p-3, 0x1.005e080000000p-6, -0x1.e30ab60000000p-5, -0x1.c0c66e0000000p-3, -0x1.a43e820000000p-4, -0x1.10ac2a0000000p-4, -0x1.9eb1ee0000000p-3}
, {-0x1.13af180000000p-3, -0x1.c81e0e0000000p-2, -0x1.5d83aa0000000p-3, 0x1.5236e20000000p-8, 0x1.128e580000000p-6, 0x1.a68efe0000000p-5, -0x1.0f96d20000000p-6, -0x1.732c2c0000000p-3, -0x1.c4339c0000000p-4, -0x1.f8e4080000000p-4, -0x1.0447200000000p-4, -0x1.74627e0000000p-3, -0x1.3c31c80000000p-4, -0x1.864b860000000p-4, 0x1.2f35dc0000000p-3, 0x1.4ab6e00000000p-3}
}
, {{0x1.ac0ed60000000p-5, -0x1.96442a0000000p-3, -0x1.1cf4160000000p-3, -0x1.22c73e0000000p-3, -0x1.b652320000000p-3, -0x1.f6e8e00000000p-4, -0x1.f4f3280000000p-3, -0x1.391d060000000p-3, 0x1.75c1bc0000000p-4, -0x1.3d21220000000p-6, 0x1.c2d03a0000000p-4, -0x1.3fda600000000p-3, -0x1.1ae1d60000000p-4, -0x1.68ba680000000p-3, 0x1.bfd80e0000000p-3, -0x1.51fa5e0000000p-5}
, {-0x1.3b224c0000000p-4, 0x1.3f82300000000p-6, 0x1.e7c3c80000000p-5, 0x1.868dc40000000p-3, 0x1.bb7ef20000000p-5, -0x1.7bf1200000000p-6, -0x1.7c628e0000000p-3, -0x1.4058800000000p-5, 0x1.3885860000000p-5, -0x1.0e36b60000000p-3, -0x1.9774880000000p-4, 0x1.75385e0000000p-3, -0x1.1e46e40000000p-2, 0x1.18b68e0000000p-5, -0x1.0f74300000000p-5, 0x1.abee440000000p-6}
, {-0x1.017b8e0000000p-5, -0x1.1cbf6c0000000p-4, -0x1.515f300000000p-3, -0x1.83b1880000000p-4, -0x1.1966be0000000p-6, -0x1.5585ac0000000p-3, -0x1.ec20080000000p-4, -0x1.850f4c0000000p-3, 0x1.59ecb00000000p-5, 0x1.7924dc0000000p-3, 0x1.7725220000000p-4, -0x1.86a3620000000p-4, 0x1.1845f20000000p-5, -0x1.975a4a0000000p-3, 0x1.efc2b60000000p-3, -0x1.168ae20000000p-3}
}
, {{-0x1.808a5c0000000p-5, -0x1.3eaa6a0000000p-4, -0x1.86af180000000p-3, -0x1.09f47a0000000p-3, 0x1.4a071e0000000p-7, 0x1.05241a0000000p-3, 0x1.3220fe0000000p-3, -0x1.ad431c0000000p-6, -0x1.217a9e0000000p-3, 0x1.b73bb40000000p-4, -0x1.1b67140000000p-3, 0x1.d4366c0000000p-6, -0x1.4c3d980000000p-3, -0x1.d6908c0000000p-5, 0x1.15ed760000000p-3, -0x1.ec44b80000000p-4}
, {0x1.dfa4380000000p-4, -0x1.275f500000000p-3, -0x1.1c3ece0000000p-2, 0x1.3708fa0000000p-3, -0x1.a47e140000000p-3, -0x1.9e11ae0000000p-5, 0x1.1eb5540000000p-3, -0x1.9665160000000p-3, 0x1.8ef6220000000p-4, 0x1.3fd96a0000000p-4, 0x1.47ab0a0000000p-4, 0x1.d2ec740000000p-4, -0x1.e3dce40000000p-3, -0x1.d4bd820000000p-7, -0x1.f890040000000p-4, 0x1.1e0d480000000p-3}
, {-0x1.45d0d60000000p-5, -0x1.ad5fcc0000000p-3, -0x1.b1d19a0000000p-5, -0x1.44d1440000000p-3, 0x1.c497700000000p-4, 0x1.5f34a40000000p-5, 0x1.88ccde0000000p-4, -0x1.14a00a0000000p-7, 0x1.d38a760000000p-5, -0x1.bd80b00000000p-4, 0x1.656a520000000p-7, 0x1.0026880000000p-3, -0x1.d250360000000p-3, 0x1.21314c0000000p-5, 0x1.d49efa0000000p-5, -0x1.6cae140000000p-5}
}
, {{0x1.99c5ae0000000p-2, 0x1.bb3fba0000000p-4, 0x1.a378120000000p-2, -0x1.42cc140000000p-3, -0x1.6589000000000p-3, 0x1.6290a40000000p-3, 0x1.1da44c0000000p-8, -0x1.80f0fe0000000p-8, 0x1.91c4dc0000000p-3, 0x1.2c280c0000000p-9, 0x1.9f7bc60000000p-5, -0x1.2a858c0000000p-3, 0x1.b233e80000000p-2, -0x1.9e31940000000p-3, 0x1.ff0e840000000p-4, 0x1.a2ea300000000p-6}
, {-0x1.bc06c00000000p-2, -0x1.b1c0020000000p-3, 0x1.b9a4900000000p-2, 0x1.bc1d660000000p-7, -0x1.aecb960000000p-3, 0x1.57aa060000000p-2, 0x1.05a74a0000000p-4, 0x1.691f680000000p-3, 0x1.0bcdfc0000000p-3, 0x1.7a48000000000p-3, -0x1.f212f20000000p-6, -0x1.7d5b200000000p-3, 0x1.534a660000000p-2, -0x1.13604c0000000p-2, -0x1.3b095c0000000p-4, 0x1.49a8620000000p-3}
, {-0x1.230b480000000p-1, -0x1.569e2e0000000p-5, 0x1.55f2100000000p-2, -0x1.09a4a60000000p-3, 0x1.dc49b60000000p-5, 0x1.2e33660000000p-2, 0x1.87063a0000000p-4, 0x1.10bda40000000p-3, -0x1.f902a20000000p-5, 0x1.53f6e40000000p-3, -0x1.5338ea0000000p-3, 0x1.07178c0000000p-7, 0x1.4214020000000p-2, -0x1.adc8e20000000p-3, -0x1.7226c80000000p-4, 0x1.398c6c0000000p-4}
}
, {{-0x1.14c6c80000000p-5, -0x1.fd485e0000000p-3, -0x1.3a26f60000000p-3, -0x1.61e1180000000p-3, -0x1.5e43260000000p-3, 0x1.eb3d4a0000000p-4, -0x1.05db220000000p-2, 0x1.bbc9f60000000p-4, 0x1.ff7f920000000p-4, 0x1.c8daf80000000p-4, 0x1.a3856a0000000p-4, -0x1.35b69e0000000p-6, 0x1.b5a6c80000000p-6, -0x1.4f0f880000000p-4, 0x1.1cabce0000000p-3, 0x1.0e34820000000p-9}
, {-0x1.b4fac20000000p-4, -0x1.5b49c40000000p-3, -0x1.d2255e0000000p-3, 0x1.23a5340000000p-3, 0x1.3cc1940000000p-4, -0x1.23cca60000000p-3, -0x1.2926660000000p-3, -0x1.2ccd580000000p-3, -0x1.792ac00000000p-4, -0x1.264eae0000000p-3, -0x1.39280a0000000p-6, -0x1.3552c40000000p-12, -0x1.7f181c0000000p-4, -0x1.832d460000000p-4, -0x1.79121c0000000p-3, -0x1.024cae0000000p-4}
, {-0x1.4e6d8e0000000p-5, -0x1.4eb0020000000p-5, -0x1.03b5de0000000p-7, 0x1.2d887c0000000p-4, -0x1.5973640000000p-4, -0x1.db2e640000000p-6, 0x1.c899bc0000000p-4, -0x1.8bbd560000000p-7, 0x1.199ca40000000p-4, -0x1.e0546c0000000p-5, -0x1.d09bc60000000p-3, -0x1.f78a360000000p-4, -0x1.49a1100000000p-2, 0x1.3f2f640000000p-3, 0x1.1aae9c0000000p-4, 0x1.ed76100000000p-7}
}
}
;

#undef INPUT_CHANNELS
#undef CONV_FILTERS
#undef CONV_KERNEL_SIZE
#undef CONV_GROUPS