/**
  ******************************************************************************
  * @file    weights/conv1d.cc
  * @author  Pierre-Emmanuel Novac <penovac@unice.fr>, LEAT, CNRS, Université Côte d'Azur, France
  * @version 1.0.0
  * @date    24 march 2020
  * @brief   Template generating plain C code for the implementation of Convolutional Neural Networks on MCU
  */

#include <stdint.h>

#define INPUT_CHANNELS    8
#define CONV_FILTERS      16
#define CONV_KERNEL_SIZE  2
#define CONV_GROUPS       1


const float  conv1d_13_bias[CONV_FILTERS] = {0x1.86da280000000p-5, -0x1.42d0640000000p-3, -0x1.7bb6b40000000p-4, -0x1.cc9da20000000p-4, -0x1.d1fdcc0000000p-7, -0x1.ec03ce0000000p-6, 0x1.1465a00000000p-4, 0x1.e2da980000000p-6, -0x1.08a68e0000000p-5, -0x1.0d4ce80000000p-4, -0x1.6b0bc20000000p-4, -0x1.19d7500000000p-4, -0x1.c62ce00000000p-4, -0x1.62f3ba0000000p-3, -0x1.653ba20000000p-7, -0x1.2e0e540000000p-5}
;

const float  conv1d_13_kernel[CONV_FILTERS][CONV_KERNEL_SIZE][INPUT_CHANNELS / CONV_GROUPS] = {{{-0x1.a4f80c0000000p-2, -0x1.5190e80000000p+0, 0x1.9a9c0c0000000p-2, -0x1.cabde20000000p-2, 0x1.3661b80000000p-1, -0x1.0e0e340000000p+0, 0x1.192b5c0000000p-2, -0x1.1607420000000p-3}
, {0x1.0989fa0000000p-4, 0x1.0161380000000p-1, -0x1.7496160000000p-1, 0x1.df94140000000p-4, 0x1.097fa80000000p-2, -0x1.9d0bca0000000p-5, 0x1.f359320000000p-4, -0x1.cd331a0000000p-5}
}
, {{-0x1.b677f80000000p-5, -0x1.e363dc0000000p-2, -0x1.d6aac20000000p-2, 0x1.94230e0000000p-2, 0x1.66150a0000000p-3, -0x1.1744d20000000p-2, 0x1.83a5f60000000p-3, 0x1.37810e0000000p-6}
, {0x1.1e1a280000000p-3, -0x1.d005ee0000000p-2, 0x1.3d90100000000p-2, -0x1.6155d80000000p-2, 0x1.4e60220000000p-3, -0x1.0a78900000000p-1, 0x1.f14e680000000p-2, 0x1.34efb80000000p-2}
}
, {{-0x1.30a5c60000000p-3, 0x1.2b975c0000000p-2, -0x1.3ee6fa0000000p-3, -0x1.4dc0a80000000p-2, 0x1.703c580000000p-3, 0x1.0cab960000000p-3, -0x1.aea1d00000000p-4, 0x1.8825560000000p-3}
, {-0x1.1c1e2c0000000p-3, 0x1.15d2320000000p-2, -0x1.5e61b20000000p-2, -0x1.5ad5880000000p-2, 0x1.5f5dce0000000p-3, -0x1.4c083c0000000p-4, -0x1.a3f9520000000p-7, 0x1.85d4d60000000p-4}
}
, {{0x1.b3f2160000000p-1, -0x1.012a420000000p-1, -0x1.1df6220000000p-5, 0x1.1f300e0000000p-3, 0x1.4ff94c0000000p-1, 0x1.87070c0000000p-5, 0x1.5358ce0000000p-1, 0x1.99766a0000000p-4}
, {0x1.e6d6b60000000p-1, -0x1.4910360000000p-1, 0x1.ee26960000000p-4, 0x1.02c6e80000000p-6, 0x1.b139a20000000p+0, 0x1.1ffe7a0000000p-4, 0x1.4b846e0000000p+0, 0x1.490ad40000000p-7}
}
, {{0x1.40cf7a0000000p-1, 0x1.16542c0000000p-1, -0x1.7868e20000000p-1, 0x1.72e57a0000000p-3, 0x1.3222d00000000p-1, 0x1.61efa00000000p-1, 0x1.6194940000000p-2, -0x1.9058d00000000p-3}
, {0x1.097ce00000000p-1, 0x1.fe440a0000000p-1, 0x1.680ff80000000p-1, 0x1.7069780000000p-3, 0x1.b5d9ec0000000p-3, 0x1.07521c0000000p-1, -0x1.3dc73a0000000p-1, -0x1.44e78c0000000p-4}
}
, {{-0x1.2a20d40000000p-2, 0x1.ee793a0000000p-1, -0x1.c83dfa0000000p-2, -0x1.e411ce0000000p-4, -0x1.1cb7da0000000p-1, 0x1.7dd19e0000000p-3, 0x1.05b0d60000000p-2, 0x1.d7fffe0000000p-3}
, {0x1.7e2c9c0000000p-6, 0x1.0e6ca80000000p-1, 0x1.9bcece0000000p-1, 0x1.2acf400000000p-3, -0x1.eabea20000000p-3, 0x1.8b687a0000000p-3, -0x1.21775e0000000p-1, -0x1.f797e20000000p-3}
}
, {{-0x1.b8f52e0000000p-1, -0x1.7aba6a0000000p-1, -0x1.84f0240000000p-2, -0x1.a0d9ce0000000p-2, -0x1.f2ef2c0000000p-3, -0x1.ffb51a0000000p-1, -0x1.4705480000000p-1, -0x1.320f560000000p-3}
, {-0x1.5a97360000000p-1, 0x1.7750600000000p-2, -0x1.34a3c00000000p-1, 0x1.f63b160000000p-1, -0x1.39005a0000000p+0, 0x1.f2c4fe0000000p-2, 0x1.391d920000000p-4, 0x1.1367a20000000p-3}
}
, {{-0x1.3b20840000000p-3, -0x1.8647720000000p-2, -0x1.b9eec00000000p-1, 0x1.ab83e20000000p-1, -0x1.c70f680000000p-2, -0x1.48a9160000000p-2, -0x1.9a303e0000000p-1, 0x1.d7a92e0000000p-3}
, {-0x1.2189e00000000p-1, 0x1.83bfa40000000p-3, -0x1.acbee20000000p-1, 0x1.2db3d80000000p+0, -0x1.1cda380000000p-1, 0x1.9649a20000000p-2, -0x1.94d05e0000000p-2, -0x1.2e3d580000000p-2}
}
, {{0x1.f14c0c0000000p-3, 0x1.c795e60000000p-1, 0x1.3bd0780000000p-1, 0x1.43d6b40000000p-1, 0x1.d881e00000000p-4, 0x1.6561620000000p-1, -0x1.4927b60000000p-3, 0x1.433c060000000p-5}
, {-0x1.a94dce0000000p-2, -0x1.e6df9c0000000p-1, 0x1.10a0ca0000000p-1, -0x1.f42b700000000p-2, -0x1.a7ef0a0000000p-4, -0x1.980fc20000000p-1, -0x1.6832b60000000p-2, 0x1.dd557c0000000p-3}
}
, {{-0x1.6404660000000p-4, -0x1.c0f5060000000p-2, 0x1.8ab0540000000p-4, -0x1.bed0700000000p-3, -0x1.e4ac900000000p-3, 0x1.29e63a0000000p-3, 0x1.040cd60000000p-5, 0x1.b0bed80000000p-3}
, {0x1.863ee20000000p-3, 0x1.bf95400000000p-3, -0x1.1eaf940000000p-2, -0x1.b5ad860000000p-6, 0x1.1cc4ac0000000p-6, -0x1.1a1a560000000p-2, -0x1.473dfe0000000p-2, -0x1.5698240000000p-4}
}
, {{0x1.1d50ee0000000p+0, -0x1.12a9f40000000p-2, -0x1.8d599a0000000p-5, 0x1.8760ce0000000p-3, 0x1.78b82a0000000p+0, 0x1.5e33940000000p-2, 0x1.f79f340000000p-3, 0x1.77c6fc0000000p-3}
, {0x1.b504920000000p+0, 0x1.76a2da0000000p-6, 0x1.3f19920000000p-2, 0x1.7c65280000000p-6, 0x1.b71c740000000p+0, 0x1.a466dc0000000p-4, 0x1.62fb8e0000000p+0, -0x1.e0fea80000000p-4}
}
, {{-0x1.482ee00000000p-2, -0x1.d0f2140000000p-3, -0x1.e4b2a80000000p-3, -0x1.676ae80000000p-5, 0x1.c3b7680000000p-3, 0x1.099d680000000p-3, -0x1.d311140000000p-3, -0x1.aba8aa0000000p-3}
, {-0x1.26e2620000000p-3, -0x1.4df5ae0000000p-6, 0x1.7c8d220000000p-3, -0x1.35d5280000000p-2, -0x1.0768120000000p-9, -0x1.a917020000000p-4, -0x1.b878b80000000p-3, 0x1.46ef4a0000000p-5}
}
, {{-0x1.58cbd80000000p-2, 0x1.57d7300000000p-4, 0x1.dafbb00000000p-4, -0x1.1427be0000000p-2, 0x1.2fdd740000000p-3, -0x1.78996c0000000p-2, -0x1.3f171e0000000p-3, -0x1.d982b20000000p-4}
, {-0x1.100e980000000p-2, -0x1.5d38060000000p-3, 0x1.03a5080000000p-2, -0x1.d708c00000000p-3, 0x1.1b80e40000000p-2, 0x1.3f317a0000000p-2, -0x1.3512a20000000p-5, 0x1.fe721c0000000p-3}
}
, {{0x1.5b66440000000p-2, -0x1.9011440000000p-6, 0x1.3e9da40000000p-2, -0x1.7fe5480000000p-3, -0x1.f8f3b80000000p-2, -0x1.31b5e40000000p-8, 0x1.3581e60000000p-1, -0x1.487c7c0000000p-2}
, {-0x1.a599e20000000p-2, -0x1.1329280000000p-4, 0x1.2789000000000p-2, -0x1.6ba6da0000000p-2, -0x1.44a1720000000p-4, -0x1.2e1e720000000p-2, 0x1.c1edb40000000p-2, -0x1.663a340000000p-7}
}
, {{0x1.df541e0000000p-3, 0x1.36f0380000000p-1, -0x1.b85fca0000000p-1, 0x1.2fa72a0000000p-2, 0x1.1056540000000p-5, 0x1.6993500000000p-2, 0x1.01df760000000p-1, 0x1.08a09e0000000p-2}
, {0x1.2b74ea0000000p-2, 0x1.5101080000000p-1, 0x1.47c1220000000p-1, 0x1.3db0d80000000p-3, 0x1.c5346e0000000p-2, 0x1.45cc9c0000000p-1, -0x1.3b142e0000000p-2, -0x1.f4d8660000000p-4}
}
, {{0x1.8f689a0000000p-3, 0x1.3d184a0000000p-1, -0x1.e5f0820000000p-1, 0x1.e246e80000000p-2, 0x1.2aa1980000000p-2, 0x1.4cca6c0000000p-3, 0x1.080be00000000p-2, 0x1.21b9f60000000p-2}
, {0x1.4d12f00000000p-1, 0x1.d00c1a0000000p-1, 0x1.b649440000000p-1, 0x1.f41c5c0000000p-1, 0x1.5f8bf80000000p-2, 0x1.f59ddc0000000p-1, -0x1.45f2d60000000p-2, 0x1.dd0b7a0000000p-4}
}
}
;

#undef INPUT_CHANNELS
#undef CONV_FILTERS
#undef CONV_KERNEL_SIZE
#undef CONV_GROUPS