/**
  ******************************************************************************
  * @file    weights/conv1d.cc
  * @author  Pierre-Emmanuel Novac <penovac@unice.fr>, LEAT, CNRS, Université Côte d'Azur, France
  * @version 1.0.0
  * @date    24 march 2020
  * @brief   Template generating plain C code for the implementation of Convolutional Neural Networks on MCU
  */

#include <stdint.h>

#define INPUT_CHANNELS    16
#define CONV_FILTERS      32
#define CONV_KERNEL_SIZE  2
#define CONV_GROUPS       1


const float  conv1d_49_bias[CONV_FILTERS] = {0x1.6897ec0000000p-4, -0x1.da4ec00000000p-2, -0x1.c6624c0000000p-6, -0x1.ff905a0000000p-5, -0x1.587b680000000p-5, 0x1.d11b860000000p-7, -0x1.8d01620000000p-6, -0x1.faa35a0000000p-7, -0x1.f3f42c0000000p-5, -0x1.ebcacc0000000p-5, -0x1.ea1eba0000000p-5, -0x1.fe767c0000000p-4, 0x1.466ef40000000p-11, 0x1.d27bfe0000000p-7, -0x1.ecc5420000000p-5, -0x1.cec2cc0000000p-5, -0x1.7a7c780000000p-3, -0x1.49f99c0000000p-7, -0x1.f984a60000000p-3, -0x1.f785040000000p-5, -0x1.f373460000000p-6, 0x1.4316f00000000p-5, 0x1.44eff00000000p-6, -0x1.04aaf20000000p-5, -0x1.d95a880000000p-4, -0x1.eafe4a0000000p-5, -0x1.300c3e0000000p-4, 0x1.0051960000000p-8, 0x1.3944c40000000p-7, -0x1.2a809a0000000p-3, -0x1.c772f00000000p-6, -0x1.bfa3580000000p-3}
;

const float  conv1d_49_kernel[CONV_FILTERS][CONV_KERNEL_SIZE][INPUT_CHANNELS / CONV_GROUPS] = {{{-0x1.29ef1a0000000p-4, 0x1.2f6f1c0000000p-4, -0x1.a337460000000p-1, -0x1.03ae080000000p+0, 0x1.098c4e0000000p-2, 0x1.83247e0000000p-3, -0x1.2b22a40000000p+0, -0x1.8478040000000p-1, -0x1.4aba980000000p-5, 0x1.81ec4c0000000p-1, 0x1.007f580000000p+0, 0x1.528da40000000p-4, -0x1.aec0860000000p-2, -0x1.b4858c0000000p-1, -0x1.69ed4c0000000p-6, -0x1.3aa9e00000000p+0}
, {0x1.182f440000000p-2, 0x1.0e02ae0000000p-6, -0x1.4c1b980000000p-1, -0x1.53be240000000p-1, -0x1.4203620000000p-4, 0x1.3d97600000000p-3, -0x1.2a077a0000000p-1, -0x1.1b27780000000p+0, -0x1.18ce140000000p-3, 0x1.2612660000000p-1, 0x1.c06c140000000p-1, 0x1.42e6f20000000p-4, -0x1.86456a0000000p-2, -0x1.9b176c0000000p-1, -0x1.5bfb440000000p-5, -0x1.b054360000000p-1}
}
, {{-0x1.bc7f540000000p-6, -0x1.2b10c20000000p-3, 0x1.8357200000000p-4, 0x1.2a45080000000p-3, -0x1.d1451a0000000p-3, 0x1.e13fa40000000p-5, 0x1.4ce4fc0000000p-2, -0x1.3e2a300000000p+0, 0x1.8e3cea0000000p-4, -0x1.d108f80000000p+0, 0x1.876e540000000p-1, 0x1.0151aa0000000p-3, 0x1.94e57a0000000p-3, 0x1.a471b00000000p-3, 0x1.353ebc0000000p-4, 0x1.716e1a0000000p-2}
, {-0x1.9ead820000000p-3, -0x1.0178da0000000p-3, 0x1.044f3a0000000p-1, 0x1.da5bec0000000p-2, 0x1.f4bec40000000p-5, -0x1.8407980000000p-3, 0x1.bd77560000000p-2, -0x1.354e6a0000000p-1, 0x1.9cc3160000000p-3, -0x1.fe7ab60000000p-1, 0x1.0ae0480000000p-2, -0x1.ab9b0c0000000p-4, 0x1.be70cc0000000p-2, 0x1.ae54820000000p-2, -0x1.3357660000000p-3, 0x1.e6b0540000000p-4}
}
, {{0x1.f740f00000000p-3, -0x1.792cf40000000p-6, -0x1.04af9c0000000p-2, 0x1.91a5f00000000p-5, -0x1.c2ead20000000p-5, 0x1.9da7140000000p-8, -0x1.634fde0000000p-3, 0x1.b2db680000000p-4, -0x1.aaa5300000000p-3, -0x1.1b699e0000000p-2, -0x1.f699de0000000p-4, -0x1.859fb60000000p-3, -0x1.a14d440000000p-3, -0x1.544c660000000p-4, 0x1.456ea60000000p-3, 0x1.58e2600000000p-4}
, {0x1.d4d6700000000p-3, -0x1.67b88c0000000p-3, 0x1.3247fa0000000p-3, -0x1.3ff1060000000p-9, 0x1.f50d380000000p-4, 0x1.526b580000000p-3, 0x1.af3af40000000p-5, -0x1.8f6f080000000p-4, 0x1.de57a00000000p-5, -0x1.a930540000000p-3, 0x1.d041d00000000p-7, 0x1.d91c920000000p-3, -0x1.7ba7420000000p-4, -0x1.ef28e00000000p-3, -0x1.456c7a0000000p-5, -0x1.e9a77a0000000p-6}
}
, {{-0x1.b2ae6e0000000p-4, -0x1.82090e0000000p-3, -0x1.b36e000000000p-7, -0x1.ebf5680000000p-3, -0x1.33ed220000000p-4, 0x1.7766560000000p-5, 0x1.e965440000000p-5, -0x1.ce410c0000000p-5, 0x1.cf1c440000000p-4, 0x1.3e0bc00000000p-6, -0x1.82a2280000000p-4, -0x1.ff85320000000p-4, 0x1.a380b80000000p-4, 0x1.3dbfd60000000p-5, 0x1.8596fe0000000p-4, 0x1.8afc580000000p-4}
, {0x1.b4c1400000000p-3, 0x1.c9cec20000000p-4, -0x1.3accee0000000p-2, -0x1.33cd7e0000000p-8, 0x1.4a42e00000000p-5, -0x1.a0d03a0000000p-3, -0x1.3133f00000000p-5, 0x1.47cca60000000p-4, 0x1.c3b7020000000p-5, -0x1.796b1a0000000p-3, 0x1.fd5d3c0000000p-3, -0x1.af47f40000000p-3, -0x1.eee9720000000p-4, -0x1.fea2b40000000p-3, -0x1.099aa20000000p-5, -0x1.16e0940000000p-3}
}
, {{-0x1.138a980000000p-4, 0x1.ed91600000000p-5, -0x1.0574ec0000000p-2, -0x1.a85fba0000000p-5, -0x1.0336220000000p-3, 0x1.4119c80000000p-7, 0x1.8786500000000p-5, -0x1.96ab1c0000000p-3, 0x1.7dae9a0000000p-3, -0x1.efc3120000000p-5, -0x1.a8848e0000000p-3, 0x1.8648000000000p-4, -0x1.cdfd740000000p-3, -0x1.d1cab00000000p-3, 0x1.be0b080000000p-4, 0x1.2d03560000000p-4}
, {0x1.4a33cc0000000p-5, 0x1.a9aec00000000p-3, -0x1.5b16da0000000p-3, 0x1.3e44280000000p-3, 0x1.511f920000000p-6, 0x1.d7120e0000000p-5, -0x1.0546e60000000p-2, -0x1.b2f52e0000000p-4, 0x1.5369700000000p-4, -0x1.a9caa60000000p-3, -0x1.2976760000000p-3, -0x1.9630880000000p-3, -0x1.43eec80000000p-4, 0x1.444b700000000p-3, 0x1.ac8dfa0000000p-3, -0x1.6abaac0000000p-3}
}
, {{0x1.74f9820000000p-5, 0x1.72bf140000000p-3, 0x1.f25f420000000p-2, 0x1.c7b2900000000p-2, -0x1.535f860000000p-3, 0x1.4cd4be0000000p-4, 0x1.2f30ca0000000p-1, -0x1.fe88600000000p-6, 0x1.05a00a0000000p-2, -0x1.7627260000000p-2, -0x1.8e947e0000000p-2, -0x1.602a1e0000000p-7, 0x1.3f993a0000000p-3, 0x1.908efc0000000p-5, -0x1.644f820000000p-3, 0x1.49ff240000000p-3}
, {0x1.066ee80000000p-2, 0x1.34e8f40000000p-3, 0x1.5fa89a0000000p-2, 0x1.26e51a0000000p-2, -0x1.23a24a0000000p-2, 0x1.e5d7e00000000p-4, 0x1.df41ca0000000p-5, -0x1.7067d60000000p-4, -0x1.29b5aa0000000p-3, 0x1.cb0f0e0000000p-6, 0x1.934d6e0000000p-2, 0x1.14afe60000000p-3, -0x1.b931720000000p-4, 0x1.7995680000000p-3, -0x1.71ce5e0000000p-10, 0x1.155c800000000p-1}
}
, {{-0x1.1db7600000000p-8, -0x1.72f9d60000000p-3, 0x1.a4d8540000000p-4, -0x1.e32a380000000p-3, 0x1.58279e0000000p-2, -0x1.1e7d060000000p-3, -0x1.22f4da0000000p-3, 0x1.c6c9d40000000p-4, 0x1.5d46440000000p-6, 0x1.f14cf60000000p-4, 0x1.8eead40000000p-1, -0x1.7628480000000p-4, -0x1.78ded60000000p-2, 0x1.0525560000000p-3, 0x1.7966440000000p-4, 0x1.209ec60000000p-5}
, {-0x1.3463440000000p-3, 0x1.199ade0000000p-2, 0x1.462cee0000000p-1, 0x1.f9836e0000000p-3, 0x1.8a51da0000000p-5, -0x1.73ac120000000p-3, 0x1.34f3a60000000p-1, -0x1.3730b20000000p-3, -0x1.338bdc0000000p-6, -0x1.04ae120000000p-1, 0x1.e008c00000000p-2, 0x1.2d7a500000000p-3, 0x1.10162c0000000p-1, 0x1.48727e0000000p-1, 0x1.eda0ca0000000p-3, 0x1.0d0c7c0000000p-1}
}
, {{-0x1.d5b8c00000000p-4, -0x1.b74c8e0000000p-3, -0x1.1e73e40000000p-2, -0x1.d08aa80000000p-2, 0x1.cb292e0000000p-3, 0x1.99faca0000000p-4, -0x1.7027420000000p-1, 0x1.d89a260000000p-2, -0x1.a3fbec0000000p-4, 0x1.66787a0000000p-1, 0x1.44e1820000000p-9, -0x1.3dc4560000000p-5, -0x1.b5b3220000000p-2, -0x1.c32aba0000000p-1, 0x1.6423e00000000p-4, -0x1.0f683e0000000p-1}
, {-0x1.d183ea0000000p-3, 0x1.c872c80000000p-5, -0x1.c1e48e0000000p-1, -0x1.1b56d00000000p+0, 0x1.7727600000000p-5, -0x1.c0326c0000000p-8, -0x1.9897a40000000p-1, -0x1.406aec0000000p-3, 0x1.de637c0000000p-4, 0x1.d0b9da0000000p-1, -0x1.e790e60000000p-4, -0x1.b7f7d80000000p-4, -0x1.c53f420000000p-1, -0x1.29fa3c0000000p+0, -0x1.83af680000000p-3, -0x1.9ff1be0000000p-1}
}
, {{0x1.5acbcc0000000p-4, 0x1.12079e0000000p-10, -0x1.c0546e0000000p-3, -0x1.07d0fc0000000p-3, 0x1.8275380000000p-4, -0x1.01519a0000000p-2, 0x1.37035e0000000p-3, 0x1.91cbb60000000p-4, 0x1.d9e1140000000p-5, -0x1.698b060000000p-3, 0x1.eda03e0000000p-4, -0x1.48d4a00000000p-5, 0x1.0567c80000000p-3, -0x1.7e60c20000000p-3, -0x1.5b5a3a0000000p-6, -0x1.7527e80000000p-3}
, {-0x1.0a33a80000000p-3, -0x1.f0b0ea0000000p-3, 0x1.2285b80000000p-5, 0x1.1fb6640000000p-3, -0x1.4ec2960000000p-12, -0x1.c9cae40000000p-3, 0x1.1a15580000000p-3, -0x1.49ac9e0000000p-3, -0x1.0ac2860000000p-5, -0x1.6157600000000p-4, 0x1.2e3efe0000000p-6, -0x1.eaa65c0000000p-3, 0x1.1a87ee0000000p-4, -0x1.f5ca2a0000000p-3, -0x1.72aefe0000000p-4, -0x1.7678120000000p-4}
}
, {{-0x1.44874c0000000p-3, 0x1.cdd6e00000000p-6, -0x1.accfbe0000000p-3, 0x1.52623e0000000p-3, 0x1.96237a0000000p-3, -0x1.ae45480000000p-6, -0x1.856c9a0000000p-3, -0x1.6ce3d00000000p-3, 0x1.89fb4c0000000p-3, -0x1.1352a40000000p-3, -0x1.88ac8c0000000p-3, -0x1.a8d7260000000p-6, -0x1.bc48ac0000000p-3, 0x1.0e07100000000p-7, -0x1.196f1c0000000p-3, -0x1.8e186c0000000p-5}
, {0x1.8fc2600000000p-8, 0x1.19bbce0000000p-4, -0x1.8af80c0000000p-6, -0x1.6af7940000000p-5, -0x1.b639840000000p-5, 0x1.0d4dae0000000p-5, 0x1.e2cca20000000p-4, 0x1.cd4b040000000p-3, -0x1.7ba7e80000000p-3, -0x1.376dd00000000p-3, -0x1.adb62a0000000p-3, 0x1.58ee360000000p-6, -0x1.887b140000000p-4, 0x1.fa93420000000p-5, 0x1.75c3a60000000p-7, -0x1.2af6780000000p-2}
}
, {{0x1.1cbc020000000p-3, 0x1.a4d3c00000000p-3, -0x1.b818640000000p-3, -0x1.b217c80000000p-5, -0x1.83840a0000000p-3, 0x1.54589e0000000p-5, -0x1.c5c6140000000p-3, -0x1.df0b340000000p-6, 0x1.97189c0000000p-3, -0x1.b7fcfe0000000p-3, 0x1.9096260000000p-6, -0x1.9e8e060000000p-7, -0x1.2456420000000p-3, -0x1.3521f40000000p-3, -0x1.e7ddec0000000p-3, -0x1.f701da0000000p-6}
, {0x1.9d6f840000000p-4, 0x1.88bed20000000p-4, -0x1.07f4440000000p-4, -0x1.453a600000000p-3, 0x1.764bce0000000p-3, 0x1.85008c0000000p-3, -0x1.2041560000000p-3, -0x1.a0eeea0000000p-4, -0x1.c7a8a00000000p-4, -0x1.d586560000000p-4, -0x1.a4ed2a0000000p-3, -0x1.ef59520000000p-3, 0x1.1051a20000000p-6, 0x1.1d7cee0000000p-5, -0x1.256d720000000p-4, -0x1.31d8240000000p-5}
}
, {{-0x1.451fda0000000p-3, -0x1.e06e3e0000000p-6, -0x1.8ed7760000000p-3, -0x1.5156680000000p-2, 0x1.04cabe0000000p-2, 0x1.44ec060000000p-3, -0x1.3573860000000p-2, -0x1.be845e0000000p-3, 0x1.1009320000000p-3, -0x1.01cfd40000000p-3, 0x1.02ef940000000p+1, 0x1.193bac0000000p-3, -0x1.7806740000000p-4, -0x1.ddccea0000000p-2, 0x1.96faf40000000p-3, -0x1.6968480000000p-2}
, {0x1.96cde00000000p-3, 0x1.6f8da00000000p-4, -0x1.0ffc380000000p-3, 0x1.f6a00a0000000p-7, 0x1.c260180000000p-4, 0x1.a022120000000p-5, 0x1.37e77e0000000p-4, -0x1.6b27c80000000p-3, 0x1.77dab20000000p-4, 0x1.3e64680000000p-6, 0x1.2ee5ba0000000p+1, -0x1.48aa400000000p-6, -0x1.3d7dd80000000p-3, 0x1.13abd80000000p-3, 0x1.4fcbee0000000p-3, 0x1.6536b20000000p-4}
}
, {{0x1.ca189e0000000p-6, 0x1.62c84a0000000p-3, 0x1.f0ea240000000p-3, 0x1.1ee7f40000000p-1, 0x1.2b97880000000p-2, 0x1.f554ca0000000p-4, 0x1.3c66380000000p-1, -0x1.3956140000000p-3, -0x1.95e7fa0000000p-6, -0x1.9a0ee80000000p-3, -0x1.3a2dc40000000p-3, 0x1.0c67000000000p-3, 0x1.c2ebee0000000p-4, 0x1.bf4fb60000000p-2, -0x1.8993040000000p-6, 0x1.f2bd460000000p-2}
, {0x1.7b83060000000p-4, -0x1.b500c40000000p-8, 0x1.23adaa0000000p-2, 0x1.19520c0000000p-1, 0x1.ab75520000000p-3, -0x1.7ec8280000000p-6, 0x1.5202820000000p-2, 0x1.0800300000000p-5, -0x1.629b960000000p-3, -0x1.3e76060000000p-4, -0x1.c9b9d20000000p-4, -0x1.7ab5e40000000p-3, 0x1.c155420000000p-3, 0x1.16afa00000000p-1, 0x1.c73dfe0000000p-5, 0x1.1ebb840000000p-1}
}
, {{0x1.fc81780000000p-3, 0x1.892d980000000p-3, 0x1.71bf5a0000000p-1, 0x1.272c3c0000000p-1, 0x1.3c7ff40000000p-2, 0x1.846d5e0000000p-3, 0x1.1172140000000p-1, 0x1.c126640000000p-11, -0x1.585fe20000000p-4, -0x1.3b442c0000000p-3, -0x1.4268820000000p-1, -0x1.08308a0000000p-3, 0x1.7a676c0000000p-2, 0x1.3b5fb00000000p-1, 0x1.c131e80000000p-3, 0x1.4b42700000000p-2}
, {0x1.928ce00000000p-5, -0x1.a847620000000p-4, 0x1.7355900000000p-3, 0x1.048b160000000p-1, 0x1.0146520000000p-3, 0x1.2b33ec0000000p-3, 0x1.3e29800000000p-1, 0x1.2d66e00000000p-2, 0x1.e455800000000p-4, -0x1.9d6fe20000000p-3, -0x1.3562880000000p-2, 0x1.989cae0000000p-3, 0x1.474c000000000p-2, 0x1.d323b60000000p-2, 0x1.9da0d20000000p-5, 0x1.fb76b80000000p-2}
}
, {{-0x1.339b960000000p-4, -0x1.22627c0000000p-3, -0x1.5003c00000000p-1, -0x1.22e4720000000p-1, -0x1.6c0ec80000000p-7, 0x1.623ec60000000p-3, -0x1.427f160000000p-1, -0x1.83af520000000p-4, -0x1.44aafa0000000p-5, 0x1.e1efa40000000p-2, 0x1.8579aa0000000p+0, -0x1.c79d960000000p-3, -0x1.265d440000000p-1, -0x1.1082c20000000p-1, 0x1.a710f80000000p-3, -0x1.f99bbc0000000p-2}
, {0x1.2c5a040000000p-5, 0x1.487b760000000p-4, 0x1.452e460000000p-1, 0x1.30812e0000000p-1, -0x1.e762960000000p-5, -0x1.000e060000000p-2, 0x1.6357d00000000p-1, -0x1.893b760000000p-1, 0x1.3e85c20000000p-3, -0x1.74901a0000000p-2, 0x1.7b0b2e0000000p+1, 0x1.7505ae0000000p-11, 0x1.1a75820000000p-1, 0x1.07949c0000000p-1, 0x1.261c1a0000000p-3, 0x1.ad28cc0000000p-1}
}
, {{-0x1.2bd6660000000p-3, -0x1.f1db920000000p-3, -0x1.d022180000000p-4, 0x1.5af0d80000000p-5, 0x1.bfd16e0000000p-3, -0x1.c8add40000000p-3, -0x1.6b70960000000p-4, -0x1.626db00000000p-7, -0x1.5545ec0000000p-5, -0x1.4ee5320000000p-3, -0x1.4f8f500000000p-4, -0x1.fb9b680000000p-5, 0x1.09543e0000000p-3, 0x1.7b46c00000000p-5, -0x1.d8194a0000000p-3, -0x1.b8875c0000000p-3}
, {-0x1.b731d60000000p-4, 0x1.f496d60000000p-4, -0x1.6ebf540000000p-3, -0x1.08c51e0000000p-4, 0x1.a2835c0000000p-5, 0x1.8f42a20000000p-7, -0x1.e0f68a0000000p-3, -0x1.b4d9bc0000000p-4, -0x1.57d5160000000p-4, -0x1.e414fa0000000p-8, -0x1.51c7e40000000p-3, 0x1.93e49c0000000p-4, -0x1.0febd40000000p-7, 0x1.80a7c80000000p-4, 0x1.8a8c3a0000000p-4, -0x1.c2cdbe0000000p-3}
}
, {{-0x1.e341aa0000000p-6, -0x1.cd65ba0000000p-5, -0x1.ab1fd20000000p-4, -0x1.ff94040000000p-4, -0x1.9f73a00000000p-3, -0x1.16ca720000000p-3, -0x1.10500a0000000p-3, 0x1.231a580000000p-4, -0x1.27e9e80000000p-3, -0x1.e49dac0000000p-4, -0x1.00c8580000000p-2, 0x1.6bc8760000000p-3, -0x1.7645620000000p-3, -0x1.611bf40000000p-2, -0x1.970e580000000p-4, 0x1.146e080000000p-3}
, {-0x1.195f720000000p-2, 0x1.35a26c0000000p-3, 0x1.5264860000000p-3, -0x1.127aca0000000p-3, -0x1.e208ba0000000p-4, 0x1.0ac9c40000000p-3, 0x1.c105f20000000p-5, 0x1.9dbf1a0000000p-3, -0x1.a6deaa0000000p-5, -0x1.1e84ea0000000p-3, -0x1.aa12ce0000000p-3, -0x1.e19e9c0000000p-3, 0x1.50771e0000000p-3, -0x1.635ffc0000000p-2, 0x1.257c700000000p-3, 0x1.dddaf40000000p-4}
}
, {{-0x1.a41a260000000p-4, 0x1.5412160000000p-4, 0x1.e0e3a20000000p-7, -0x1.072aea0000000p-2, -0x1.5c10240000000p-3, 0x1.5f4f740000000p-3, 0x1.050ca40000000p-4, 0x1.dead340000000p-5, 0x1.0c6b680000000p-2, -0x1.07a5960000000p-3, -0x1.bc0b020000000p-3, -0x1.a5eab60000000p-4, -0x1.0085680000000p-2, -0x1.a4550e0000000p-3, 0x1.208d420000000p-4, 0x1.4710c00000000p-5}
, {0x1.2f9fea0000000p-4, -0x1.6994de0000000p-5, -0x1.d3e1ee0000000p-3, 0x1.34e7940000000p-4, 0x1.0102280000000p-3, 0x1.0d9f8e0000000p-2, 0x1.56734c0000000p-3, 0x1.797df20000000p-6, 0x1.2281b40000000p-2, 0x1.3ca6500000000p-6, 0x1.eb65de0000000p-5, 0x1.0844c60000000p-2, -0x1.076abe0000000p-4, -0x1.0977d80000000p-6, -0x1.941dd20000000p-3, -0x1.9112880000000p-3}
}
, {{0x1.5968240000000p-5, 0x1.7dd8820000000p-4, 0x1.00b6340000000p-3, 0x1.7107fe0000000p-3, -0x1.48c1e20000000p-2, -0x1.835df60000000p-3, 0x1.560be80000000p-2, -0x1.d93f160000000p-2, -0x1.0c945a0000000p-3, -0x1.e27f4c0000000p-1, 0x1.307acc0000000p+0, -0x1.b9da440000000p-3, 0x1.7d0d5e0000000p-2, 0x1.0081020000000p-2, 0x1.b1db080000000p-6, 0x1.370e420000000p-4}
, {-0x1.9fc71a0000000p-3, 0x1.1391340000000p-4, 0x1.1f90c20000000p-1, 0x1.345c6a0000000p-1, -0x1.f40e120000000p-3, 0x1.97f72e0000000p-4, 0x1.fdac8c0000000p-2, -0x1.184f840000000p+0, -0x1.b4927c0000000p-3, -0x1.39d67a0000000p+0, 0x1.7415ac0000000p+0, 0x1.0032380000000p-4, 0x1.06526e0000000p-1, 0x1.632e600000000p-2, -0x1.fae5220000000p-5, 0x1.386f6a0000000p-1}
}
, {{-0x1.1b6e780000000p-4, 0x1.c442fe0000000p-3, 0x1.a80ea00000000p-5, -0x1.8f860e0000000p-3, -0x1.83ef320000000p-5, 0x1.1867220000000p-3, 0x1.03525e0000000p-3, -0x1.8761220000000p-4, 0x1.70e2000000000p-4, -0x1.cd7a400000000p-4, 0x1.19ad5e0000000p-6, 0x1.1b86c40000000p-4, -0x1.5101be0000000p-4, 0x1.f12bd80000000p-3, 0x1.c8d7a00000000p-5, -0x1.0c05420000000p-3}
, {0x1.a932d20000000p-3, 0x1.7a29d20000000p-3, -0x1.3630be0000000p-3, -0x1.f377360000000p-3, 0x1.edb2120000000p-3, -0x1.121f6c0000000p-3, -0x1.f76a6c0000000p-4, -0x1.1fa5ae0000000p-6, -0x1.454d3e0000000p-3, -0x1.5b272e0000000p-3, 0x1.b5dbb20000000p-4, 0x1.1597c20000000p-2, -0x1.faa49c0000000p-3, 0x1.0e9abe0000000p-2, 0x1.a68b8e0000000p-3, -0x1.ab2b320000000p-3}
}
, {{-0x1.93e0f00000000p-4, 0x1.c777240000000p-7, 0x1.1b24d00000000p-3, 0x1.770f360000000p-3, 0x1.a81f640000000p-6, -0x1.0412e40000000p-5, 0x1.b2f0260000000p-2, 0x1.482fd20000000p+0, 0x1.032ed00000000p-2, -0x1.c8f2680000000p-4, -0x1.aae38c0000000p-4, -0x1.9a176c0000000p-4, 0x1.d382e00000000p-3, 0x1.95b7e20000000p-2, -0x1.d132380000000p-7, 0x1.9e5e480000000p-3}
, {-0x1.89bada0000000p-6, -0x1.8c30780000000p-5, 0x1.3b25100000000p-2, 0x1.baf9a80000000p-2, -0x1.10f1540000000p-3, -0x1.4d59c00000000p-3, 0x1.b87c7a0000000p-2, 0x1.520fc80000000p+0, 0x1.61a9b20000000p-4, 0x1.e712e60000000p-3, 0x1.a9c3dc0000000p-4, 0x1.185f480000000p-2, 0x1.1de17a0000000p-5, 0x1.94283a0000000p-2, -0x1.8b95ae0000000p-3, 0x1.0922be0000000p-3}
}
, {{0x1.63969a0000000p-9, -0x1.a8cafe0000000p-3, 0x1.75dcb80000000p-2, 0x1.292c460000000p-1, -0x1.ea2d500000000p-3, -0x1.9b55080000000p-3, 0x1.afca2e0000000p-2, -0x1.073dea0000000p+0, -0x1.f926bc0000000p-5, 0x1.0b26a80000000p-1, 0x1.1bd5b80000000p-2, 0x1.6a865c0000000p-3, 0x1.71a5720000000p-1, 0x1.e374860000000p-2, -0x1.04434c0000000p-2, 0x1.b653b00000000p-2}
, {0x1.5db9ec0000000p-3, -0x1.b0e1000000000p-3, -0x1.9f10980000000p-1, -0x1.67314a0000000p-1, -0x1.1c73fa0000000p-4, 0x1.2e88c60000000p-3, -0x1.37b50c0000000p-1, -0x1.05f9ee0000000p+0, -0x1.980a5c0000000p-5, 0x1.0fa9280000000p-1, 0x1.ad48420000000p-2, -0x1.9b56ee0000000p-3, -0x1.51be880000000p-2, -0x1.2451760000000p-1, 0x1.24bdac0000000p-5, -0x1.8ee1e60000000p-1}
}
, {{-0x1.2b51b80000000p-3, 0x1.8c7b320000000p-4, 0x1.2dbaee0000000p-1, 0x1.884e0e0000000p-2, 0x1.1b12160000000p-3, -0x1.22d6c00000000p-3, 0x1.472b1a0000000p-1, -0x1.e21e020000000p-3, 0x1.6b67200000000p-3, -0x1.a724260000000p-3, -0x1.1f76fc0000000p-2, -0x1.1d2ede0000000p-3, 0x1.0d62d40000000p-3, 0x1.1a834c0000000p-1, 0x1.ffe3020000000p-3, 0x1.f1a2940000000p-2}
, {0x1.96104e0000000p-6, 0x1.2beee20000000p-5, 0x1.ab19800000000p-2, 0x1.236bf60000000p-1, 0x1.8302100000000p-4, -0x1.44c5340000000p-10, 0x1.6c1be00000000p-3, -0x1.7e488c0000000p-6, 0x1.41fa2c0000000p-3, -0x1.4ada3a0000000p-2, -0x1.5c74e80000000p-4, 0x1.a0c1bc0000000p-4, 0x1.c0ef200000000p-4, 0x1.32e7980000000p-1, -0x1.0f39880000000p-5, 0x1.4735e20000000p-1}
}
, {{-0x1.6825da0000000p-3, -0x1.dd60940000000p-3, -0x1.00b8080000000p-2, 0x1.b968ba0000000p-7, 0x1.7f63660000000p-5, -0x1.8d7c4e0000000p-3, 0x1.0d82020000000p-3, 0x1.4bdebc0000000p-3, -0x1.cbb2640000000p-3, -0x1.43aafe0000000p-2, -0x1.cd81760000000p-6, -0x1.f776d20000000p-3, -0x1.cd45820000000p-4, 0x1.74b21a0000000p-4, -0x1.b6ee840000000p-6, 0x1.cf2b340000000p-3}
, {0x1.673cf60000000p-3, 0x1.8b6c440000000p-3, -0x1.f33dea0000000p-3, -0x1.68e4560000000p-5, 0x1.9c38840000000p-3, -0x1.c7338c0000000p-7, -0x1.da6cec0000000p-3, -0x1.bb500e0000000p-4, 0x1.9cbe380000000p-5, -0x1.a948e20000000p-4, -0x1.8062100000000p-3, -0x1.c9ce440000000p-6, -0x1.15bc840000000p-3, -0x1.11a51c0000000p-3, -0x1.9a1edc0000000p-3, -0x1.72df260000000p-4}
}
, {{-0x1.e63d7c0000000p-4, 0x1.02f80c0000000p-3, -0x1.2e0fa60000000p-3, 0x1.968fba0000000p-3, 0x1.54f5e20000000p-5, -0x1.9dbc5a0000000p-3, 0x1.72cc4c0000000p-4, 0x1.280ff80000000p-4, -0x1.1c0e7e0000000p-2, -0x1.4c949a0000000p-3, 0x1.ee57420000000p-5, 0x1.8273180000000p-3, -0x1.aeaa060000000p-4, 0x1.5e8efc0000000p-3, -0x1.32b50e0000000p-4, -0x1.73861c0000000p-3}
, {0x1.61195a0000000p-7, -0x1.4af7380000000p-3, -0x1.10b36a0000000p-5, 0x1.f9d36a0000000p-9, -0x1.b27f7e0000000p-6, -0x1.751b640000000p-4, 0x1.ad6f5a0000000p-4, 0x1.8094fa0000000p-5, -0x1.b61c640000000p-7, -0x1.4a37a60000000p-5, 0x1.5231ac0000000p-6, 0x1.6796cc0000000p-4, -0x1.80c4a40000000p-4, 0x1.25e8940000000p-6, -0x1.bef1a80000000p-5, -0x1.0273860000000p-3}
}
, {{-0x1.d5b77e0000000p-3, -0x1.6d5f880000000p-3, -0x1.92370c0000000p-5, -0x1.37842e0000000p-4, 0x1.7e56840000000p-3, 0x1.95c66c0000000p-3, -0x1.c80cfc0000000p-3, -0x1.ce31d60000000p-3, -0x1.359d360000000p-4, 0x1.b37cbc0000000p-7, 0x1.ed384e0000000p-4, 0x1.0a71b40000000p-4, 0x1.84db180000000p-3, -0x1.284f7c0000000p-3, -0x1.b11d7a0000000p-4, 0x1.931cc40000000p-5}
, {-0x1.36b3fa0000000p-4, -0x1.4f731c0000000p-4, -0x1.bf28fa0000000p-3, -0x1.eade480000000p-3, -0x1.e68ef20000000p-3, 0x1.8633c80000000p-3, 0x1.21ecd20000000p-3, -0x1.06f7b40000000p-3, -0x1.6e914c0000000p-5, -0x1.e76fd40000000p-3, -0x1.d14c720000000p-5, 0x1.4538620000000p-3, 0x1.87b7a60000000p-6, -0x1.4038c80000000p-6, 0x1.23a2ea0000000p-3, -0x1.f265d40000000p-6}
}
, {{-0x1.bd11ee0000000p-4, -0x1.bb484e0000000p-3, -0x1.5cc17a0000000p-7, -0x1.22ec780000000p-2, 0x1.0404500000000p-3, -0x1.f963400000000p-3, -0x1.1529200000000p-2, 0x1.b9a96c0000000p-3, -0x1.74871e0000000p-4, -0x1.3534260000000p-3, -0x1.c885760000000p-3, 0x1.9446260000000p-3, -0x1.0371e20000000p-2, -0x1.47a06e0000000p-2, 0x1.70a02a0000000p-4, 0x1.ebd8020000000p-5}
, {0x1.8c7cc40000000p-5, 0x1.1b18c20000000p-5, -0x1.9e95fc0000000p-3, 0x1.dd594a0000000p-5, -0x1.717c140000000p-3, -0x1.7d47580000000p-3, 0x1.749c7e0000000p-4, -0x1.0bcad00000000p-2, -0x1.e85b940000000p-4, -0x1.004dba0000000p-2, -0x1.2e01f60000000p-7, 0x1.a579cc0000000p-4, -0x1.a8bcfe0000000p-3, -0x1.f070780000000p-3, 0x1.d2e3520000000p-9, -0x1.05f8e20000000p-3}
}
, {{-0x1.5fd8c80000000p-8, -0x1.815c3e0000000p-4, 0x1.167ca60000000p-1, 0x1.763ef20000000p-2, 0x1.17f9d00000000p-2, -0x1.ba46240000000p-4, 0x1.3f94d80000000p-1, 0x1.50e8e80000000p-3, -0x1.69c8500000000p-4, -0x1.993e320000000p-3, -0x1.288e420000000p-1, -0x1.86bf020000000p-4, 0x1.3488ac0000000p-3, 0x1.b45f300000000p-3, -0x1.06761c0000000p-3, 0x1.850e920000000p-2}
, {0x1.ba90d60000000p-4, -0x1.e14c820000000p-3, 0x1.085a2a0000000p-3, 0x1.5e5cd20000000p-2, -0x1.2b903e0000000p-4, -0x1.0e77ac0000000p-5, 0x1.770a560000000p-2, 0x1.3bf5f00000000p-3, -0x1.53ba520000000p-3, -0x1.3f80dc0000000p-5, -0x1.8dd01c0000000p-4, 0x1.18aa260000000p-7, -0x1.35b6440000000p-5, 0x1.cefcfa0000000p-2, -0x1.ed35800000000p-3, 0x1.a8f8b20000000p-2}
}
, {{0x1.0e95840000000p-2, -0x1.5088e60000000p-3, 0x1.58cffc0000000p-1, 0x1.fa5a7a0000000p-2, 0x1.b4dd700000000p-4, 0x1.9b5b8c0000000p-6, 0x1.d2c5d60000000p-2, 0x1.1a806e0000000p-1, -0x1.29eb400000000p-3, 0x1.35e2cc0000000p-5, 0x1.386f6e0000000p-2, -0x1.5898d40000000p-4, 0x1.1a95960000000p-2, 0x1.28c9ba0000000p-2, 0x1.fc80080000000p-5, 0x1.95378c0000000p-3}
, {0x1.94242c0000000p-4, -0x1.86aadc0000000p-3, 0x1.0ffa7c0000000p-2, 0x1.1f2a520000000p-1, 0x1.fc4c320000000p-3, 0x1.7b9d6e0000000p-3, 0x1.39f3f40000000p-1, -0x1.dbd7020000000p-3, -0x1.3400640000000p-3, -0x1.9f1da00000000p-2, 0x1.532d5a0000000p-1, -0x1.310a5a0000000p-6, 0x1.18f9fa0000000p-2, 0x1.a0a17e0000000p-2, 0x1.6668080000000p-7, 0x1.5aac3a0000000p-1}
}
, {{-0x1.47c9ba0000000p-4, 0x1.61977e0000000p-5, 0x1.ab7dea0000000p-2, -0x1.be4a180000000p-5, -0x1.b965d40000000p-4, -0x1.296d4e0000000p-8, 0x1.9d90440000000p-2, 0x1.87c6060000000p-4, 0x1.abf1b00000000p-4, -0x1.76aa240000000p-3, 0x1.746eda0000000p+0, -0x1.626b360000000p-3, 0x1.63495e0000000p-3, 0x1.af76b60000000p-2, -0x1.50be760000000p-4, 0x1.1bcd8e0000000p-1}
, {-0x1.23b4fc0000000p-4, -0x1.6c48b00000000p-3, 0x1.c6d4f00000000p-2, 0x1.6f85b80000000p-2, 0x1.f9a58a0000000p-3, 0x1.389e780000000p-4, 0x1.511d7e0000000p-2, -0x1.881e760000000p+0, 0x1.32b4280000000p-5, -0x1.8417cc0000000p-1, 0x1.3703d80000000p+0, 0x1.19261c0000000p-3, 0x1.6165940000000p-2, 0x1.373ee20000000p-1, -0x1.24ac720000000p-4, 0x1.19a0e80000000p-1}
}
, {{-0x1.180e6c0000000p-3, 0x1.1b74180000000p-4, 0x1.3917e40000000p-6, -0x1.51b6520000000p-3, 0x1.14c4c60000000p-2, -0x1.0aed600000000p-4, -0x1.ddf4500000000p-6, -0x1.18d5620000000p-7, 0x1.348b580000000p-3, -0x1.20f1f40000000p-5, -0x1.64e8500000000p-7, 0x1.9768320000000p-5, -0x1.ecd0a40000000p-6, -0x1.7420120000000p-3, -0x1.67778e0000000p-3, 0x1.35f9cc0000000p-3}
, {-0x1.44f9920000000p-9, 0x1.2b6a5a0000000p-2, -0x1.b9c5de0000000p-3, -0x1.066d600000000p-2, 0x1.67ea340000000p-3, -0x1.8f16b60000000p-5, 0x1.8004160000000p-7, -0x1.d7b5ca0000000p-4, -0x1.fb22260000000p-4, -0x1.066dc60000000p-2, 0x1.0132100000000p-4, -0x1.08553e0000000p-6, 0x1.e50c980000000p-4, 0x1.d534fc0000000p-4, -0x1.4b08360000000p-3, 0x1.11ae020000000p-3}
}
, {{0x1.28c6580000000p-3, 0x1.fb73120000000p-5, 0x1.11eef40000000p-4, -0x1.22b3940000000p-2, 0x1.13c60a0000000p-4, -0x1.450a820000000p-9, -0x1.6f3f1c0000000p-6, -0x1.2bad2a0000000p-3, 0x1.39d80a0000000p-5, -0x1.8bb5e80000000p-3, 0x1.45ae1a0000000p-6, -0x1.44277a0000000p-4, 0x1.c7e58c0000000p-5, -0x1.59f11a0000000p-3, -0x1.8be9d80000000p-9, -0x1.39ff000000000p-4}
, {-0x1.8bf5180000000p-3, -0x1.c7ea040000000p-5, -0x1.96ddc40000000p-2, 0x1.96e6760000000p-9, 0x1.52e8380000000p-5, -0x1.cb47a60000000p-5, -0x1.7438ca0000000p-3, -0x1.7b9db20000000p-6, 0x1.b0564a0000000p-5, -0x1.3ba6480000000p-3, 0x1.3625980000000p-3, -0x1.5fcf020000000p-6, 0x1.53311c0000000p-4, -0x1.32e46c0000000p-5, -0x1.3da1be0000000p-3, -0x1.8e72160000000p-4}
}
}
;

#undef INPUT_CHANNELS
#undef CONV_FILTERS
#undef CONV_KERNEL_SIZE
#undef CONV_GROUPS