/**
  ******************************************************************************
  * @file    weights/conv1d.cc
  * @author  Pierre-Emmanuel Novac <penovac@unice.fr>, LEAT, CNRS, Université Côte d'Azur, France
  * @version 1.0.0
  * @date    24 march 2020
  * @brief   Template generating plain C code for the implementation of Convolutional Neural Networks on MCU
  */

#include <stdint.h>

#define INPUT_CHANNELS    32
#define CONV_FILTERS      32
#define CONV_KERNEL_SIZE  2
#define CONV_GROUPS       1


const float  conv1d_111_bias[CONV_FILTERS] = {0x1.42fee20000000p-6, -0x1.9f47cc0000000p-5, -0x1.88c1e40000000p-3, -0x1.e442260000000p-4, -0x1.4dd6b20000000p-4, -0x1.9d99ec0000000p-5, -0x1.9bda880000000p-3, -0x1.1e671a0000000p-4, 0x1.1a629c0000000p-2, -0x1.c7cfc20000000p-5, -0x1.92f78c0000000p-3, -0x1.0430160000000p-2, -0x1.5b6b3e0000000p-4, 0x1.31b5a00000000p-2, 0x1.e1e00a0000000p-3, -0x1.f983ec0000000p-3, -0x1.07070e0000000p-3, 0x1.d8a8c20000000p-4, -0x1.d4cdea0000000p-5, -0x1.7e7ef80000000p-6, 0x1.3223f40000000p-5, -0x1.e723ce0000000p-6, -0x1.e603560000000p-6, -0x1.556be40000000p-5, 0x1.e834360000000p-7, -0x1.65a7e40000000p-4, -0x1.fd46040000000p-5, -0x1.68665a0000000p-5, -0x1.fab7a40000000p-3, -0x1.0c127c0000000p-4, -0x1.5a1cde0000000p-4, -0x1.aec40e0000000p-3}
;

const float  conv1d_111_kernel[CONV_FILTERS][CONV_KERNEL_SIZE][INPUT_CHANNELS / CONV_GROUPS] = {{{0x1.ae18460000000p-6, 0x1.85678c0000000p+0, -0x1.b3b7880000000p-10, -0x1.3d983a0000000p-1, 0x1.c802740000000p-5, 0x1.2cdcc60000000p-3, 0x1.758f500000000p-5, 0x1.49cde80000000p-3, -0x1.3a71560000000p-3, -0x1.6393fa0000000p-3, -0x1.51e4880000000p-4, -0x1.eae37c0000000p-5, 0x1.5537620000000p-4, 0x1.93abd40000000p-3, -0x1.9f9d0c0000000p-2, 0x1.6384f00000000p-3, 0x1.3074ba0000000p+0, -0x1.9326f80000000p-2, -0x1.a7799a0000000p-5, 0x1.6405fe0000000p-2, -0x1.8cdf1e0000000p+0, -0x1.a09c8e0000000p-3, 0x1.21e3420000000p-2, 0x1.50be240000000p-5, -0x1.add0500000000p-5, 0x1.c4c89e0000000p-7, 0x1.4656c80000000p-8, -0x1.2b24000000000p-3, -0x1.d5fef20000000p-6, 0x1.5ebd6e0000000p-2, 0x1.3f69920000000p-1, -0x1.6ecde00000000p-2}
, {-0x1.9f192e0000000p-3, 0x1.9f467e0000000p-1, -0x1.a773160000000p-3, 0x1.3900860000000p-3, 0x1.0217520000000p-5, -0x1.037ee00000000p-3, -0x1.4d7b940000000p-4, 0x1.9ae6a60000000p-3, 0x1.b1a1920000000p-2, 0x1.5b0da20000000p-4, -0x1.3e00e20000000p-2, -0x1.2c880e0000000p-3, 0x1.c8e1680000000p-7, 0x1.6e7e740000000p-7, -0x1.017aac0000000p-2, -0x1.9749440000000p-7, 0x1.3e14e60000000p-1, -0x1.701ace0000000p+0, 0x1.b0235c0000000p-5, 0x1.4f6e780000000p-3, -0x1.0876a40000000p-2, 0x1.a69fc80000000p-2, 0x1.697fce0000000p-2, 0x1.50f3940000000p-4, -0x1.7f6f420000000p-3, -0x1.4c9cd00000000p-7, 0x1.986a0c0000000p-3, 0x1.360a200000000p-2, 0x1.a6c7220000000p-3, 0x1.7a08140000000p-2, 0x1.95e58c0000000p-2, 0x1.3b207c0000000p-1}
}
, {{0x1.318cc20000000p-3, -0x1.a9b68a0000000p-3, 0x1.faa3700000000p-6, -0x1.238c1e0000000p-4, 0x1.135a140000000p-3, 0x1.7741f40000000p-3, -0x1.d81bce0000000p-6, -0x1.76f3940000000p-3, -0x1.ade7140000000p-3, -0x1.5d608e0000000p-4, -0x1.47a13a0000000p-2, -0x1.6fa0060000000p-5, 0x1.23e14a0000000p-4, -0x1.b9eae20000000p-5, -0x1.afaa3e0000000p-3, -0x1.b15f600000000p-4, -0x1.198c4e0000000p-2, -0x1.54705e0000000p-5, -0x1.2192e00000000p-4, -0x1.1998a00000000p-4, 0x1.da10000000000p-4, -0x1.1fd95a0000000p-3, -0x1.5640460000000p-4, -0x1.3edb180000000p-8, -0x1.0237820000000p-3, -0x1.b5b55e0000000p-5, -0x1.31ac580000000p-3, -0x1.47b58a0000000p-6, -0x1.5b59b80000000p-3, 0x1.90fda80000000p-6, -0x1.2001360000000p-4, -0x1.24cc360000000p-4}
, {-0x1.b47b300000000p-3, 0x1.29ce840000000p-3, -0x1.b23a940000000p-3, -0x1.45f7da0000000p-4, 0x1.c919520000000p-4, 0x1.ac24320000000p-3, 0x1.dd68f80000000p-6, -0x1.712b7a0000000p-7, 0x1.cc29240000000p-5, 0x1.2de5b80000000p-3, 0x1.69df740000000p-4, -0x1.05e2a60000000p-2, 0x1.6dccea0000000p-5, -0x1.00a6bc0000000p-2, -0x1.f12d5e0000000p-3, -0x1.b84d280000000p-3, -0x1.63bbea0000000p-4, 0x1.e07ea00000000p-7, 0x1.a119240000000p-4, -0x1.ae06400000000p-3, -0x1.00dd0e0000000p-4, 0x1.8096740000000p-5, -0x1.c74e760000000p-7, 0x1.37ccdc0000000p-4, -0x1.e709e60000000p-6, -0x1.726c1c0000000p-5, -0x1.0f7ef60000000p-4, 0x1.2364d20000000p-3, -0x1.c182460000000p-4, 0x1.863e700000000p-7, -0x1.1d93ce0000000p-2, 0x1.a1e3c00000000p-6}
}
, {{0x1.e4c4840000000p-5, -0x1.74c4380000000p-2, -0x1.324ac20000000p-3, -0x1.99989e0000000p-3, -0x1.29b09e0000000p-4, -0x1.ccab540000000p-3, -0x1.075e440000000p-2, 0x1.9a80e80000000p-4, 0x1.ec5c1c0000000p-4, -0x1.2bd2b20000000p-5, -0x1.5b875e0000000p-2, -0x1.1193540000000p-4, -0x1.0e812c0000000p-3, -0x1.f8dada0000000p-3, -0x1.ec01120000000p-3, 0x1.c334ac0000000p-6, -0x1.3c13020000000p-2, -0x1.29f8080000000p-1, 0x1.7a7b340000000p-4, -0x1.badbcc0000000p-5, 0x1.2bf6da0000000p-5, -0x1.64e60c0000000p-2, -0x1.2837b40000000p-3, -0x1.9f54060000000p-3, -0x1.82ec7e0000000p-2, 0x1.2a5a4a0000000p-4, -0x1.2c493e0000000p-3, -0x1.13eee20000000p-2, -0x1.ecf0600000000p-8, -0x1.3d88140000000p-9, -0x1.0943800000000p-5, -0x1.5180040000000p-3}
, {-0x1.628db60000000p-5, -0x1.6cbe8c0000000p-2, -0x1.8e8ec20000000p-3, -0x1.8088c00000000p-10, 0x1.ca69140000000p-4, 0x1.abbf660000000p-5, -0x1.88e9140000000p-3, -0x1.b57e3e0000000p-4, 0x1.aa23ae0000000p-4, -0x1.320fa40000000p-3, -0x1.e950ae0000000p-3, 0x1.0d90560000000p-3, -0x1.b5dcce0000000p-3, -0x1.fa85fe0000000p-4, -0x1.d0b76c0000000p-2, -0x1.71f3ee0000000p-4, -0x1.186cfe0000000p-4, -0x1.13ceb40000000p-2, 0x1.5b82a40000000p-3, -0x1.11553a0000000p-3, -0x1.6a330e0000000p-2, -0x1.89096c0000000p-5, 0x1.847ef80000000p-4, 0x1.9812960000000p-5, -0x1.465a160000000p-2, -0x1.14f0be0000000p-2, -0x1.a797400000000p-3, -0x1.7dc4be0000000p-3, 0x1.88fb860000000p-7, -0x1.1b8d7e0000000p-3, -0x1.d4c9860000000p-3, -0x1.70f2500000000p-2}
}
, {{-0x1.5956ac0000000p-5, -0x1.b2377c0000000p-5, -0x1.7f04920000000p-5, 0x1.3eb5180000000p-1, 0x1.2da4140000000p-6, -0x1.14b3d80000000p-4, -0x1.29dfc00000000p-6, 0x1.ae26180000000p-9, -0x1.4385be0000000p-2, -0x1.1d0be00000000p-3, -0x1.9482040000000p-1, 0x1.1a79320000000p-6, 0x1.15a0c60000000p-3, -0x1.1e95060000000p-5, 0x1.ff31340000000p-8, -0x1.181d880000000p-3, 0x1.da9b0a0000000p-3, 0x1.166b680000000p-1, 0x1.13a4740000000p-3, -0x1.bd51c40000000p-4, -0x1.1b83020000000p-3, 0x1.286b120000000p+1, -0x1.650cc00000000p-3, -0x1.33e9440000000p-3, -0x1.fc7fe00000000p-2, 0x1.5e2aca0000000p-4, -0x1.534bfa0000000p-2, 0x1.2b665e0000000p-4, 0x1.0467880000000p-3, 0x1.065df20000000p-1, 0x1.58f7d80000000p-2, 0x1.7bafaa0000000p-3}
, {0x1.80d7160000000p-4, -0x1.6a131c0000000p-3, -0x1.4fb7000000000p-5, 0x1.65da320000000p-2, 0x1.29ed8c0000000p-5, 0x1.2431620000000p-3, -0x1.a0410e0000000p-3, -0x1.5ddf220000000p-4, -0x1.2fe8e00000000p-3, -0x1.26bde20000000p-3, -0x1.5a8f840000000p-2, -0x1.23b2a00000000p-4, 0x1.5598d60000000p-6, -0x1.44d5d60000000p-5, -0x1.35bebe0000000p-1, -0x1.a8e01c0000000p-3, -0x1.d70dcc0000000p-2, 0x1.0b89c40000000p-3, -0x1.f54cb40000000p-5, 0x1.db7aa40000000p-3, 0x1.fba70c0000000p-3, -0x1.9cf9ee0000000p+0, 0x1.44ebd80000000p-3, 0x1.6e515c0000000p-3, -0x1.e553e40000000p-3, -0x1.8368520000000p-5, 0x1.1f6b7e0000000p-3, -0x1.6c488e0000000p-5, -0x1.b454d60000000p-4, -0x1.3f76d20000000p-1, -0x1.871ff20000000p-1, 0x1.d85a740000000p-2}
}
, {{-0x1.e1d5940000000p-3, -0x1.3930d20000000p-2, -0x1.9639fc0000000p-2, -0x1.5468c00000000p-2, -0x1.afaeee0000000p-4, 0x1.a15bf60000000p-5, 0x1.82f0a80000000p-4, -0x1.dd60240000000p-4, -0x1.2ebc6e0000000p-3, 0x1.c05c960000000p-3, -0x1.8aad500000000p-2, -0x1.98fe3e0000000p-4, -0x1.63f3f60000000p-4, 0x1.88268c0000000p-5, 0x1.906c9a0000000p-4, 0x1.1bccbc0000000p-4, -0x1.74f74e0000000p-2, -0x1.ffe2e20000000p-3, -0x1.01d0320000000p-3, -0x1.88071a0000000p-2, -0x1.8f58f20000000p-3, -0x1.e7fa3c0000000p-2, 0x1.a4747e0000000p-3, 0x1.f759560000000p-5, -0x1.f994c40000000p-3, 0x1.4de07e0000000p-3, -0x1.56fbd40000000p-3, 0x1.1aae0a0000000p-3, -0x1.3e2f1a0000000p-2, -0x1.0bb0ae0000000p-2, -0x1.c5573a0000000p-2, 0x1.2ffc640000000p-4}
, {0x1.52f9ae0000000p-4, -0x1.3d95d80000000p-3, -0x1.3401960000000p-2, -0x1.13224c0000000p-2, 0x1.b7fdc00000000p-6, -0x1.11249c0000000p-3, -0x1.c8e0400000000p-5, 0x1.68878a0000000p-3, 0x1.906ed00000000p-3, 0x1.67c2c20000000p-6, 0x1.2bdb2e0000000p-6, 0x1.d5d9b00000000p-4, -0x1.213d680000000p-5, -0x1.aa47740000000p-3, 0x1.7f1e9e0000000p-2, -0x1.80d3340000000p-4, -0x1.c6fad20000000p-3, -0x1.aa9e4e0000000p-3, -0x1.99c1900000000p-9, -0x1.2ed9860000000p-3, -0x1.8d77120000000p-3, -0x1.be70660000000p-4, -0x1.4e78ae0000000p-7, 0x1.3bdaf20000000p-4, -0x1.e716e40000000p-3, -0x1.45289c0000000p-3, -0x1.a24d9e0000000p-3, -0x1.5a75940000000p-3, -0x1.357bb40000000p-3, -0x1.3c28200000000p-2, -0x1.adaf6a0000000p-2, -0x1.cfeb2e0000000p-3}
}
, {{-0x1.32c6400000000p-4, -0x1.e7dc1a0000000p-3, -0x1.adc2880000000p-3, 0x1.f8f8080000000p-3, 0x1.24dc300000000p-4, -0x1.833ec20000000p-3, -0x1.eb667a0000000p-3, 0x1.b30dd80000000p-4, 0x1.4fe4e20000000p-3, -0x1.5003700000000p-3, -0x1.38e5060000000p-5, 0x1.1ad72e0000000p-5, 0x1.0ce39a0000000p-3, -0x1.1ba3180000000p-4, 0x1.02a9d00000000p-4, 0x1.5c6b7e0000000p-4, -0x1.2afc8e0000000p-4, -0x1.5b54bc0000000p-3, -0x1.8685800000000p-3, -0x1.840ec60000000p-3, -0x1.163b480000000p-8, -0x1.e349b00000000p-3, 0x1.2d12bc0000000p-5, -0x1.2338560000000p-5, -0x1.4a624a0000000p-3, -0x1.10d1500000000p-3, -0x1.649cc60000000p-4, -0x1.b828480000000p-4, 0x1.6515680000000p-3, -0x1.0b5d6c0000000p-3, -0x1.6dfd940000000p-5, 0x1.7a73720000000p-4}
, {-0x1.d3697a0000000p-6, 0x1.c6c2480000000p-4, 0x1.37f0340000000p-4, -0x1.076e020000000p-3, 0x1.940a4e0000000p-4, -0x1.26925e0000000p-5, 0x1.35a72a0000000p-4, 0x1.55a39a0000000p-5, -0x1.7a68fc0000000p-5, 0x1.a7dd3e0000000p-4, -0x1.30a5da0000000p-3, -0x1.8043260000000p-5, 0x1.19baf60000000p-4, -0x1.7cd1ae0000000p-6, 0x1.45b62c0000000p-4, 0x1.12cf1a0000000p-3, 0x1.1468f60000000p-4, -0x1.2f70440000000p-4, -0x1.6465c00000000p-3, -0x1.2e1cec0000000p-2, -0x1.d07e900000000p-3, 0x1.5b124a0000000p-4, -0x1.56c3060000000p-3, -0x1.0a6b300000000p-10, -0x1.4e2e2e0000000p-4, 0x1.47edd60000000p-3, -0x1.9e507c0000000p-3, -0x1.a2eeec0000000p-7, -0x1.1fc7ae0000000p-10, 0x1.3ba17c0000000p-5, 0x1.92c2620000000p-4, -0x1.f4a6260000000p-11}
}
, {{0x1.53df400000000p-3, -0x1.2d39b00000000p+0, -0x1.5728d40000000p-5, -0x1.c3ac8e0000000p-1, 0x1.3b933e0000000p-5, -0x1.073e440000000p-3, 0x1.74979a0000000p-3, -0x1.4fbc060000000p-5, 0x1.31f6920000000p-5, -0x1.71de160000000p-4, -0x1.7c72340000000p-1, -0x1.0389320000000p-6, 0x1.f1c3520000000p-5, 0x1.657cc20000000p-3, 0x1.a0bd8a0000000p-3, 0x1.400fb40000000p-3, -0x1.1079220000000p+0, 0x1.75ff900000000p-1, -0x1.5d574c0000000p-5, -0x1.c8c5240000000p-3, 0x1.5f78300000000p-1, -0x1.5f50f80000000p+0, 0x1.eccaf80000000p-5, 0x1.61aa0e0000000p-2, -0x1.952bfc0000000p-2, 0x1.8d02b20000000p-3, 0x1.406b6c0000000p-3, 0x1.8793140000000p-3, -0x1.afad120000000p-6, 0x1.4a36300000000p+0, 0x1.01712c0000000p+0, 0x1.5c367c0000000p-3}
, {-0x1.9b937c0000000p-3, -0x1.111e300000000p-3, 0x1.07119e0000000p-2, 0x1.187e720000000p-1, 0x1.e6131e0000000p-5, -0x1.841fbe0000000p-6, -0x1.4c30b00000000p-4, -0x1.de63ea0000000p-4, -0x1.f0ebc80000000p-6, 0x1.47aa580000000p-2, 0x1.5c2a4c0000000p-2, 0x1.65feec0000000p-4, -0x1.bf7fa40000000p-4, -0x1.0e9dea0000000p-3, -0x1.20847e0000000p+0, 0x1.cd1e7e0000000p-4, 0x1.537c200000000p-3, -0x1.2eeae40000000p-1, -0x1.86c7d80000000p-5, -0x1.3052e60000000p-1, 0x1.01c2900000000p-2, -0x1.3136ec0000000p+0, -0x1.6c88e60000000p-5, -0x1.dbb7b00000000p-8, 0x1.3572180000000p-3, -0x1.04c0520000000p-2, 0x1.0c86820000000p-3, -0x1.196fcc0000000p-2, 0x1.f87d740000000p-2, 0x1.befc880000000p-2, 0x1.f4908e0000000p-3, 0x1.6d71ce0000000p-10}
}
, {{-0x1.f0fd660000000p-9, -0x1.5e49ec0000000p-5, 0x1.3060ca0000000p-5, -0x1.81aa080000000p-4, -0x1.50ec0a0000000p-4, -0x1.8945ae0000000p-3, -0x1.efdace0000000p-7, -0x1.37fbfa0000000p-5, 0x1.5cb0460000000p-3, 0x1.b570960000000p-7, 0x1.27a1fa0000000p-4, -0x1.0595960000000p-3, 0x1.6d3c640000000p-7, 0x1.969b840000000p-4, -0x1.5761d80000000p-3, -0x1.6440c00000000p-3, -0x1.82a5ca0000000p-3, -0x1.26cffe0000000p-5, -0x1.57c51e0000000p-3, -0x1.5c4a9e0000000p-3, 0x1.5b09320000000p-8, -0x1.7531d20000000p-5, -0x1.a6bee40000000p-4, -0x1.71c9080000000p-3, -0x1.63e6cc0000000p-3, 0x1.09b3a20000000p-4, -0x1.45bcac0000000p-7, 0x1.183e980000000p-5, 0x1.e28e140000000p-5, 0x1.1ceeba0000000p-3, -0x1.6629860000000p-3, 0x1.6994ca0000000p-4}
, {-0x1.dba07c0000000p-4, -0x1.e63c720000000p-3, -0x1.0e39e80000000p-2, 0x1.c68e060000000p-7, 0x1.17ad360000000p-3, 0x1.34b4960000000p-3, 0x1.ef8ba20000000p-5, -0x1.20a1fc0000000p-5, -0x1.425ac80000000p-4, -0x1.82e3e60000000p-3, -0x1.8a44d00000000p-3, 0x1.c6ae7c0000000p-6, 0x1.e1f5e60000000p-4, -0x1.055da80000000p-5, 0x1.f5b41c0000000p-4, -0x1.74e6d40000000p-3, 0x1.0136080000000p-3, -0x1.3ac7be0000000p-3, 0x1.ce7f260000000p-5, -0x1.950f540000000p-5, -0x1.daeffa0000000p-5, 0x1.c6881e0000000p-4, 0x1.a15bba0000000p-5, -0x1.9aa5040000000p-3, -0x1.545a1a0000000p-4, -0x1.43472a0000000p-4, -0x1.375e1c0000000p-2, 0x1.4b3f220000000p-5, -0x1.20c2700000000p-2, -0x1.d3d5500000000p-4, -0x1.497c860000000p-3, 0x1.9c812c0000000p-5}
}
, {{0x1.5b1d600000000p-3, -0x1.15560c0000000p-1, 0x1.5b398e0000000p-3, -0x1.4d7d660000000p+0, -0x1.fe20d40000000p-7, 0x1.635ff20000000p-4, 0x1.43da740000000p-5, -0x1.8d42440000000p-4, -0x1.7501300000000p-3, 0x1.66207e0000000p-4, 0x1.2c0bf20000000p-6, 0x1.8041320000000p-4, 0x1.900f160000000p-3, 0x1.5be8e20000000p-4, -0x1.9f88120000000p-2, 0x1.a48b4e0000000p-4, 0x1.0ded040000000p-1, 0x1.f384480000000p-2, 0x1.c9bdac0000000p-4, -0x1.66427e0000000p-5, -0x1.3d61540000000p-4, -0x1.c061520000000p-4, -0x1.6423380000000p-4, 0x1.08f8140000000p-3, -0x1.de83680000000p-6, 0x1.ff95160000000p-4, 0x1.93896c0000000p-2, -0x1.7f5d920000000p-6, 0x1.c83efc0000000p-2, -0x1.f3d6440000000p-2, -0x1.3992300000000p-2, -0x1.d8e24a0000000p-1}
, {-0x1.2a6c060000000p-8, 0x1.73cc580000000p-2, 0x1.cf0ea00000000p-4, -0x1.5f62d60000000p-1, -0x1.4da8e40000000p-3, 0x1.c3c7a40000000p-4, -0x1.b394e80000000p-7, 0x1.76e3d40000000p-3, 0x1.08fbf20000000p-3, -0x1.0b79480000000p-3, -0x1.a29f080000000p-1, 0x1.e8d96a0000000p-4, -0x1.83a8ee0000000p-7, -0x1.4583160000000p-3, -0x1.eb4e420000000p-1, -0x1.a47a3e0000000p-7, 0x1.8aeff20000000p-2, 0x1.5dc2f00000000p-5, -0x1.f3bbbe0000000p-3, -0x1.7763120000000p-2, -0x1.bf216a0000000p-2, 0x1.656f2a0000000p-2, -0x1.3722340000000p-3, -0x1.5e82720000000p-3, 0x1.14db160000000p-3, -0x1.e2435c0000000p-4, 0x1.4e2a9c0000000p-2, 0x1.71fcc60000000p-4, 0x1.4a46480000000p-3, -0x1.de430a0000000p-2, -0x1.722c360000000p-2, -0x1.4e783c0000000p+0}
}
, {{-0x1.9fb3e80000000p-5, -0x1.f92ae80000000p-2, 0x1.90fd480000000p-2, -0x1.0930de0000000p-2, 0x1.c7c1ba0000000p-4, -0x1.afb0340000000p-4, 0x1.6eace40000000p-4, -0x1.8654880000000p-3, 0x1.58ccd80000000p-6, 0x1.8f211a0000000p-4, -0x1.1a20c60000000p-2, 0x1.e747b60000000p-7, 0x1.1da9500000000p-4, -0x1.93c4c00000000p-7, 0x1.b763580000000p-7, 0x1.84b8be0000000p-4, -0x1.0e7b220000000p-2, 0x1.1dfee60000000p-3, -0x1.49c1560000000p-3, 0x1.d345c40000000p-3, 0x1.eda2b40000000p-5, -0x1.5a127c0000000p-7, -0x1.4094b00000000p-4, -0x1.4e53020000000p-3, 0x1.0dff3a0000000p-2, -0x1.85b2560000000p-7, 0x1.21a8860000000p-2, -0x1.c2b2ec0000000p-4, 0x1.5425d00000000p-3, 0x1.29618a0000000p-3, -0x1.81c54c0000000p-4, -0x1.d3b9260000000p-3}
, {-0x1.37db800000000p-3, -0x1.d46c7c0000000p-1, 0x1.745c8e0000000p-2, -0x1.98ba020000000p-3, 0x1.7083940000000p-4, 0x1.c355c00000000p-3, -0x1.14e0bc0000000p-3, -0x1.4fa8400000000p-4, 0x1.1707cc0000000p-4, -0x1.a636ee0000000p-5, -0x1.27697e0000000p-4, -0x1.95f3860000000p-4, -0x1.ade4bc0000000p-7, -0x1.b4c79c0000000p-4, -0x1.7742300000000p-2, 0x1.3180f80000000p-4, -0x1.7f9d760000000p-2, -0x1.0ca8280000000p-1, -0x1.d2835a0000000p-3, 0x1.b455e40000000p-4, 0x1.f64c8c0000000p-4, -0x1.a76d360000000p-2, 0x1.491e100000000p-3, 0x1.be67f40000000p-3, 0x1.102a360000000p-2, 0x1.9c64540000000p-5, 0x1.47c2760000000p-2, 0x1.3ebf780000000p-3, 0x1.5cb3f80000000p-4, -0x1.e2dd1e0000000p-2, -0x1.646c580000000p+0, -0x1.7e3b360000000p-6}
}
, {{0x1.6083800000000p-3, 0x1.4e6a0c0000000p-1, 0x1.d219ca0000000p-2, 0x1.1dd6340000000p-1, 0x1.4168420000000p-4, 0x1.563d0c0000000p-5, -0x1.01b59a0000000p-3, 0x1.d2b4e60000000p-4, 0x1.33f69a0000000p-3, 0x1.0c62bc0000000p-3, 0x1.62c3a40000000p-2, 0x1.3e06dc0000000p-3, -0x1.67a2ac0000000p-3, 0x1.43c1c40000000p-5, -0x1.a214320000000p-6, -0x1.182d560000000p-3, -0x1.38d0960000000p-1, -0x1.20565e0000000p-1, 0x1.04458c0000000p-4, 0x1.a110380000000p-3, -0x1.0fb9760000000p-1, -0x1.52bd120000000p-1, 0x1.8993120000000p-2, 0x1.016e540000000p-3, 0x1.8bc84c0000000p-3, 0x1.5b48100000000p-6, 0x1.a6809e0000000p-2, 0x1.a83fe20000000p-4, 0x1.529cfa0000000p-2, 0x1.2a22dc0000000p+0, 0x1.cb4cae0000000p-4, -0x1.d8378a0000000p-1}
, {-0x1.476d680000000p-3, -0x1.9271f60000000p-2, -0x1.e08c700000000p-3, 0x1.77d4960000000p-2, 0x1.1bb8c00000000p-6, -0x1.24197e0000000p-7, -0x1.3a74b20000000p-3, -0x1.08df460000000p-5, -0x1.2d3ce80000000p-2, -0x1.ff16520000000p-5, -0x1.dafdc20000000p-2, -0x1.eb31e60000000p-9, -0x1.b528180000000p-4, 0x1.c9364a0000000p-4, -0x1.5690fe0000000p-2, -0x1.6894a40000000p-4, -0x1.68fdf20000000p+0, -0x1.7485ee0000000p-4, 0x1.eaf3ee0000000p-4, 0x1.7a6a440000000p-6, 0x1.2994680000000p-2, -0x1.85f1de0000000p+1, 0x1.589af80000000p-4, 0x1.a82be40000000p-4, -0x1.0d979c0000000p-3, 0x1.1d0d3c0000000p-3, -0x1.652eba0000000p-3, 0x1.acbde40000000p-3, 0x1.b2e4780000000p-6, -0x1.688a460000000p+0, -0x1.5096c80000000p+1, -0x1.870ffa0000000p-1}
}
, {{-0x1.27e38e0000000p-5, -0x1.3f4d360000000p-3, -0x1.9189ae0000000p-4, -0x1.9ee8d40000000p-5, -0x1.26ef420000000p-3, 0x1.bf08d40000000p-3, -0x1.5779540000000p-4, -0x1.a65f300000000p-3, -0x1.fed59a0000000p-8, 0x1.2521c80000000p-4, 0x1.b8d0840000000p-4, -0x1.a4fb4c0000000p-3, -0x1.049a7e0000000p-7, -0x1.eafd560000000p-5, -0x1.1051d60000000p-3, 0x1.97e6420000000p-3, -0x1.4166b40000000p-2, -0x1.3276a40000000p-3, -0x1.2fa5480000000p-3, -0x1.1be5600000000p-6, -0x1.fe4be60000000p-4, -0x1.8b95620000000p-9, -0x1.79908e0000000p-3, -0x1.5c69360000000p-3, -0x1.72ce9c0000000p-2, -0x1.1538820000000p-5, -0x1.504d120000000p-3, 0x1.2b1ee00000000p-5, -0x1.7ebc260000000p-3, -0x1.e211dc0000000p-3, -0x1.1e86c20000000p-5, -0x1.02b2980000000p-2}
, {0x1.3870a40000000p-4, -0x1.8f8eb80000000p-3, -0x1.c8f58a0000000p-5, -0x1.1d93ac0000000p-2, 0x1.e2777a0000000p-4, -0x1.cf1a6a0000000p-4, -0x1.3231880000000p-4, -0x1.b561280000000p-6, 0x1.39bad80000000p-7, -0x1.692ee60000000p-4, -0x1.11798a0000000p-2, -0x1.22e8160000000p-3, 0x1.1fa0c20000000p-3, -0x1.14d4a00000000p-4, -0x1.5ddd2e0000000p-3, 0x1.ca51c20000000p-3, -0x1.5eb1a40000000p-2, -0x1.0c6af80000000p-4, 0x1.20baea0000000p-3, -0x1.52be3a0000000p-2, -0x1.1cd6b40000000p-3, -0x1.caba5c0000000p-3, 0x1.2da0ea0000000p-9, 0x1.f8cb240000000p-4, -0x1.c3f4c80000000p-3, 0x1.1b9ca40000000p-4, -0x1.eb6c2e0000000p-3, -0x1.0c9da20000000p-5, -0x1.afd3ca0000000p-4, -0x1.7a5a8a0000000p-3, -0x1.45286c0000000p-3, -0x1.4f19220000000p-3}
}
, {{-0x1.4f556c0000000p-7, -0x1.cb72060000000p-4, -0x1.89ba9e0000000p-3, -0x1.81b3900000000p-8, -0x1.4d639e0000000p-3, -0x1.1c86b80000000p-3, 0x1.2957520000000p-7, 0x1.de08940000000p-4, 0x1.3ea1060000000p-4, -0x1.1ff7040000000p-6, 0x1.a737620000000p-5, -0x1.4de4380000000p-3, -0x1.7b98b40000000p-4, -0x1.42e9340000000p-3, 0x1.3a71560000000p-7, 0x1.7ee5dc0000000p-3, -0x1.b56ff40000000p-4, 0x1.4c7cf20000000p-4, 0x1.95b7fa0000000p-5, -0x1.1dc1300000000p-3, 0x1.05c8ac0000000p-3, -0x1.2ea2560000000p-2, -0x1.4b3e720000000p-3, 0x1.f6af980000000p-5, -0x1.8e07880000000p-5, 0x1.bdbed00000000p-3, -0x1.30c6180000000p-3, -0x1.fa78f00000000p-3, 0x1.120ece0000000p-3, -0x1.4ad0c60000000p-3, 0x1.7f83480000000p-4, -0x1.33785a0000000p-3}
, {-0x1.a7c71e0000000p-3, -0x1.3e70c20000000p-3, 0x1.42fc840000000p-8, -0x1.70b4e40000000p-3, -0x1.a88a160000000p-6, 0x1.78055e0000000p-4, 0x1.84bb240000000p-5, 0x1.f703500000000p-4, 0x1.4b7d4a0000000p-3, -0x1.501bb00000000p-4, 0x1.82e39e0000000p-4, 0x1.73e3e80000000p-3, -0x1.00800e0000000p-2, -0x1.76445a0000000p-3, 0x1.4c5e200000000p-5, -0x1.82defc0000000p-3, -0x1.bb007e0000000p-3, 0x1.e986520000000p-6, 0x1.baddda0000000p-2, -0x1.2c24ac0000000p-3, -0x1.3f943e0000000p-3, 0x1.0f058a0000000p-4, 0x1.821e4a0000000p-4, -0x1.2e123e0000000p-3, 0x1.2d81f60000000p-4, -0x1.391cca0000000p-4, -0x1.e091060000000p-5, -0x1.1b01a60000000p-3, -0x1.b6ccbe0000000p-4, 0x1.6d07a00000000p-3, -0x1.9719d60000000p-3, -0x1.724fe00000000p-2}
}
, {{-0x1.d6f1ce0000000p-3, -0x1.3683c60000000p+0, -0x1.30ec5a0000000p-4, -0x1.abf0fe0000000p-4, -0x1.0692660000000p-6, -0x1.cd5e7a0000000p-3, 0x1.19e1d60000000p-5, -0x1.63c72a0000000p-5, -0x1.ede2560000000p-5, -0x1.8598840000000p-5, -0x1.87d3440000000p-1, -0x1.e18d740000000p-3, 0x1.83bd080000000p-8, 0x1.c3560c0000000p-4, 0x1.4a37ba0000000p-3, -0x1.20fbfc0000000p-3, -0x1.6fc5120000000p-2, 0x1.19ca720000000p-2, -0x1.96f39e0000000p-5, -0x1.a005c60000000p-3, 0x1.9b58660000000p-2, -0x1.7643d00000000p-2, -0x1.2d22d40000000p-3, -0x1.eb87220000000p-4, -0x1.65546c0000000p-2, 0x1.0267680000000p-2, -0x1.2e4c880000000p-2, -0x1.33c8960000000p-4, 0x1.2c48b00000000p-2, -0x1.8a121e0000000p-3, -0x1.715e200000000p-1, -0x1.415dcc0000000p-1}
, {0x1.b88ec00000000p-6, 0x1.5607b40000000p-1, -0x1.6461480000000p+0, 0x1.f2a6620000000p-4, 0x1.5df2800000000p-4, 0x1.3fb9f00000000p-8, -0x1.9573180000000p-4, -0x1.39b6800000000p-3, -0x1.abca3c0000000p-7, -0x1.1fb5120000000p-3, -0x1.0d730c0000000p+1, 0x1.4124500000000p-3, -0x1.4120b80000000p-3, -0x1.cf0c220000000p-6, -0x1.f24b900000000p-8, 0x1.1719280000000p-6, -0x1.28afba0000000p+0, 0x1.63c96c0000000p-3, 0x1.45284c0000000p-8, 0x1.08a9880000000p-1, 0x1.a4c8600000000p-4, -0x1.77812e0000000p+0, 0x1.6ce35e0000000p-3, 0x1.9c26c80000000p-5, 0x1.0a064c0000000p-2, 0x1.320df60000000p-5, -0x1.6b74c60000000p+0, -0x1.8d0eb80000000p-7, -0x1.07e9980000000p+1, 0x1.b60c720000000p-1, 0x1.28191a0000000p-3, 0x1.2cb4040000000p-1}
}
, {{0x1.83edae0000000p-3, -0x1.22f3fc0000000p+0, -0x1.5ee21c0000000p-5, -0x1.2d0ad20000000p-2, 0x1.265e2c0000000p-3, 0x1.2400f20000000p-3, 0x1.ebe28a0000000p-8, 0x1.56ab760000000p-3, 0x1.31e50c0000000p-3, -0x1.9a071a0000000p-4, -0x1.ad03ac0000000p-4, -0x1.213bdc0000000p-3, 0x1.afc2bc0000000p-4, -0x1.aecc560000000p-3, 0x1.b6b0d60000000p-3, -0x1.7fb9f80000000p-4, -0x1.41c8540000000p-3, 0x1.c9ef100000000p-1, 0x1.49eeae0000000p-3, -0x1.6367b40000000p-2, 0x1.6e64420000000p-2, 0x1.1045ea0000000p-3, -0x1.44ba760000000p-5, 0x1.8beeb00000000p-5, 0x1.5c2a2c0000000p-4, -0x1.6a2eda0000000p-6, 0x1.b86c7c0000000p-3, 0x1.3519560000000p-2, 0x1.50ce820000000p-2, -0x1.409f660000000p-1, -0x1.ae66b40000000p-4, -0x1.c79acc0000000p-1}
, {-0x1.3c07d40000000p-5, -0x1.b68eb80000000p-1, -0x1.844ab80000000p-6, -0x1.4638aa0000000p-2, 0x1.933bce0000000p-4, -0x1.77f1f40000000p-6, 0x1.d840840000000p-3, -0x1.038ac80000000p-7, -0x1.17ca7e0000000p-3, 0x1.0256580000000p-2, -0x1.577d520000000p-1, 0x1.de899a0000000p-6, 0x1.f3ed2a0000000p-4, 0x1.b702a20000000p-4, -0x1.6f185c0000000p-1, 0x1.0112720000000p-3, 0x1.33bf8e0000000p-4, -0x1.21a6b60000000p-2, -0x1.4c8ed40000000p-6, -0x1.9187080000000p-1, -0x1.8ffa580000000p-2, 0x1.507b860000000p-2, -0x1.54fe0a0000000p-4, 0x1.74d4020000000p-6, -0x1.33b1240000000p-3, 0x1.3fa94e0000000p-2, 0x1.396c4c0000000p-3, -0x1.c600fc0000000p-4, 0x1.fff73c0000000p-3, -0x1.7ed3e40000000p-1, 0x1.4c3eb40000000p-3, -0x1.f65d960000000p-1}
}
, {{-0x1.eb66900000000p-3, -0x1.104c5c0000000p-3, -0x1.72af900000000p-6, 0x1.5cf32e0000000p-4, -0x1.0d1e7c0000000p-3, -0x1.3b978e0000000p-3, 0x1.dd04cc0000000p-6, 0x1.a46c320000000p-4, 0x1.a484160000000p-9, -0x1.7df7d20000000p-4, -0x1.1cd4aa0000000p-4, -0x1.04edb60000000p-2, 0x1.396ade0000000p-6, -0x1.8646800000000p-3, -0x1.4815360000000p-3, 0x1.6cf7820000000p-3, -0x1.fd07d40000000p-4, -0x1.d40e6a0000000p-2, -0x1.e241780000000p-4, -0x1.1fcbe00000000p-1, 0x1.1d23960000000p-2, -0x1.1de7980000000p-2, -0x1.9fcca20000000p-3, -0x1.f484c00000000p-5, -0x1.13fb120000000p-2, -0x1.8763d40000000p-4, -0x1.081b560000000p-3, -0x1.8a33420000000p-4, -0x1.2704a80000000p-4, 0x1.76c2200000000p-3, 0x1.afa26e0000000p-3, -0x1.02c8de0000000p-2}
, {0x1.bf699c0000000p-4, -0x1.042dc80000000p-4, -0x1.355a9c0000000p-3, -0x1.f7add60000000p-3, 0x1.f9a0960000000p-10, 0x1.cca6b80000000p-4, -0x1.0ad8ce0000000p-3, 0x1.e451c40000000p-4, 0x1.d33e9c0000000p-3, 0x1.d071680000000p-4, -0x1.72725a0000000p-6, -0x1.92124c0000000p-10, -0x1.32225a0000000p-3, 0x1.15349c0000000p-6, -0x1.91661c0000000p-2, -0x1.5e56580000000p-3, -0x1.a0b0780000000p-5, -0x1.5bb4b20000000p-3, -0x1.467b940000000p-6, -0x1.5d0dac0000000p-4, -0x1.e0507a0000000p-2, -0x1.95fd460000000p-4, 0x1.09bf900000000p-2, 0x1.deda480000000p-4, -0x1.901ef00000000p-4, 0x1.30788a0000000p-6, -0x1.9c5c560000000p-3, 0x1.45ae140000000p-4, -0x1.0ac74a0000000p-3, 0x1.434c760000000p-7, 0x1.07ae6a0000000p-2, -0x1.ccc7420000000p-2}
}
, {{-0x1.60433a0000000p-3, -0x1.2ba98e0000000p-6, -0x1.4bedf80000000p-3, -0x1.d088320000000p-6, -0x1.65481e0000000p-4, 0x1.61a3780000000p-11, -0x1.dd31740000000p-5, -0x1.0946400000000p-3, -0x1.3074b20000000p-5, -0x1.5a6e640000000p-3, 0x1.2e51340000000p-5, 0x1.16874c0000000p-3, -0x1.d1e6520000000p-4, 0x1.9a5fac0000000p-4, -0x1.8c10500000000p-6, 0x1.5a15640000000p-5, -0x1.5255500000000p-2, -0x1.77e9480000000p-3, -0x1.ca4d540000000p-6, -0x1.ae887a0000000p-4, -0x1.d6b7280000000p-5, -0x1.2e4e680000000p-2, 0x1.a0f3e00000000p-5, 0x1.e69e280000000p-4, -0x1.40ff5e0000000p-2, 0x1.1b62560000000p-3, -0x1.3f67440000000p-3, -0x1.9aa4e60000000p-5, -0x1.28217c0000000p-4, -0x1.3c73460000000p-3, 0x1.2b45520000000p-3, -0x1.059b3e0000000p-2}
, {-0x1.79789e0000000p-4, -0x1.7983960000000p-2, -0x1.9673b60000000p-3, -0x1.c151d80000000p-3, 0x1.7cd32e0000000p-9, 0x1.d9164a0000000p-7, -0x1.38a4940000000p-3, -0x1.586b680000000p-3, -0x1.238d7a0000000p-4, 0x1.0b87040000000p-4, 0x1.5856360000000p-3, 0x1.528b6a0000000p-3, 0x1.0720e40000000p-7, -0x1.8f46600000000p-8, 0x1.5ae4940000000p-4, 0x1.8d1dce0000000p-4, 0x1.b9c74a0000000p-7, -0x1.c750ea0000000p-3, 0x1.5df8240000000p-8, -0x1.7a5f0c0000000p-6, 0x1.d3140a0000000p-5, 0x1.952e4c0000000p-9, 0x1.909b360000000p-4, 0x1.2df39c0000000p-3, 0x1.6cd4de0000000p-4, 0x1.2c70de0000000p-3, -0x1.1063ca0000000p-5, -0x1.1c99c40000000p-4, -0x1.eefd740000000p-5, 0x1.3781e20000000p-9, 0x1.657e7e0000000p-3, -0x1.e0959c0000000p-3}
}
, {{0x1.60be120000000p-6, -0x1.0f71ce0000000p-6, 0x1.ceb7f00000000p-3, -0x1.078b220000000p-1, -0x1.d4d45a0000000p-5, 0x1.6b94420000000p-3, 0x1.7314c80000000p-4, 0x1.6eee1c0000000p-3, -0x1.e855cc0000000p-3, 0x1.f6a77e0000000p-5, -0x1.61c5900000000p-2, 0x1.aef4900000000p-4, -0x1.2d2ed60000000p-6, 0x1.f9751e0000000p-9, -0x1.58ee8c0000000p-2, -0x1.76c90a0000000p-10, 0x1.17d11c0000000p-2, 0x1.bf25e40000000p-3, -0x1.b78fee0000000p-4, 0x1.ffd59c0000000p-3, -0x1.6a2e380000000p-3, -0x1.434a5e0000000p-1, -0x1.44d7560000000p-4, -0x1.644aae0000000p-3, 0x1.6d1f220000000p-4, -0x1.48e89c0000000p-2, 0x1.d208240000000p-6, 0x1.a6120a0000000p-3, 0x1.731f0c0000000p-3, -0x1.828a240000000p-2, -0x1.5e77280000000p+0, 0x1.b14e7e0000000p-2}
, {-0x1.e83b500000000p-4, -0x1.4d77140000000p-5, 0x1.3cd54c0000000p-2, -0x1.9187020000000p-2, -0x1.c9820c0000000p-4, -0x1.75ae940000000p-7, 0x1.181be40000000p-4, 0x1.09e19e0000000p-3, 0x1.6dea1c0000000p-5, -0x1.5898bc0000000p-4, -0x1.18ed440000000p-3, -0x1.3073220000000p-4, 0x1.62de1e0000000p-4, 0x1.043ac20000000p-3, -0x1.9160940000000p-2, 0x1.b2fd100000000p-4, 0x1.5a8c800000000p-2, 0x1.0000160000000p-3, 0x1.a2cbde0000000p-3, 0x1.6bb04a0000000p-4, -0x1.b38c780000000p-5, -0x1.89a0a20000000p-2, -0x1.6216460000000p-3, 0x1.a32fc40000000p-3, 0x1.4c606a0000000p-2, -0x1.b0d0920000000p-6, 0x1.c95bf40000000p-3, 0x1.34b0be0000000p-4, 0x1.1a0f720000000p-2, 0x1.47dcb40000000p-2, -0x1.5bd82c0000000p-1, 0x1.69d28e0000000p-2}
}
, {{-0x1.06da220000000p-2, -0x1.9b51ec0000000p-3, 0x1.baf1cc0000000p-4, 0x1.d5ccfa0000000p-5, -0x1.83f8480000000p-3, 0x1.cad25e0000000p-5, -0x1.a369140000000p-5, -0x1.64ec360000000p-4, 0x1.1923620000000p-2, 0x1.e9b9180000000p-4, -0x1.6920a40000000p-3, -0x1.5a44020000000p-3, -0x1.78177c0000000p-6, -0x1.9869d80000000p-3, -0x1.74ccec0000000p-4, 0x1.2900ca0000000p-5, -0x1.8979d80000000p-4, 0x1.8d98960000000p-4, 0x1.20c87c0000000p-6, -0x1.1c6c3c0000000p-3, -0x1.bf00720000000p-5, -0x1.d194b60000000p-3, -0x1.97b70a0000000p-5, -0x1.59fd080000000p-4, -0x1.13de140000000p-2, 0x1.214e100000000p-3, -0x1.b68e800000000p-4, 0x1.1492d00000000p-3, 0x1.05bec00000000p-3, -0x1.fb8c360000000p-4, 0x1.94b74c0000000p-5, 0x1.35917a0000000p-5}
, {0x1.c90a500000000p-4, -0x1.dab4820000000p-3, -0x1.3135ee0000000p-4, 0x1.0b69d80000000p-4, -0x1.479f1e0000000p-4, -0x1.cb05e80000000p-8, -0x1.571c440000000p-4, -0x1.fd88460000000p-5, -0x1.0ed4380000000p-3, -0x1.4520160000000p-6, -0x1.99511c0000000p-7, -0x1.485df40000000p-4, 0x1.0fed3c0000000p-4, -0x1.57c7920000000p-3, -0x1.9306be0000000p-11, -0x1.862f900000000p-3, -0x1.9c10aa0000000p-4, 0x1.cc0f500000000p-4, 0x1.c1df1a0000000p-4, -0x1.24a44c0000000p-6, 0x1.8d33880000000p-6, -0x1.7a95160000000p-5, -0x1.a84a320000000p-3, 0x1.4bd1e60000000p-4, -0x1.cc650e0000000p-3, -0x1.0590fe0000000p-3, 0x1.6719660000000p-7, 0x1.370d5e0000000p-7, -0x1.5e60040000000p-3, -0x1.646ea40000000p-5, -0x1.712a340000000p-4, -0x1.fcc0ee0000000p-3}
}
, {{-0x1.21b76e0000000p-2, 0x1.fcbc9a0000000p-4, -0x1.0b92cc0000000p-4, 0x1.58a9f80000000p-4, -0x1.f556080000000p-4, -0x1.6f74b40000000p-6, -0x1.645b520000000p-4, 0x1.ad6e020000000p-3, -0x1.57841a0000000p-3, -0x1.92a2940000000p-4, -0x1.c2e6520000000p-3, -0x1.ea416e0000000p-4, -0x1.a2a37a0000000p-4, -0x1.315ae40000000p-3, 0x1.250d9a0000000p-5, 0x1.2ca9600000000p-3, -0x1.b76bfa0000000p-4, -0x1.e82b7a0000000p-4, 0x1.80a8e00000000p-3, -0x1.1a56c80000000p-3, -0x1.883bb80000000p-4, -0x1.ce4b700000000p-3, -0x1.d577e00000000p-5, -0x1.0c064a0000000p-3, -0x1.a881e40000000p-4, -0x1.1a709c0000000p-3, -0x1.f650a40000000p-3, -0x1.f982860000000p-11, -0x1.78ac840000000p-3, 0x1.9abaae0000000p-4, -0x1.e178520000000p-6, -0x1.c8f8a60000000p-3}
, {0x1.1dcfd60000000p-3, -0x1.f6a3060000000p-6, -0x1.98a81c0000000p-4, 0x1.3b2d060000000p-3, 0x1.4b68e60000000p-4, -0x1.1cbc240000000p-4, -0x1.b7c64e0000000p-10, 0x1.9ed3140000000p-3, 0x1.2ac3800000000p-3, 0x1.55952a0000000p-6, -0x1.62b15e0000000p-3, 0x1.7650d80000000p-4, 0x1.623e960000000p-3, -0x1.e750520000000p-3, -0x1.c2d4120000000p-7, 0x1.ba95e40000000p-6, -0x1.9c81800000000p-5, 0x1.03c83a0000000p-3, -0x1.a0a51a0000000p-6, 0x1.9649540000000p-7, 0x1.b490040000000p-6, -0x1.17d6ce0000000p-4, -0x1.ad747e0000000p-6, -0x1.9d0f620000000p-5, -0x1.39649a0000000p-2, 0x1.57498c0000000p-4, -0x1.127c840000000p-5, -0x1.1e51500000000p-2, 0x1.015a400000000p-5, -0x1.0010760000000p-2, -0x1.89b9380000000p-5, -0x1.a89afa0000000p-3}
}
, {{-0x1.c2bea40000000p-4, -0x1.b710c40000000p-2, 0x1.15f6c60000000p-2, -0x1.a2e5f60000000p-2, 0x1.5bccf20000000p-3, 0x1.97a8d40000000p-4, -0x1.0e21c00000000p-4, 0x1.3e444a0000000p-3, 0x1.5da1c40000000p-6, 0x1.1888360000000p-5, -0x1.09d9ae0000000p-2, 0x1.50f0fc0000000p-3, -0x1.d7ef420000000p-8, 0x1.54f73c0000000p-3, -0x1.54f0c80000000p-3, -0x1.04932c0000000p-3, -0x1.3d9dfc0000000p-3, 0x1.7a6bd20000000p-2, 0x1.585d920000000p-3, -0x1.1d31c20000000p-3, 0x1.6e626a0000000p-2, 0x1.f2019a0000000p-2, -0x1.2decfa0000000p-9, -0x1.13aba00000000p-5, -0x1.78e4da0000000p-4, 0x1.36238e0000000p-3, 0x1.19099a0000000p-2, 0x1.1bffca0000000p-8, 0x1.049e100000000p-2, 0x1.cf603e0000000p-1, 0x1.5da2780000000p-3, -0x1.f7af040000000p-4}
, {0x1.497e4e0000000p-4, -0x1.95d7340000000p-2, 0x1.2648ca0000000p-3, -0x1.03a7840000000p-3, 0x1.1203640000000p-6, -0x1.9a63780000000p-5, -0x1.7e3b5c0000000p-5, -0x1.8d98d60000000p-4, -0x1.083a800000000p-3, 0x1.19baf80000000p-7, -0x1.fddcf40000000p-4, 0x1.0664c40000000p-2, 0x1.441f300000000p-3, -0x1.fb82e00000000p-4, 0x1.0e79420000000p-2, -0x1.47da300000000p-7, -0x1.06ea8e0000000p-2, 0x1.063cde0000000p-1, 0x1.0aed260000000p-10, -0x1.303de40000000p-3, -0x1.1e95d60000000p-1, -0x1.a730c20000000p-3, 0x1.22c4120000000p-3, 0x1.7971600000000p-3, 0x1.eb400a0000000p-4, 0x1.9e105a0000000p-3, 0x1.9cb4820000000p-4, 0x1.ae7cca0000000p-5, 0x1.52fc360000000p-2, -0x1.028ba80000000p-1, -0x1.6dcf300000000p-1, 0x1.4b2ab60000000p-3}
}
, {{-0x1.1c81f60000000p-3, -0x1.088b100000000p-3, -0x1.8cb9480000000p-3, 0x1.4f75f60000000p-4, -0x1.9146e40000000p-4, -0x1.170a100000000p-6, -0x1.0f0fd00000000p-6, -0x1.c42fd60000000p-6, 0x1.4ee1a40000000p-3, 0x1.97b9ce0000000p-3, -0x1.706bb40000000p-4, -0x1.dbfcca0000000p-3, 0x1.76e2240000000p-3, 0x1.1465ac0000000p-3, -0x1.f9e77a0000000p-3, -0x1.03ab380000000p-3, -0x1.9e98a20000000p-3, 0x1.da14be0000000p-4, 0x1.1da22e0000000p-3, -0x1.f46e7e0000000p-3, 0x1.5679e40000000p-5, -0x1.568e980000000p-5, -0x1.1afe260000000p-4, 0x1.3014fc0000000p-3, -0x1.17420a0000000p-2, 0x1.ac416e0000000p-13, 0x1.b5da8e0000000p-4, -0x1.4e5c9e0000000p-4, 0x1.5321080000000p-3, 0x1.3104320000000p-4, -0x1.b9715e0000000p-4, -0x1.4c59360000000p-3}
, {-0x1.3f170a0000000p-3, -0x1.985a980000000p-4, 0x1.48740e0000000p-7, -0x1.8c96ec0000000p-4, -0x1.0ff54c0000000p-3, 0x1.72abd00000000p-5, 0x1.1490460000000p-3, -0x1.91dc400000000p-7, 0x1.7b0c360000000p-5, 0x1.e539980000000p-5, -0x1.1e5cf00000000p-2, 0x1.ac64ce0000000p-4, -0x1.1aad960000000p-3, 0x1.b7a3c00000000p-6, 0x1.5497340000000p-6, 0x1.54488a0000000p-8, -0x1.0828e00000000p-5, -0x1.100ca40000000p-3, -0x1.0b03de0000000p-4, -0x1.65aebe0000000p-3, 0x1.7a91560000000p-5, -0x1.c874b20000000p-4, 0x1.13fe0a0000000p-4, 0x1.9772de0000000p-4, -0x1.f65eaa0000000p-3, 0x1.94c0840000000p-5, -0x1.f09b820000000p-4, 0x1.46ca340000000p-3, 0x1.514d320000000p-4, 0x1.5dd00a0000000p-4, -0x1.7925ee0000000p-4, 0x1.f88eee0000000p-4}
}
, {{-0x1.ca9c120000000p-4, 0x1.3ba4f40000000p-6, -0x1.000ea40000000p-4, 0x1.1c04740000000p-4, -0x1.4a312a0000000p-3, 0x1.0cd9ae0000000p-3, 0x1.07c9bc0000000p-3, -0x1.8421e40000000p-7, -0x1.660db80000000p-4, -0x1.85823c0000000p-3, -0x1.23cf340000000p-3, 0x1.d14b380000000p-5, -0x1.c91e980000000p-4, 0x1.b5b9060000000p-4, -0x1.5b27b20000000p-4, 0x1.9872740000000p-5, -0x1.25597e0000000p-2, 0x1.d9ff6e0000000p-5, -0x1.29e3480000000p-4, -0x1.3c47b40000000p-6, -0x1.e0a8560000000p-4, 0x1.ff9af40000000p-5, -0x1.1710880000000p-4, 0x1.fa64a40000000p-6, -0x1.83d2ce0000000p-5, -0x1.dfa7a00000000p-4, 0x1.159e1a0000000p-7, 0x1.9406ec0000000p-4, 0x1.4fbf8a0000000p-6, 0x1.9328d40000000p-4, -0x1.c37afa0000000p-3, -0x1.e042440000000p-8}
, {-0x1.cbd8240000000p-4, 0x1.591a0e0000000p-4, -0x1.263eae0000000p-4, 0x1.2419ee0000000p-5, -0x1.414e8c0000000p-3, -0x1.8ecb0e0000000p-5, -0x1.6b2da40000000p-3, 0x1.93b9960000000p-7, 0x1.57633a0000000p-4, 0x1.5294700000000p-7, -0x1.d6e64c0000000p-4, -0x1.3aaf620000000p-3, 0x1.7862ba0000000p-7, 0x1.9d589e0000000p-4, 0x1.e34d6a0000000p-6, -0x1.ca35e60000000p-3, -0x1.2743560000000p-2, -0x1.d446dc0000000p-5, -0x1.3b28ac0000000p-3, -0x1.b626900000000p-3, -0x1.335c600000000p-6, -0x1.1ee1360000000p-2, -0x1.60638a0000000p-3, 0x1.c04c000000000p-4, -0x1.bbdc940000000p-3, 0x1.ef37c60000000p-3, 0x1.5664180000000p-4, 0x1.02d0f60000000p-3, -0x1.f25a2c0000000p-3, -0x1.fc53dc0000000p-3, 0x1.6d32680000000p-5, -0x1.21f7960000000p-3}
}
, {{-0x1.2d158e0000000p-4, -0x1.24edf40000000p-4, -0x1.5807420000000p-4, -0x1.b3c91a0000000p-7, -0x1.5077200000000p-4, -0x1.2f1ed00000000p-4, -0x1.eccf140000000p-3, -0x1.18799a0000000p-5, 0x1.2089900000000p-3, -0x1.e3edfa0000000p-7, -0x1.8e8a280000000p-6, 0x1.2565880000000p-4, 0x1.c1c66a0000000p-4, -0x1.6f9cda0000000p-3, -0x1.8266900000000p-6, -0x1.ae6f300000000p-5, -0x1.a09e6a0000000p-2, -0x1.7568440000000p-3, 0x1.6195b60000000p-8, -0x1.9ea80e0000000p-2, 0x1.05da5e0000000p-3, -0x1.c2e6360000000p-3, -0x1.a412060000000p-4, 0x1.f25a600000000p-5, -0x1.665ccc0000000p-4, 0x1.acc30c0000000p-4, -0x1.675d920000000p-2, -0x1.df725c0000000p-3, -0x1.3779c80000000p-3, 0x1.eed4e40000000p-5, -0x1.865a3a0000000p-3, -0x1.a2fece0000000p-3}
, {0x1.6d559c0000000p-5, -0x1.4933f60000000p-2, -0x1.08eb060000000p-2, -0x1.b29d6c0000000p-3, 0x1.0e83a00000000p-3, -0x1.7ac22a0000000p-4, -0x1.d43bb20000000p-5, -0x1.77bea60000000p-14, 0x1.4094580000000p-5, 0x1.0ddda40000000p-3, 0x1.42dda20000000p-4, 0x1.bd39820000000p-4, -0x1.8c71500000000p-7, 0x1.4cb13a0000000p-6, -0x1.f955b60000000p-3, 0x1.0976f60000000p-3, -0x1.a797780000000p-2, 0x1.40f7de0000000p-7, 0x1.d82aba0000000p-4, -0x1.be33020000000p-3, 0x1.a18a0c0000000p-6, -0x1.3a55b40000000p-2, 0x1.d412180000000p-3, 0x1.b9d79e0000000p-3, -0x1.5c65580000000p-3, 0x1.004ec20000000p-5, -0x1.78e6d80000000p-5, -0x1.097d280000000p-3, -0x1.a9e4580000000p-5, -0x1.08872a0000000p-5, -0x1.5433280000000p-4, -0x1.bb804a0000000p-6}
}
, {{0x1.982e660000000p-6, -0x1.7045880000000p-3, 0x1.39ab2c0000000p-4, -0x1.35232c0000000p-2, -0x1.43ea5c0000000p-4, -0x1.21a3f40000000p-3, -0x1.0c79980000000p-2, 0x1.3b9a480000000p-3, 0x1.dd7d2c0000000p-4, -0x1.4a40ee0000000p-2, -0x1.3260220000000p-2, 0x1.4b0f420000000p-4, -0x1.31c9080000000p-4, 0x1.068ab20000000p-3, -0x1.6a1ae20000000p-1, -0x1.c7c8800000000p-8, -0x1.a0882c0000000p-3, 0x1.38a2660000000p-4, -0x1.0eb83a0000000p-4, -0x1.2f32ac0000000p-2, -0x1.b76eb40000000p-2, -0x1.ce38bc0000000p-1, -0x1.a32a180000000p-4, -0x1.5f92cc0000000p-3, -0x1.2dfc6e0000000p-2, 0x1.0354a80000000p-2, -0x1.37ed560000000p-6, 0x1.39544c0000000p-4, 0x1.c952f40000000p-4, 0x1.7fa7c60000000p+0, 0x1.b73eb80000000p-3, -0x1.3dd6260000000p-1}
, {0x1.b45ce20000000p-5, 0x1.19a55c0000000p-1, 0x1.1e916e0000000p-4, 0x1.d44c340000000p-2, -0x1.0b289e0000000p-3, -0x1.8e79500000000p-4, -0x1.2287180000000p-4, -0x1.5ada780000000p-3, 0x1.56d5860000000p-6, 0x1.a20bf40000000p-7, 0x1.4849840000000p-2, 0x1.38b3f20000000p-3, 0x1.194fb40000000p-4, -0x1.7050200000000p-3, 0x1.1d316c0000000p-5, 0x1.1c764a0000000p-3, 0x1.d200880000000p-2, -0x1.90598c0000000p-2, 0x1.2a66c80000000p-3, 0x1.30fb4a0000000p-3, -0x1.2d74300000000p-2, -0x1.2e00aa0000000p-1, 0x1.946cba0000000p-7, 0x1.1277600000000p-3, 0x1.dfea180000000p-3, 0x1.bb56aa0000000p-5, 0x1.e46e060000000p-2, -0x1.84cda00000000p-4, 0x1.0d7d2c0000000p-1, 0x1.2e235c0000000p-1, -0x1.bfda900000000p-4, 0x1.f8a3e00000000p-3}
}
, {{-0x1.d270f00000000p-4, 0x1.7feb360000000p+0, -0x1.505cb00000000p-2, -0x1.ad41280000000p-12, -0x1.30da820000000p-3, 0x1.96fa8c0000000p-3, 0x1.9439de0000000p-4, 0x1.58de720000000p-3, -0x1.7f60a80000000p-3, 0x1.293dc80000000p-3, -0x1.8fff580000000p-3, -0x1.9a9c100000000p-4, -0x1.3af2e00000000p-3, 0x1.0ab2b60000000p-5, -0x1.9fd89c0000000p-1, -0x1.49557a0000000p-4, 0x1.3c00b40000000p+0, -0x1.e88b400000000p-2, 0x1.7bd8720000000p-3, 0x1.512dae0000000p-2, -0x1.7077e20000000p-1, 0x1.9ba6b60000000p-5, -0x1.4ffef60000000p-7, -0x1.395ecc0000000p-6, -0x1.eacd5c0000000p-3, -0x1.bf18e60000000p-4, -0x1.fa56d80000000p-4, -0x1.4afd560000000p-2, -0x1.85771a0000000p-2, 0x1.4b24b00000000p-2, 0x1.c0bd3c0000000p-2, -0x1.c056880000000p-2}
, {-0x1.fa2f680000000p-5, 0x1.b60d4e0000000p-1, -0x1.4079440000000p-3, 0x1.4c1a580000000p-1, 0x1.66171c0000000p-3, 0x1.ad21520000000p-4, 0x1.eac2160000000p-4, -0x1.03667a0000000p-3, 0x1.eaf4b00000000p-4, 0x1.6996e20000000p-3, -0x1.558e020000000p-4, -0x1.5384760000000p-3, 0x1.050e940000000p-3, -0x1.667c5c0000000p-7, -0x1.4811b80000000p-1, 0x1.6907120000000p-5, 0x1.0a32960000000p+0, -0x1.186a180000000p+0, -0x1.117a200000000p-3, 0x1.f2df620000000p-4, -0x1.aaab480000000p-3, 0x1.6795ea0000000p-1, 0x1.e99c840000000p-3, -0x1.13dd9c0000000p-4, 0x1.2006460000000p-3, 0x1.b0b7ea0000000p-4, 0x1.690dfa0000000p-3, -0x1.5692400000000p-5, 0x1.1332d00000000p-2, 0x1.58ce6e0000000p-3, 0x1.e932f20000000p-3, 0x1.ef14640000000p-2}
}
, {{0x1.9642cc0000000p-4, -0x1.8f73cc0000000p-2, -0x1.075ece0000000p-5, -0x1.8781760000000p-3, -0x1.0d82a60000000p-4, -0x1.929b4e0000000p-3, -0x1.241bb40000000p-7, 0x1.2f57d60000000p-3, -0x1.71d0880000000p-3, -0x1.c7c9700000000p-4, -0x1.4009920000000p-4, 0x1.65bf060000000p-9, 0x1.8c9f960000000p-3, -0x1.a6881e0000000p-3, -0x1.8849480000000p-3, 0x1.519c4e0000000p-3, -0x1.3ff9440000000p-3, -0x1.0cfa980000000p-3, 0x1.8086a20000000p-3, -0x1.8cae0c0000000p-4, -0x1.37c23a0000000p-3, -0x1.3547300000000p-2, -0x1.72e7a20000000p-4, 0x1.5419360000000p-3, -0x1.01ff420000000p-3, 0x1.29ce320000000p-3, -0x1.3c6e300000000p-4, -0x1.c551bc0000000p-4, -0x1.417b160000000p-1, 0x1.b073f00000000p-5, -0x1.8faa120000000p-3, -0x1.7368f60000000p-2}
, {-0x1.22d43a0000000p-2, 0x1.b09f860000000p-5, -0x1.78818a0000000p-3, -0x1.b6e8260000000p-4, -0x1.5d46b00000000p-6, -0x1.4d7d660000000p-3, 0x1.4d786c0000000p-4, -0x1.1b3b800000000p-4, 0x1.278c780000000p-4, -0x1.9bb8620000000p-5, -0x1.76adde0000000p-2, 0x1.4c5cb20000000p-4, -0x1.65eed80000000p-4, 0x1.32f28c0000000p-4, -0x1.b71a9c0000000p-3, -0x1.b8c2cc0000000p-4, 0x1.17527c0000000p-5, 0x1.94a87a0000000p-5, 0x1.cbfb340000000p-4, -0x1.aecf320000000p-4, -0x1.f174c20000000p-4, -0x1.6483e80000000p-6, -0x1.10c4a00000000p-6, -0x1.bb9c1c0000000p-3, -0x1.262f100000000p-2, 0x1.c6e7220000000p-3, -0x1.f81f860000000p-5, -0x1.d67b400000000p-4, -0x1.31f8500000000p-2, 0x1.9eac280000000p-4, -0x1.d426400000000p-3, -0x1.92fb880000000p-2}
}
, {{0x1.af76c20000000p-4, 0x1.a6e8540000000p-4, -0x1.3f03400000000p-2, -0x1.bfa1f40000000p-4, -0x1.aea2ac0000000p-3, 0x1.5a83ac0000000p-5, 0x1.9e215a0000000p-4, 0x1.6dbe100000000p-3, 0x1.4945140000000p-5, 0x1.1425400000000p-3, -0x1.5a5dbe0000000p-3, 0x1.3171fe0000000p-3, -0x1.f06e180000000p-7, -0x1.5882240000000p-3, 0x1.22b2960000000p-3, -0x1.cdb8920000000p-3, 0x1.f7ad7e0000000p-5, -0x1.f5040a0000000p-7, -0x1.1c3c920000000p-3, -0x1.9a36280000000p-5, -0x1.90b7aa0000000p-3, -0x1.98f4540000000p-3, -0x1.0ff0420000000p-3, -0x1.c3f0540000000p-4, -0x1.2a7b060000000p-3, -0x1.136e700000000p-6, -0x1.1881fc0000000p-2, -0x1.44d30a0000000p-4, -0x1.58f3c00000000p-5, -0x1.cf70320000000p-5, -0x1.83a2060000000p-3, 0x1.3343160000000p-4}
, {-0x1.14497a0000000p-3, 0x1.c343fe0000000p-4, -0x1.565ad40000000p-3, 0x1.4db4560000000p-3, -0x1.44fbde0000000p-3, 0x1.a937fc0000000p-5, 0x1.ad8e180000000p-4, 0x1.01ad220000000p-3, -0x1.ca02220000000p-4, -0x1.f99be80000000p-3, -0x1.1954040000000p-3, -0x1.1e768e0000000p-3, 0x1.10b9140000000p-3, 0x1.d2d5e40000000p-4, -0x1.13c78c0000000p-3, -0x1.a0d6920000000p-4, 0x1.248d220000000p-4, -0x1.0b559a0000000p-4, -0x1.2331980000000p-3, 0x1.d558a40000000p-7, -0x1.42dc2e0000000p-9, -0x1.3588720000000p-2, -0x1.ccae540000000p-5, -0x1.3e2b000000000p-3, 0x1.ef95b80000000p-8, -0x1.cba89e0000000p-4, -0x1.60d7960000000p-3, -0x1.40d5320000000p-4, -0x1.ca3a720000000p-5, 0x1.88b7840000000p-5, 0x1.21655a0000000p-6, -0x1.eddcc80000000p-3}
}
, {{-0x1.74c11a0000000p-3, -0x1.abaf7a0000000p-1, -0x1.4767880000000p-1, 0x1.ee81e00000000p-3, -0x1.6285400000000p-3, 0x1.93b03a0000000p-7, -0x1.ea4a300000000p-3, 0x1.a39c480000000p-3, 0x1.6408080000000p-5, -0x1.771b300000000p-3, -0x1.0298340000000p+0, -0x1.3dd51a0000000p-3, -0x1.531e680000000p-3, -0x1.8be2420000000p-4, -0x1.290ce80000000p-4, 0x1.2ed6660000000p-3, -0x1.e736220000000p-1, -0x1.a2460e0000000p-5, 0x1.8d5af00000000p-3, 0x1.1e77940000000p-1, 0x1.2d12ae0000000p+0, -0x1.fcaa440000000p-1, 0x1.9769480000000p-5, 0x1.4c84180000000p-3, -0x1.d20de60000000p-2, 0x1.1c3ce80000000p-5, -0x1.4ac9100000000p-1, -0x1.8e16800000000p-3, -0x1.1691680000000p-1, 0x1.b334680000000p-5, 0x1.31e33a0000000p-3, 0x1.a97a880000000p-2}
, {-0x1.4937cc0000000p-5, -0x1.9899120000000p-2, -0x1.7e6e2a0000000p-1, -0x1.15efc00000000p-1, 0x1.2b6adc0000000p-4, -0x1.46b4780000000p-4, -0x1.0a3c0e0000000p-3, -0x1.14a6e40000000p-3, 0x1.6120780000000p-2, 0x1.f0ef680000000p-7, -0x1.8806760000000p-1, 0x1.3d160a0000000p-4, -0x1.993f1e0000000p-4, -0x1.02e5f00000000p-2, 0x1.f362ec0000000p-5, -0x1.43b8ce0000000p-3, -0x1.01b08e0000000p-1, 0x1.ea2ed00000000p-1, -0x1.1b705e0000000p-4, -0x1.b162da0000000p-2, -0x1.5fc7f00000000p-1, -0x1.c211040000000p-3, -0x1.540e260000000p-3, -0x1.015cd20000000p-3, -0x1.48357a0000000p-1, -0x1.7a1ffa0000000p-3, 0x1.2cff0c0000000p-3, 0x1.46c2640000000p-4, -0x1.12ec080000000p-3, 0x1.b32f8c0000000p-1, 0x1.33c9ec0000000p-1, -0x1.9573340000000p-2}
}
, {{-0x1.e21b460000000p-3, -0x1.0b4cbc0000000p-2, 0x1.c74c1c0000000p-5, 0x1.84d5260000000p-4, -0x1.dea3780000000p-5, -0x1.9fae200000000p-3, 0x1.510bf20000000p-4, -0x1.8e1da00000000p-4, -0x1.970a9e0000000p-4, -0x1.7961b00000000p-4, 0x1.2df7ca0000000p-4, 0x1.3e133c0000000p-3, 0x1.7080060000000p-3, -0x1.7def260000000p-5, -0x1.ffb1e00000000p-7, 0x1.1b53c00000000p-3, 0x1.f922760000000p-4, 0x1.a7bf7a0000000p-5, 0x1.5d1cca0000000p-6, -0x1.c97a6c0000000p-5, -0x1.9b9c440000000p-4, -0x1.28651e0000000p-2, -0x1.c4d5c80000000p-6, 0x1.0732360000000p-4, -0x1.4fa3fc0000000p-4, 0x1.604c480000000p-4, -0x1.3ab2b60000000p-3, -0x1.9d1c340000000p-4, -0x1.9f99960000000p-3, -0x1.2151940000000p-2, 0x1.8c4c380000000p-4, -0x1.69b3f20000000p-3}
, {-0x1.1610fc0000000p-3, -0x1.de19160000000p-5, -0x1.8f60f00000000p-6, -0x1.bee2900000000p-3, -0x1.dea43c0000000p-5, 0x1.056d060000000p-3, 0x1.6445ca0000000p-3, 0x1.f172240000000p-6, -0x1.b4db960000000p-6, -0x1.3d1fd80000000p-3, -0x1.ab23f00000000p-4, 0x1.2ea1680000000p-6, 0x1.8fe7ba0000000p-3, 0x1.17fddc0000000p-3, 0x1.2a846e0000000p-4, 0x1.06d2840000000p-3, 0x1.c38f440000000p-5, -0x1.d12ed20000000p-6, -0x1.3f1a1e0000000p-7, -0x1.e4db7a0000000p-3, -0x1.94b8540000000p-3, 0x1.a396220000000p-9, 0x1.e82d7e0000000p-4, 0x1.4ad2c60000000p-3, -0x1.48058c0000000p-2, -0x1.54e34c0000000p-3, -0x1.7fe4940000000p-4, -0x1.5723400000000p-3, -0x1.0d65620000000p-2, -0x1.e19ba00000000p-5, -0x1.c9fcb80000000p-6, -0x1.3048300000000p-2}
}
, {{0x1.c3d8c00000000p-6, -0x1.525a4c0000000p-2, -0x1.5a88180000000p-2, 0x1.f01ffe0000000p-3, 0x1.a291fe0000000p-6, -0x1.b4a1040000000p-3, -0x1.abb0300000000p-3, 0x1.fb515e0000000p-6, -0x1.ea23160000000p-5, 0x1.fe50c40000000p-6, -0x1.bf1e0a0000000p-3, -0x1.11c2f40000000p-2, -0x1.83a8080000000p-3, 0x1.3e35320000000p-5, 0x1.2433780000000p-4, 0x1.b38d680000000p-5, -0x1.5b17060000000p-3, 0x1.4a77160000000p-4, -0x1.a642260000000p-3, -0x1.3880000000000p-2, 0x1.94ed6c0000000p-8, -0x1.7a75f80000000p-6, -0x1.6bd2a20000000p-4, 0x1.00a4e80000000p-3, -0x1.d4b13e0000000p-4, 0x1.ff9fac0000000p-3, 0x1.888f500000000p-5, -0x1.6c78120000000p-10, -0x1.2acf460000000p-4, 0x1.b61a380000000p-3, 0x1.b10ebc0000000p-5, -0x1.9108200000000p-3}
, {-0x1.5d10020000000p-3, -0x1.468bd20000000p-5, -0x1.6fa3b20000000p-3, -0x1.21de0e0000000p-3, -0x1.d614580000000p-3, 0x1.0b2a660000000p-4, -0x1.515bf00000000p-6, 0x1.9482200000000p-4, -0x1.7323f80000000p-7, 0x1.2c75260000000p-5, -0x1.91bd4e0000000p-4, -0x1.664fb00000000p-5, 0x1.f158280000000p-5, -0x1.1eb91c0000000p-2, -0x1.296ae40000000p-5, -0x1.6e4be80000000p-3, 0x1.cd55820000000p-4, -0x1.5022dc0000000p-4, 0x1.80e5c20000000p-3, -0x1.9d86320000000p-4, -0x1.53de3c0000000p-5, 0x1.b1e6cc0000000p-4, 0x1.fb465c0000000p-4, -0x1.95e3080000000p-6, -0x1.86197a0000000p-5, -0x1.47aba20000000p-3, -0x1.75ad460000000p-8, 0x1.431df00000000p-5, 0x1.1b30ce0000000p-3, -0x1.3ae82c0000000p-3, -0x1.d895860000000p-2, -0x1.a93df80000000p-3}
}
, {{-0x1.7202860000000p-4, -0x1.74af8c0000000p-3, -0x1.336ff60000000p-2, 0x1.6638500000000p-1, -0x1.948e840000000p-3, -0x1.808bb00000000p-7, 0x1.537d4e0000000p-5, -0x1.4bc5660000000p-3, -0x1.74ae940000000p-2, 0x1.56f7000000000p-4, -0x1.1f55180000000p-4, 0x1.3449aa0000000p-8, -0x1.d8c5920000000p-4, -0x1.48cf740000000p-4, -0x1.f5393a0000000p-1, -0x1.086ede0000000p-4, 0x1.2be6040000000p-2, -0x1.c5c6440000000p-4, -0x1.c1126a0000000p-6, -0x1.7d0b120000000p-3, 0x1.f151c60000000p-3, 0x1.1b15e60000000p+1, 0x1.22ba120000000p-4, 0x1.c064240000000p-4, -0x1.f906520000000p-2, -0x1.30c2de0000000p-4, -0x1.a798420000000p-3, 0x1.6a28340000000p-6, -0x1.2768ae0000000p-3, 0x1.3161c40000000p-1, 0x1.781fc60000000p-1, 0x1.85a9140000000p-4}
, {0x1.e634d80000000p-4, 0x1.729f120000000p-6, 0x1.d0d9240000000p-8, 0x1.421ba20000000p-2, -0x1.a5d92c0000000p-2, 0x1.46e3ce0000000p-4, 0x1.8e1f9a0000000p-4, 0x1.b35fce0000000p-5, 0x1.60a6160000000p-10, -0x1.6bad4a0000000p-4, 0x1.ea8cde0000000p-2, 0x1.64d7b60000000p-4, 0x1.a30a2c0000000p-2, -0x1.4ce2a20000000p-7, 0x1.14ad080000000p-2, 0x1.628ec40000000p-7, -0x1.6fa0100000000p-1, 0x1.b596360000000p-3, 0x1.df61760000000p-5, 0x1.3c5bda0000000p-4, -0x1.348b3e0000000p-5, -0x1.a08dce0000000p-1, 0x1.e95df80000000p-4, 0x1.f27c440000000p-6, 0x1.159e680000000p-4, 0x1.6af09e0000000p-3, 0x1.28ea340000000p-3, -0x1.14d7440000000p-2, -0x1.8938200000000p-3, -0x1.2cfb4a0000000p+0, -0x1.d8c9cc0000000p-1, 0x1.c03ee60000000p-2}
}
}
;

#undef INPUT_CHANNELS
#undef CONV_FILTERS
#undef CONV_KERNEL_SIZE
#undef CONV_GROUPS