/**
  ******************************************************************************
  * @file    weights/conv1d.cc
  * @author  Pierre-Emmanuel Novac <penovac@unice.fr>, LEAT, CNRS, Université Côte d'Azur, France
  * @version 1.0.0
  * @date    24 march 2020
  * @brief   Template generating plain C code for the implementation of Convolutional Neural Networks on MCU
  */

#include <stdint.h>

#define INPUT_CHANNELS    8
#define CONV_FILTERS      16
#define CONV_KERNEL_SIZE  2
#define CONV_GROUPS       1


const float  conv1d_29_bias[CONV_FILTERS] = {0x1.255c300000000p-9, -0x1.0dcffe0000000p-4, -0x1.d6e8420000000p-5, -0x1.06fa3a0000000p-4, -0x1.0382f20000000p-4, -0x1.c721e20000000p-5, 0x1.418a6c0000000p-4, 0x1.fec95c0000000p-4, -0x1.ce62200000000p-5, -0x1.8eccb40000000p-6, -0x1.8dfe700000000p-5, -0x1.8524800000000p-4, -0x1.d704040000000p-5, -0x1.ebda280000000p-5, -0x1.4038000000000p-4, -0x1.5203ce0000000p-5}
;

const float  conv1d_29_kernel[CONV_FILTERS][CONV_KERNEL_SIZE][INPUT_CHANNELS / CONV_GROUPS] = {{{0x1.1f01580000000p+0, 0x1.85bd0c0000000p-5, 0x1.2880660000000p-1, 0x1.061c9e0000000p-1, -0x1.c5a2440000000p-4, 0x1.8992f40000000p-1, -0x1.d670480000000p-4, 0x1.ff41be0000000p-3}
, {0x1.ad65620000000p-1, 0x1.549bec0000000p-2, 0x1.0151200000000p+0, 0x1.2a7f0a0000000p-1, 0x1.77df200000000p-4, 0x1.1437b00000000p-1, 0x1.009b7e0000000p-2, -0x1.7b9ad00000000p-2}
}
, {{0x1.2ec0520000000p-1, 0x1.b32ab00000000p-8, -0x1.9ee3e40000000p-4, 0x1.fb5d920000000p-2, -0x1.61e0a60000000p-3, 0x1.8fa1960000000p-3, -0x1.7dcd3a0000000p-5, -0x1.0fbc2c0000000p-4}
, {0x1.4f1ad00000000p-4, 0x1.03af240000000p-1, 0x1.2d65b60000000p-2, 0x1.07229a0000000p-1, -0x1.3274da0000000p-6, 0x1.02a52c0000000p-2, -0x1.cd0c7e0000000p-3, -0x1.ea14f80000000p-6}
}
, {{0x1.3a14920000000p+0, -0x1.1d79d60000000p-2, 0x1.08dd180000000p-4, 0x1.03cf080000000p-2, 0x1.ad8e880000000p-3, -0x1.c2f1e00000000p-3, -0x1.b186740000000p-4, 0x1.73bcdc0000000p-5}
, {0x1.653cae0000000p-1, 0x1.b610a60000000p-3, 0x1.8941ac0000000p-5, -0x1.883c6a0000000p-3, -0x1.18cf140000000p-2, 0x1.28a9a40000000p-2, 0x1.dff8bc0000000p-3, 0x1.071b7e0000000p-2}
}
, {{0x1.5f75460000000p-1, 0x1.c920580000000p-4, 0x1.ca6df20000000p-3, 0x1.3bb8cc0000000p-1, -0x1.0c70f80000000p-2, 0x1.844c860000000p-2, 0x1.4659ce0000000p-2, 0x1.f186800000000p-3}
, {0x1.60d6cc0000000p-2, 0x1.c28e340000000p-4, 0x1.b98c840000000p-6, 0x1.2bfb3a0000000p-1, 0x1.c569f20000000p-3, 0x1.26d05a0000000p-2, -0x1.e384ec0000000p-5, -0x1.ae6de80000000p-3}
}
, {{0x1.c0e8980000000p-2, 0x1.04c9380000000p-5, -0x1.a23c9a0000000p-9, 0x1.24f9640000000p-3, 0x1.bad0620000000p-3, -0x1.b6a4840000000p-3, -0x1.80cf4c0000000p-3, 0x1.15eee80000000p-2}
, {0x1.d013c40000000p-2, 0x1.13f6b60000000p-1, -0x1.572c220000000p-3, 0x1.f0f4800000000p-2, -0x1.d9a64e0000000p-6, 0x1.0045b00000000p-1, 0x1.e9bcbe0000000p-5, -0x1.9bd2a00000000p-4}
}
, {{0x1.20fe4e0000000p-1, 0x1.4f52320000000p-3, 0x1.681ada0000000p-1, 0x1.4a84520000000p-1, -0x1.5f22040000000p-3, 0x1.9013280000000p-4, 0x1.069dde0000000p-2, -0x1.8a3a740000000p-2}
, {0x1.bcc5d20000000p-4, 0x1.c5c8b20000000p-2, 0x1.7dd1220000000p-2, 0x1.51abfc0000000p-1, -0x1.e3a7860000000p-3, 0x1.17fd9e0000000p-2, 0x1.8986500000000p-4, -0x1.d6f7a00000000p-3}
}
, {{0x1.33c52a0000000p+0, 0x1.2df91c0000000p-5, 0x1.4748dc0000000p-1, 0x1.ce8e900000000p-4, -0x1.2f42400000000p-4, 0x1.59fe5e0000000p-1, 0x1.91f5220000000p-4, -0x1.9945b00000000p-2}
, {0x1.25da2e0000000p+0, 0x1.2afa280000000p-2, 0x1.ffd59e0000000p-1, 0x1.ae1d600000000p-3, 0x1.8644960000000p-5, 0x1.b3e1500000000p-2, 0x1.f10b3e0000000p-3, -0x1.2a70880000000p-4}
}
, {{-0x1.e3e60a0000000p-7, -0x1.0273160000000p-2, -0x1.c193b80000000p-3, -0x1.6f25ee0000000p-2, -0x1.587d780000000p-2, -0x1.bdce560000000p-2, 0x1.4ae8ac0000000p-2, 0x1.0ff0820000000p-3}
, {-0x1.aa1b1e0000000p-4, -0x1.6ffe360000000p-2, -0x1.1864f60000000p-2, -0x1.cb99e20000000p-3, -0x1.d6ccc20000000p-3, -0x1.667dca0000000p-4, -0x1.3f34420000000p-3, 0x1.ae183e0000000p-6}
}
, {{-0x1.d7c3520000000p-3, -0x1.7c6d6c0000000p-3, 0x1.c10bf20000000p-3, -0x1.f24c960000000p-3, -0x1.0db2c20000000p-2, 0x1.4de9960000000p-4, 0x1.ae3b2c0000000p-4, -0x1.34600e0000000p-4}
, {-0x1.8b91fe0000000p-4, -0x1.62f5520000000p-4, 0x1.2690ac0000000p-2, -0x1.766f860000000p-3, 0x1.cf34400000000p-4, -0x1.31dc2e0000000p-2, -0x1.c831520000000p-3, -0x1.6d19420000000p-2}
}
, {{-0x1.3ec7d40000000p-3, -0x1.09a52c0000000p-3, -0x1.a3e06e0000000p-4, 0x1.35821c0000000p-3, -0x1.0e69560000000p-2, -0x1.f3bb340000000p-7, -0x1.c50d8a0000000p-5, -0x1.2617860000000p-9}
, {-0x1.02a3160000000p-4, -0x1.cb7fe60000000p-3, -0x1.361aea0000000p-4, 0x1.4f40620000000p-3, -0x1.f41a080000000p-3, -0x1.04a39a0000000p-2, 0x1.02a1e20000000p-3, -0x1.4b02980000000p-2}
}
, {{0x1.0ed5d20000000p-1, 0x1.1dada80000000p-7, 0x1.2573380000000p-1, 0x1.5262300000000p-1, -0x1.1100c20000000p-3, 0x1.97fc880000000p-2, 0x1.9ee7e20000000p-4, 0x1.947eca0000000p-3}
, {0x1.1edc6e0000000p-1, 0x1.1ee4200000000p-1, 0x1.3652da0000000p-1, -0x1.ab48d40000000p-4, 0x1.3c5f580000000p-4, -0x1.31006c0000000p-6, -0x1.2d98120000000p-2, -0x1.24d6340000000p-3}
}
, {{0x1.982f420000000p-5, -0x1.1aeba20000000p-2, 0x1.0f6de00000000p-2, 0x1.59da580000000p-4, -0x1.e9e8760000000p-4, 0x1.2148780000000p-4, 0x1.97d6ee0000000p-4, -0x1.58dd980000000p-3}
, {-0x1.02908e0000000p-2, 0x1.c3a67e0000000p-4, 0x1.9458140000000p-4, 0x1.ed18ec0000000p-4, 0x1.409bca0000000p-3, -0x1.56c2140000000p-2, 0x1.01c6740000000p-4, -0x1.ea24800000000p-3}
}
, {{0x1.7607920000000p-1, 0x1.d071d60000000p-3, 0x1.dc18b00000000p-2, 0x1.ee21fa0000000p-2, 0x1.ac56fc0000000p-4, 0x1.a5bf120000000p-2, 0x1.5b1d720000000p-4, -0x1.6cec320000000p-5}
, {0x1.608bf60000000p-2, 0x1.9685520000000p-2, 0x1.09a49c0000000p-1, 0x1.0fc8ca0000000p-4, -0x1.4e5da40000000p-3, 0x1.0b9ee40000000p-2, 0x1.903e8e0000000p-2, -0x1.9fee940000000p-4}
}
, {{-0x1.5685c80000000p-4, 0x1.6b24000000000p-4, -0x1.58bff60000000p-2, -0x1.8b6a980000000p-7, 0x1.fbbe5a0000000p-10, -0x1.8104320000000p-4, 0x1.3342ba0000000p-7, 0x1.409c6e0000000p-3}
, {-0x1.c033a00000000p-5, -0x1.5dc3f80000000p-2, 0x1.95099c0000000p-4, -0x1.e5bfac0000000p-3, -0x1.bf4ff00000000p-5, 0x1.d1c9d60000000p-5, -0x1.592b0a0000000p-3, -0x1.20059e0000000p-5}
}
, {{0x1.14892e0000000p-1, 0x1.9be2be0000000p-2, 0x1.8231e80000000p-6, -0x1.014e080000000p-4, 0x1.6dc0540000000p-3, 0x1.f9f8ea0000000p-3, -0x1.735b2e0000000p-3, 0x1.0690220000000p-3}
, {0x1.64b3ae0000000p-1, -0x1.31c0380000000p-2, 0x1.3b81b80000000p-2, 0x1.0774a20000000p-8, 0x1.474b480000000p-4, -0x1.c1e1d00000000p-5, 0x1.33620e0000000p-5, 0x1.01fd760000000p-2}
}
, {{-0x1.4df4240000000p-3, 0x1.d536800000000p-3, -0x1.3b8d680000000p-4, -0x1.f6daa60000000p-5, 0x1.5534740000000p-3, -0x1.5482fa0000000p-2, 0x1.7bc8020000000p-5, 0x1.b3e7160000000p-3}
, {-0x1.173f920000000p-5, -0x1.3691d00000000p-4, -0x1.60df300000000p-5, 0x1.23798c0000000p-2, 0x1.3920100000000p-5, -0x1.318df60000000p-3, -0x1.12dc8c0000000p-2, 0x1.56b42a0000000p-3}
}
}
;

#undef INPUT_CHANNELS
#undef CONV_FILTERS
#undef CONV_KERNEL_SIZE
#undef CONV_GROUPS