/**
  ******************************************************************************
  * @file    weights/conv1d.cc
  * @author  Pierre-Emmanuel Novac <penovac@unice.fr>, LEAT, CNRS, Université Côte d'Azur, France
  * @version 1.0.0
  * @date    24 march 2020
  * @brief   Template generating plain C code for the implementation of Convolutional Neural Networks on MCU
  */

#include <stdint.h>

#define INPUT_CHANNELS    32
#define CONV_FILTERS      32
#define CONV_KERNEL_SIZE  2
#define CONV_GROUPS       1


const float  conv1d_27_bias[CONV_FILTERS] = {0x1.7755f40000000p-5, 0x1.9569b80000000p-3, -0x1.e580ac0000000p-5, -0x1.10591a0000000p-3, -0x1.86ab3c0000000p-2, 0x1.4e9d860000000p-4, -0x1.4240940000000p-5, 0x1.1b3dc20000000p-3, -0x1.f6c05c0000000p-5, -0x1.c7c6420000000p-4, 0x1.4c2df20000000p-2, 0x1.d5c2780000000p-4, -0x1.13ad8e0000000p-3, 0x1.5731680000000p-2, -0x1.3138ae0000000p-4, -0x1.3a4ad00000000p-3, -0x1.02e7ee0000000p-2, -0x1.057d580000000p-5, 0x1.2425e00000000p-2, -0x1.659f6a0000000p-3, -0x1.460cdc0000000p-4, -0x1.f530080000000p-5, -0x1.6559260000000p-4, -0x1.e13e3e0000000p-5, 0x1.8845380000000p-3, -0x1.591cf80000000p-5, -0x1.a88ef40000000p-6, -0x1.ef07b40000000p-5, -0x1.f4b3f40000000p-5, -0x1.fc89ca0000000p-5, -0x1.74abea0000000p-5, -0x1.4786c80000000p-4}
;

const float  conv1d_27_kernel[CONV_FILTERS][CONV_KERNEL_SIZE][INPUT_CHANNELS / CONV_GROUPS] = {{{0x1.1c95f00000000p-1, -0x1.dd57de0000000p-3, 0x1.5525c00000000p-4, 0x1.e15ece0000000p-2, -0x1.0a77ec0000000p-5, 0x1.f90e4e0000000p-5, 0x1.9efbe00000000p-2, 0x1.aefd560000000p-3, 0x1.53d95a0000000p-4, -0x1.980fc60000000p-3, -0x1.b8a70c0000000p-3, -0x1.83f7960000000p-2, 0x1.0386740000000p-2, 0x1.200b4c0000000p-7, 0x1.73b7720000000p-2, 0x1.023ffa0000000p-2, -0x1.e8ca9e0000000p-1, -0x1.14bb2e0000000p+0, 0x1.2053ce0000000p-2, 0x1.390c7c0000000p-3, 0x1.9480ba0000000p-2, -0x1.c326360000000p-1, 0x1.b8874e0000000p-2, 0x1.055e100000000p-3, -0x1.c1c8d60000000p-3, -0x1.7d9eec0000000p-3, 0x1.ad1bf60000000p-8, 0x1.36bd3e0000000p-3, 0x1.d810580000000p-3, -0x1.b1c4360000000p-4, 0x1.3dd9e80000000p-3, 0x1.7a285e0000000p-2}
, {-0x1.02c6500000000p-2, 0x1.c916b20000000p-5, -0x1.85f6240000000p-2, -0x1.3525360000000p-3, 0x1.1fd6ca0000000p-4, -0x1.889fe00000000p-1, -0x1.010a7e0000000p-2, 0x1.8c8e4e0000000p-4, -0x1.0992260000000p-1, 0x1.91ca780000000p-5, 0x1.84ab880000000p-7, -0x1.9e95dc0000000p-3, -0x1.598a8e0000000p-1, 0x1.36d7aa0000000p-3, -0x1.e5b9160000000p-2, -0x1.33c7060000000p-1, -0x1.a00e720000000p-3, -0x1.80d9be0000000p-3, -0x1.05162c0000000p-1, -0x1.25af040000000p-5, 0x1.7260c80000000p-2, -0x1.7443320000000p-3, -0x1.5c55d40000000p-3, 0x1.25f4ce0000000p-5, 0x1.fd71420000000p-3, 0x1.76db800000000p-4, 0x1.8ef1760000000p-4, -0x1.e934d20000000p-1, 0x1.ead14e0000000p-4, -0x1.056cca0000000p-3, -0x1.f108620000000p-6, 0x1.2f8bc80000000p-5}
}
, {{0x1.8a66240000000p-1, 0x1.439a8c0000000p-7, 0x1.17e0d40000000p-2, 0x1.7e1e120000000p-1, 0x1.5006000000000p-3, -0x1.0603960000000p-3, 0x1.51daf80000000p-1, -0x1.af5aca0000000p-5, -0x1.6c8ee20000000p-3, -0x1.95c2640000000p-3, -0x1.8fbc000000000p-4, 0x1.9396da0000000p-2, -0x1.032f460000000p-1, -0x1.3815200000000p-2, -0x1.b38bb00000000p-2, 0x1.3fcbe20000000p-2, 0x1.2bb2a80000000p-2, 0x1.6a61140000000p-4, 0x1.0b526e0000000p-4, -0x1.94f8300000000p-4, 0x1.4343e40000000p-2, 0x1.a9f9ae0000000p-3, 0x1.4ec8820000000p-3, 0x1.e227ce0000000p-4, -0x1.2946fe0000000p-4, -0x1.5f39c20000000p-3, -0x1.aefa1c0000000p-4, -0x1.64fe300000000p-1, -0x1.1c64c40000000p-3, 0x1.2ba4920000000p-3, -0x1.ad19c60000000p-6, 0x1.2adfc60000000p-3}
, {-0x1.075a880000000p-4, 0x1.f3964a0000000p-4, -0x1.c19ef60000000p-4, -0x1.cdacee0000000p-6, 0x1.d7a93a0000000p-8, -0x1.2bff3a0000000p-1, 0x1.25cd0a0000000p-2, 0x1.4169e00000000p-4, -0x1.bee5a80000000p-1, -0x1.7de2a20000000p-4, 0x1.076c600000000p-3, 0x1.32865c0000000p-1, -0x1.8a6a9a0000000p-1, -0x1.c3488e0000000p-7, -0x1.60d8fc0000000p+0, -0x1.c1629e0000000p-2, -0x1.013da40000000p-3, -0x1.2032760000000p-4, -0x1.de5ff00000000p-1, 0x1.2050fc0000000p-3, 0x1.47f6100000000p-3, 0x1.5011760000000p-2, -0x1.b42e980000000p-1, 0x1.7d3d7c0000000p-7, 0x1.3370520000000p-6, 0x1.ebefb00000000p-7, 0x1.141b760000000p-3, -0x1.30dce60000000p-1, -0x1.6ad03e0000000p-6, 0x1.6346d00000000p-3, -0x1.8672ea0000000p-6, 0x1.171b920000000p-3}
}
, {{-0x1.88d8860000000p-5, -0x1.81f9680000000p-4, -0x1.ec22400000000p-3, -0x1.164cd00000000p-7, -0x1.96b5e60000000p-4, -0x1.b4f0520000000p-3, 0x1.b2841e0000000p-6, 0x1.8a07d60000000p-7, -0x1.2eabae0000000p-3, -0x1.1782320000000p-4, -0x1.1511280000000p-3, 0x1.40b9c20000000p-6, -0x1.4e15660000000p-5, -0x1.8e334c0000000p-5, 0x1.ec94720000000p-5, 0x1.d7fb840000000p-4, -0x1.2a74360000000p-3, -0x1.9081280000000p-2, 0x1.c2eba80000000p-6, -0x1.1568de0000000p-3, 0x1.3ab5200000000p-5, -0x1.3d5c040000000p-3, 0x1.73c9a60000000p-5, -0x1.6a7ec60000000p-4, -0x1.ea22b80000000p-3, 0x1.58b0e20000000p-3, 0x1.f584fe0000000p-5, -0x1.59e6e20000000p-3, 0x1.1b09100000000p-4, -0x1.cc125e0000000p-3, -0x1.6ffcbc0000000p-6, -0x1.dc92480000000p-3}
, {-0x1.348c2e0000000p-2, 0x1.1fe0600000000p-4, -0x1.e22e020000000p-3, 0x1.b613c20000000p-4, 0x1.4bf2ce0000000p-4, -0x1.93f6aa0000000p-3, 0x1.21647e0000000p-5, 0x1.92d3460000000p-4, -0x1.c9f6c80000000p-3, 0x1.db96720000000p-4, -0x1.cfe7540000000p-5, -0x1.25fbbe0000000p-4, 0x1.75a3b40000000p-4, -0x1.4a41820000000p-4, -0x1.157e040000000p-2, 0x1.cdb6180000000p-6, -0x1.4e6b4a0000000p-2, -0x1.cf6ac00000000p-4, -0x1.956af00000000p-4, -0x1.f471f20000000p-4, -0x1.2f6b400000000p-4, -0x1.4d02020000000p-3, -0x1.33dfc20000000p-2, 0x1.e145780000000p-4, -0x1.ef61a60000000p-4, -0x1.36488c0000000p-3, -0x1.9a02ea0000000p-3, -0x1.6326940000000p-4, -0x1.b45f4c0000000p-4, -0x1.ecf3520000000p-3, -0x1.2a40800000000p-2, -0x1.279a600000000p-2}
}
, {{0x1.add9a20000000p-4, 0x1.7506ac0000000p-4, -0x1.cb894a0000000p-4, -0x1.443adc0000000p-2, -0x1.b347900000000p-3, -0x1.5323640000000p-7, -0x1.e12dc40000000p-3, 0x1.2526a20000000p-3, -0x1.7867420000000p-4, -0x1.fba7100000000p-4, 0x1.7091c60000000p-6, 0x1.5344b00000000p-4, -0x1.47e4060000000p-7, 0x1.ec49040000000p-5, -0x1.3832ee0000000p-4, -0x1.cab1ae0000000p-5, -0x1.45e6120000000p-2, 0x1.9787460000000p-6, -0x1.c6b4980000000p-3, -0x1.8d58ac0000000p-4, -0x1.494db60000000p-4, -0x1.9d33d80000000p-3, -0x1.1e6e780000000p-2, 0x1.98e6620000000p-5, -0x1.0321e80000000p-4, 0x1.5756960000000p-5, 0x1.9b46300000000p-6, -0x1.cf83180000000p-3, -0x1.5ca43a0000000p-3, 0x1.d128280000000p-6, 0x1.81b4a60000000p-3, 0x1.19884e0000000p-5}
, {-0x1.2e4bc40000000p-6, 0x1.35f1680000000p-5, -0x1.de80ec0000000p-6, -0x1.1e8b9a0000000p-3, -0x1.70cb140000000p-3, -0x1.2abec40000000p-2, -0x1.9b8c760000000p-4, 0x1.45171e0000000p-6, -0x1.f275f40000000p-3, 0x1.1d88c20000000p-5, -0x1.4785ac0000000p-4, -0x1.24d0ae0000000p-3, -0x1.00d77a0000000p-2, 0x1.3417220000000p-5, -0x1.14fc080000000p-3, 0x1.278b7e0000000p-5, 0x1.83dd720000000p-6, -0x1.a735ee0000000p-5, -0x1.e42dac0000000p-4, -0x1.5848a60000000p-5, -0x1.8cc2220000000p-3, -0x1.aa27c00000000p-3, 0x1.064b3a0000000p-6, 0x1.59ad3a0000000p-5, -0x1.d3adac0000000p-3, 0x1.7f67bc0000000p-3, -0x1.b86d720000000p-3, -0x1.feddac0000000p-4, -0x1.4160620000000p-3, 0x1.e5d8fa0000000p-4, -0x1.88ad460000000p-3, 0x1.125e9a0000000p-3}
}
, {{-0x1.47ecdc0000000p+0, 0x1.455cbc0000000p-3, 0x1.60d1460000000p-4, -0x1.b29aa60000000p-5, -0x1.29091c0000000p-3, -0x1.d6e0120000000p-2, -0x1.4950de0000000p-3, 0x1.9878700000000p-8, -0x1.5f26ce0000000p-1, -0x1.1ad7be0000000p-5, 0x1.7ce0e40000000p-4, -0x1.004a000000000p-1, -0x1.b1c1200000000p-1, 0x1.8ac63a0000000p-6, -0x1.1e69de0000000p-1, -0x1.75ed7e0000000p-3, 0x1.d5494c0000000p-4, 0x1.3820a80000000p-2, -0x1.d472d20000000p-3, -0x1.8a9ef40000000p-5, 0x1.1b9fac0000000p-4, 0x1.b33e700000000p-2, -0x1.b7c93e0000000p-1, 0x1.3422be0000000p-8, 0x1.7ea8e20000000p-3, -0x1.32032c0000000p-3, -0x1.2b425e0000000p-3, -0x1.df11f40000000p-2, 0x1.7058920000000p-3, 0x1.de47140000000p-5, -0x1.272f180000000p-7, 0x1.8736c80000000p-4}
, {-0x1.3f13480000000p-7, 0x1.2aa18e0000000p-4, -0x1.9c13480000000p-2, 0x1.1a71620000000p-3, 0x1.4e36720000000p-3, 0x1.d1d1be0000000p-4, 0x1.ab80620000000p-6, 0x1.a6e39a0000000p-3, -0x1.0e746e0000000p-4, 0x1.d2b77e0000000p-4, 0x1.28a03a0000000p-3, 0x1.250b560000000p-5, 0x1.e17d700000000p-4, -0x1.7b4d8a0000000p-3, -0x1.f80b900000000p-2, 0x1.1c30c60000000p-4, -0x1.907c1a0000000p-6, -0x1.1f4e4a0000000p-1, -0x1.70eb700000000p-5, 0x1.4e8b8a0000000p-3, -0x1.ebd9640000000p-2, -0x1.9281520000000p-6, -0x1.9c44da0000000p-2, 0x1.f31a7c0000000p-5, 0x1.11995a0000000p-9, 0x1.8d36d20000000p-5, -0x1.ff21ec0000000p-3, 0x1.e040260000000p-2, -0x1.490a120000000p-6, -0x1.94516e0000000p-4, 0x1.2fe6b40000000p-3, -0x1.d355140000000p-2}
}
, {{-0x1.b0e6280000000p-3, -0x1.5e36b80000000p-5, -0x1.5003100000000p+0, -0x1.ef7d620000000p-7, -0x1.7186240000000p-4, 0x1.f2fe760000000p-3, 0x1.b005740000000p-3, 0x1.1d27f20000000p-5, -0x1.e11cf00000000p-4, 0x1.2700ae0000000p-7, -0x1.b50af40000000p-3, 0x1.282e060000000p-4, -0x1.3024880000000p-4, -0x1.fe99c80000000p-4, 0x1.2577b20000000p-7, 0x1.a328da0000000p-2, -0x1.3e95d20000000p+0, -0x1.70add20000000p+0, 0x1.bf8bd40000000p-3, -0x1.372d280000000p-4, -0x1.7e324e0000000p-1, -0x1.40c0b00000000p-1, -0x1.7fd3d80000000p-7, -0x1.68267a0000000p-6, -0x1.4261fc0000000p-4, -0x1.727a340000000p-7, -0x1.2d3eae0000000p-4, 0x1.9b25040000000p-6, 0x1.cb71f00000000p-4, 0x1.9f48500000000p-4, -0x1.b0a2380000000p-5, -0x1.415ee80000000p+0}
, {-0x1.1e38040000000p-2, -0x1.50d96e0000000p-4, 0x1.1ba73a0000000p-1, 0x1.487b820000000p-2, -0x1.b7f0700000000p-4, 0x1.4ce1140000000p-4, 0x1.1baffe0000000p-3, -0x1.7ef0c80000000p-6, -0x1.246a4a0000000p-2, 0x1.42b2fe0000000p-3, -0x1.a0c5780000000p-5, 0x1.0b0a360000000p-1, 0x1.7463700000000p-6, 0x1.628d440000000p-5, -0x1.2ba8d20000000p-3, 0x1.d23aa20000000p-3, 0x1.63f6220000000p-3, 0x1.2131480000000p-1, -0x1.c803200000000p-4, 0x1.55e6640000000p-3, 0x1.8a99720000000p-2, 0x1.2b43d20000000p-3, -0x1.a249ca0000000p-4, 0x1.33709a0000000p-4, -0x1.4b8fd00000000p-3, 0x1.4814560000000p-4, -0x1.40b83a0000000p-3, 0x1.36e4260000000p-2, -0x1.4223240000000p-8, -0x1.0d68ae0000000p-3, -0x1.114f0c0000000p-4, 0x1.29f29e0000000p-1}
}
, {{0x1.4b9e3c0000000p-4, 0x1.25f8da0000000p-3, 0x1.a3314a0000000p-3, 0x1.edf7a00000000p-4, -0x1.842d720000000p-3, 0x1.1c972e0000000p-3, 0x1.c4493a0000000p-4, 0x1.0740dc0000000p-3, 0x1.3a9ada0000000p-4, 0x1.051fac0000000p-3, 0x1.63c8360000000p-3, 0x1.70b7de0000000p-8, 0x1.29f48e0000000p-9, 0x1.bb724a0000000p-3, 0x1.1268ca0000000p-4, 0x1.a3dec40000000p-2, -0x1.ced6e00000000p-1, -0x1.bb43100000000p-3, 0x1.10720a0000000p-7, 0x1.70d21a0000000p-3, -0x1.04543c0000000p-3, -0x1.7572de0000000p-5, 0x1.1ddc240000000p-2, 0x1.4102300000000p-5, 0x1.f57c420000000p-3, 0x1.7a9b080000000p-6, 0x1.621b180000000p-3, 0x1.c61cba0000000p-3, 0x1.0a2ba80000000p-2, 0x1.e76be80000000p-7, -0x1.6584260000000p-5, 0x1.d7a10c0000000p-4}
, {0x1.b18fee0000000p-3, -0x1.027d920000000p-7, 0x1.9b22c00000000p-4, 0x1.64553a0000000p-2, -0x1.3877c40000000p-4, 0x1.8cbd2e0000000p-2, 0x1.46b11c0000000p-6, -0x1.5309c00000000p-5, 0x1.60b30c0000000p-9, -0x1.0eaea40000000p-7, 0x1.3bc4020000000p-2, 0x1.05590e0000000p-2, 0x1.acbbdc0000000p-3, 0x1.f86bf80000000p-3, 0x1.173d160000000p-2, 0x1.3395b60000000p-5, -0x1.e4523c0000000p-1, -0x1.76c4300000000p-5, 0x1.94c79a0000000p-6, -0x1.41ea700000000p-3, -0x1.fc37ca0000000p-4, -0x1.f2aef60000000p-7, 0x1.7863060000000p-7, -0x1.151d5c0000000p-6, 0x1.a0f4ba0000000p-3, 0x1.80a8360000000p-4, 0x1.f150b80000000p-5, 0x1.120a140000000p-2, 0x1.990be20000000p-4, 0x1.85ed480000000p-6, -0x1.7489520000000p-6, -0x1.ff325e0000000p-5}
}
, {{0x1.4e23040000000p-1, -0x1.7dfe040000000p-7, 0x1.4924860000000p-2, 0x1.1036e00000000p-1, 0x1.272fd60000000p-3, 0x1.16fba20000000p-1, 0x1.6d89e00000000p-2, 0x1.f4d2120000000p-7, 0x1.7527020000000p-1, 0x1.d95f340000000p-3, 0x1.e8e6080000000p-4, 0x1.9c91400000000p-2, 0x1.aed8e40000000p-3, -0x1.a4f5640000000p-5, 0x1.9b3a440000000p-2, 0x1.e2436c0000000p-2, -0x1.8bd33e0000000p-4, 0x1.25d4800000000p-3, 0x1.ece5960000000p-2, -0x1.1bf8f60000000p-3, 0x1.fa63000000000p-3, 0x1.bda6220000000p-3, 0x1.2652820000000p-1, -0x1.5c06b00000000p-4, 0x1.3c48460000000p-3, -0x1.ac27880000000p-4, -0x1.90c9180000000p-3, -0x1.4444720000000p-3, 0x1.90bcfa0000000p-5, -0x1.bb5d4a0000000p-4, -0x1.a106100000000p-4, 0x1.0db6000000000p-2}
, {-0x1.c4334a0000000p-2, -0x1.e120360000000p-4, -0x1.18e0d60000000p-2, -0x1.b5686a0000000p-1, 0x1.311f800000000p-3, -0x1.007c7a0000000p+0, -0x1.2fb2e40000000p-1, -0x1.0d6f840000000p-3, -0x1.056da20000000p+0, -0x1.872c4c0000000p-3, -0x1.01c4040000000p-3, 0x1.2c405a0000000p-1, -0x1.3742320000000p+0, 0x1.1f4ace0000000p-3, -0x1.29b5c80000000p+0, -0x1.f0bbd60000000p-1, -0x1.129e340000000p-3, -0x1.627ce20000000p-1, -0x1.7e760c0000000p-1, -0x1.d4c3b20000000p-5, -0x1.c52aaa0000000p-3, 0x1.2bf0d00000000p-1, -0x1.5f059a0000000p-1, -0x1.ad12c80000000p-4, -0x1.1499020000000p-4, 0x1.0123780000000p-5, 0x1.40444e0000000p-3, -0x1.02bbba0000000p+0, -0x1.44d6ea0000000p-3, 0x1.0bcf340000000p-2, 0x1.8fad560000000p-3, -0x1.c06ec20000000p-3}
}
, {{-0x1.e2e6520000000p-3, -0x1.c2a88a0000000p-3, -0x1.692b100000000p-5, -0x1.d1cbe40000000p-3, -0x1.2548840000000p-3, -0x1.638dba0000000p-2, -0x1.38fec20000000p-4, -0x1.d790cc0000000p-4, -0x1.a19dc20000000p-3, 0x1.5d31fe0000000p-3, 0x1.a949d80000000p-4, 0x1.7a26ba0000000p-4, -0x1.07d29a0000000p-3, -0x1.581ede0000000p-5, -0x1.1baaa60000000p-3, -0x1.e30ad40000000p-5, -0x1.9a52600000000p-3, -0x1.c4eb5c0000000p-5, -0x1.6dfb8c0000000p-2, 0x1.82d6a40000000p-4, -0x1.97227c0000000p-5, -0x1.4d0be80000000p-7, -0x1.97b5580000000p-5, -0x1.95f63c0000000p-6, 0x1.0845460000000p-3, 0x1.c416b60000000p-4, 0x1.7c49ee0000000p-4, -0x1.2227180000000p-2, -0x1.bae12e0000000p-4, -0x1.00383e0000000p-5, -0x1.509e4c0000000p-4, -0x1.90dad00000000p-4}
, {-0x1.187a2c0000000p-3, 0x1.236ac40000000p-3, 0x1.44b5380000000p-4, 0x1.424d320000000p-3, 0x1.00f1fc0000000p-3, -0x1.aadaa00000000p-5, -0x1.7044020000000p-4, 0x1.1390fc0000000p-3, 0x1.740ba40000000p-11, 0x1.76a5900000000p-3, 0x1.f53cfa0000000p-4, 0x1.adcdc20000000p-4, -0x1.33ff740000000p-6, 0x1.35e2ee0000000p-3, -0x1.c8b6d20000000p-4, 0x1.4f9aea0000000p-6, 0x1.5a9fe20000000p-5, -0x1.922fd20000000p-3, -0x1.ce461c0000000p-4, -0x1.7a57000000000p-4, -0x1.fc16b60000000p-6, -0x1.9c9a820000000p-3, -0x1.4c27aa0000000p-3, -0x1.9896a60000000p-3, -0x1.9b21ca0000000p-4, 0x1.9f57a40000000p-4, -0x1.00acde0000000p-5, -0x1.af6bf80000000p-3, 0x1.9b83de0000000p-4, -0x1.0f722c0000000p-5, -0x1.15076e0000000p-3, 0x1.e306a80000000p-6}
}
, {{0x1.1eef020000000p-1, 0x1.1810380000000p-5, -0x1.50c7740000000p-4, 0x1.02caea0000000p-2, -0x1.d1b35c0000000p-8, 0x1.20ebcc0000000p-2, 0x1.32511e0000000p-2, 0x1.90d26a0000000p-3, 0x1.719b6e0000000p-3, -0x1.a33df80000000p-5, 0x1.655c300000000p-3, -0x1.e11ef20000000p-2, 0x1.14f1dc0000000p-1, -0x1.28c3b20000000p-5, 0x1.07f4b60000000p-2, 0x1.6a625e0000000p-2, -0x1.a401ec0000000p-1, -0x1.5bd02c0000000p-4, -0x1.d78e160000000p-7, 0x1.0b53e40000000p-5, -0x1.abf9c20000000p-4, 0x1.057dca0000000p-2, 0x1.908bc20000000p-2, -0x1.fbbe7e0000000p-4, -0x1.376e5c0000000p-4, 0x1.54e3c60000000p-3, 0x1.4872ce0000000p-8, 0x1.119b9c0000000p-1, -0x1.3a275c0000000p-3, 0x1.c8f16c0000000p-8, -0x1.385e5e0000000p-3, 0x1.76704c0000000p-4}
, {0x1.942f680000000p-1, 0x1.46bce80000000p-2, 0x1.f6639c0000000p-3, 0x1.c35ce20000000p-3, -0x1.68d5d80000000p-4, -0x1.7591140000000p-6, 0x1.62f96c0000000p-2, -0x1.3b12480000000p-3, -0x1.62f4da0000000p-3, -0x1.d1e8000000000p-4, 0x1.715b580000000p-3, -0x1.abcda80000000p-3, 0x1.066eb20000000p-1, 0x1.c3b17a0000000p-3, 0x1.0cdbf80000000p-1, 0x1.021d3e0000000p-1, -0x1.198c680000000p-1, 0x1.5baee40000000p-8, 0x1.df76cc0000000p-7, 0x1.42c89a0000000p-3, 0x1.4699ea0000000p-2, 0x1.cfc2780000000p-1, 0x1.5565e80000000p-2, -0x1.36561e0000000p-3, 0x1.5d8e6a0000000p-4, -0x1.053f460000000p-3, -0x1.16df660000000p-3, 0x1.b96efc0000000p-2, -0x1.3f889e0000000p-6, 0x1.d77abe0000000p-2, -0x1.61d9820000000p-3, 0x1.ecbada0000000p-4}
}
, {{0x1.5ca5cc0000000p-2, 0x1.c814760000000p-3, 0x1.8da4000000000p-4, 0x1.a29e9a0000000p-6, -0x1.814cba0000000p-3, 0x1.0cdbf20000000p-2, 0x1.147fd40000000p-5, 0x1.a10c3c0000000p-4, 0x1.0cfd220000000p-2, -0x1.106e660000000p-4, -0x1.9d6fc20000000p-3, 0x1.bdcd6e0000000p-1, -0x1.7181440000000p-3, -0x1.b9d7ea0000000p-4, -0x1.a23e120000000p-3, 0x1.2d16600000000p-3, 0x1.c815940000000p-1, 0x1.bd15d20000000p-3, 0x1.173b9c0000000p-6, 0x1.7d34f20000000p-3, 0x1.54c75a0000000p-3, 0x1.0004240000000p-2, 0x1.dd9fe60000000p-2, -0x1.726efe0000000p-5, -0x1.0bf5a40000000p-5, -0x1.573e860000000p-3, -0x1.b7f9de0000000p-4, -0x1.cdc1e80000000p-4, -0x1.0d298c0000000p-6, 0x1.c85ed60000000p-5, 0x1.a9e5780000000p-5, 0x1.bed6200000000p-4}
, {-0x1.b391020000000p-2, -0x1.0272440000000p-2, -0x1.1eed0c0000000p-1, -0x1.7ec23c0000000p-2, 0x1.5ec3e80000000p-3, -0x1.7c93200000000p-2, 0x1.8aa0060000000p-3, -0x1.2f5e8c0000000p-3, -0x1.3654140000000p-1, -0x1.1923900000000p-3, 0x1.a1b1d00000000p-4, 0x1.25b1260000000p+0, -0x1.0318ba0000000p-1, 0x1.0b41800000000p-3, -0x1.a50cc80000000p-1, -0x1.8ea7bc0000000p-1, -0x1.6a9c580000000p-8, -0x1.8f10640000000p-2, -0x1.b5cea80000000p-2, 0x1.1183fe0000000p-6, 0x1.4050e60000000p-2, 0x1.5fe2460000000p-2, -0x1.302f4c0000000p-1, -0x1.490be20000000p-4, -0x1.72da780000000p-2, 0x1.034b0a0000000p-4, -0x1.07a4700000000p-3, -0x1.e907a40000000p-1, -0x1.69ec480000000p-6, 0x1.023c160000000p-2, 0x1.804fcc0000000p-3, 0x1.fe12020000000p-8}
}
, {{0x1.c82f020000000p-1, -0x1.b069560000000p-4, 0x1.318ca60000000p-2, 0x1.2a2b3a0000000p-1, -0x1.fef1e20000000p-4, 0x1.ff7ace0000000p-2, 0x1.ea87200000000p-2, 0x1.60384e0000000p-5, 0x1.ee62700000000p-2, -0x1.033f940000000p-2, 0x1.55dea60000000p-4, 0x1.3b61d60000000p-6, 0x1.5d544c0000000p-2, -0x1.7166be0000000p-4, 0x1.0460b20000000p-1, 0x1.77cc340000000p-1, -0x1.8c08280000000p-3, -0x1.4cc8600000000p-5, 0x1.b348b60000000p-2, 0x1.56e58e0000000p-6, 0x1.02403c0000000p-2, -0x1.6600880000000p-1, 0x1.9aa3e60000000p-1, -0x1.1a97b20000000p-3, -0x1.806bac0000000p-5, 0x1.a1f0500000000p-9, 0x1.9860ce0000000p-5, 0x1.c7cafe0000000p-3, 0x1.55972e0000000p-3, -0x1.fc926c0000000p-4, 0x1.4b1ce80000000p-7, 0x1.3c7dd00000000p-1}
, {-0x1.eb2a680000000p-1, -0x1.2aff9a0000000p-3, -0x1.a5f0cc0000000p+0, -0x1.82c1180000000p-1, -0x1.480c680000000p-4, -0x1.6440740000000p+0, -0x1.1e1dae0000000p-1, 0x1.c0c7aa0000000p-3, -0x1.05ea280000000p+0, -0x1.2d58000000000p-3, 0x1.16d73e0000000p-4, 0x1.07e1c00000000p-3, -0x1.36324c0000000p+0, -0x1.8dceb80000000p-3, -0x1.ffc6c20000000p-1, -0x1.34d9b20000000p+0, -0x1.55e9980000000p+0, -0x1.21e3ce0000000p+0, -0x1.1e5d760000000p+0, -0x1.b1ecda0000000p-4, -0x1.1394f60000000p-2, -0x1.c888460000000p-1, -0x1.1d16140000000p-1, -0x1.9270600000000p-4, -0x1.5cef5a0000000p-4, 0x1.6206fe0000000p-4, 0x1.e58f680000000p-4, -0x1.22a1180000000p+0, 0x1.a267100000000p-8, -0x1.2afae40000000p-8, 0x1.4efaee0000000p-3, -0x1.d7a2fe0000000p-2}
}
, {{0x1.3066280000000p-2, 0x1.01524c0000000p-2, 0x1.d015b00000000p-2, -0x1.27f9a00000000p+0, -0x1.91532a0000000p-4, -0x1.8eabd80000000p-1, -0x1.6480ca0000000p+0, 0x1.381a3c0000000p-3, -0x1.bef3060000000p-2, 0x1.be5d080000000p-7, -0x1.ae6dbc0000000p-5, -0x1.832a820000000p-1, -0x1.146b840000000p-8, 0x1.60ed620000000p-2, 0x1.7fff4a0000000p-2, -0x1.5bbc200000000p-2, -0x1.3e3a840000000p-4, 0x1.d163180000000p-2, -0x1.83345c0000000p-1, 0x1.b351c20000000p-4, 0x1.8ed1e00000000p-2, -0x1.dcfbc40000000p-6, -0x1.0112ae0000000p-2, -0x1.6b83e80000000p-5, 0x1.bb423c0000000p-3, 0x1.78b77a0000000p-3, 0x1.2ef3140000000p-6, 0x1.bcc94c0000000p-6, -0x1.b709a60000000p-6, 0x1.315b5c0000000p-4, -0x1.1066f40000000p-4, 0x1.b2e6520000000p-2}
, {0x1.07334a0000000p-3, -0x1.0ffeb80000000p-6, 0x1.b0153a0000000p-2, -0x1.75ff880000000p+0, 0x1.04730a0000000p-2, -0x1.9501840000000p-1, -0x1.fa0cd00000000p+0, 0x1.82e4080000000p-3, 0x1.c4e1240000000p-3, 0x1.9ab06a0000000p-4, -0x1.cf918e0000000p-8, -0x1.cbd8360000000p-1, 0x1.0c6b380000000p-8, 0x1.0775200000000p-5, 0x1.7ab93c0000000p-1, -0x1.b9f9040000000p-2, 0x1.0936de0000000p-2, 0x1.47b9980000000p-2, -0x1.7713dc0000000p-1, -0x1.351a520000000p-4, 0x1.6415440000000p-2, -0x1.44d7620000000p-3, 0x1.540bce0000000p-2, 0x1.e582ba0000000p-5, 0x1.03900a0000000p-4, 0x1.ebf4520000000p-5, -0x1.338a3a0000000p-4, -0x1.922a7c0000000p-1, 0x1.9bc7960000000p-4, 0x1.2987480000000p-3, 0x1.00f2cc0000000p-4, 0x1.1464680000000p-2}
}
, {{-0x1.ba94b40000000p-3, 0x1.12b0980000000p-4, -0x1.fdf2d20000000p-3, 0x1.5059e40000000p-2, 0x1.93e24e0000000p-5, -0x1.abcf360000000p-3, 0x1.55965c0000000p-1, -0x1.f15c9c0000000p-4, -0x1.a7c8f60000000p-3, -0x1.12ed020000000p-3, -0x1.dfab6e0000000p-3, 0x1.e326880000000p-4, -0x1.d97ab00000000p-3, 0x1.d0372c0000000p-3, -0x1.83fa0a0000000p-4, 0x1.1dd0a00000000p-2, -0x1.25c4fc0000000p-3, -0x1.11d8260000000p-4, 0x1.ad25aa0000000p-3, -0x1.109ad60000000p-4, 0x1.e821080000000p-7, -0x1.2361180000000p-1, -0x1.d788600000000p-6, 0x1.964d500000000p-4, -0x1.46f5ce0000000p-3, -0x1.6281400000000p-3, -0x1.9452c60000000p-4, 0x1.2cc1e60000000p-3, -0x1.bb638e0000000p-4, -0x1.4ae4140000000p-4, -0x1.35b1880000000p-4, 0x1.f45d200000000p-5}
, {-0x1.a9f77e0000000p-2, 0x1.5ecfaa0000000p-3, 0x1.7328f60000000p-1, 0x1.b1d5de0000000p-2, 0x1.9aa0b80000000p-3, 0x1.00205c0000000p-4, 0x1.279a300000000p-1, 0x1.a869160000000p-4, -0x1.3d23660000000p-6, -0x1.0abe920000000p-4, -0x1.5e6bd60000000p-3, 0x1.5a35a60000000p-3, 0x1.2df9880000000p-2, 0x1.f089c20000000p-6, -0x1.daa4460000000p-5, 0x1.fbf77a0000000p-3, -0x1.8ead8e0000000p-3, 0x1.beee860000000p-1, 0x1.ea6bce0000000p-4, -0x1.04fc2c0000000p-5, 0x1.9c2a180000000p-2, -0x1.f0fcaa0000000p-5, 0x1.4213140000000p-9, 0x1.e95aa20000000p-4, -0x1.d810360000000p-4, 0x1.ed86e60000000p-6, -0x1.6bda5e0000000p-7, 0x1.d6661c0000000p-3, -0x1.d320600000000p-8, -0x1.ff15640000000p-6, 0x1.de799a0000000p-4, 0x1.27efc00000000p-1}
}
, {{0x1.d48e200000000p-6, -0x1.c8c66a0000000p-5, 0x1.1531300000000p-3, -0x1.6478b80000000p-6, -0x1.fff52a0000000p-3, -0x1.4f60980000000p-4, -0x1.b1d1fa0000000p-8, 0x1.5997920000000p-4, -0x1.d4db920000000p-4, -0x1.d040960000000p-3, -0x1.8f53d80000000p-3, 0x1.645e840000000p-3, 0x1.9fabc00000000p-4, -0x1.db99c60000000p-3, -0x1.1457260000000p-2, -0x1.9f857a0000000p-3, -0x1.1bfb5e0000000p-3, -0x1.b055b60000000p-3, 0x1.9385c80000000p-4, -0x1.f338680000000p-3, -0x1.77cd100000000p-3, 0x1.44ae640000000p-4, 0x1.0de7fc0000000p-4, -0x1.95696a0000000p-3, 0x1.3931ac0000000p-3, -0x1.1bb6de0000000p-3, -0x1.00698e0000000p-2, -0x1.e539c00000000p-3, 0x1.c236e00000000p-4, -0x1.ed3c940000000p-3, -0x1.ac3bf20000000p-4, -0x1.9c42dc0000000p-5}
, {-0x1.098dd40000000p-2, -0x1.0cd2a80000000p-4, 0x1.3798060000000p-7, -0x1.cd77520000000p-8, 0x1.9dfb2a0000000p-4, -0x1.62f4980000000p-3, 0x1.4e37c80000000p-5, 0x1.0098b00000000p-3, -0x1.c0643a0000000p-5, -0x1.1650600000000p-4, -0x1.a836560000000p-3, 0x1.002db80000000p-4, -0x1.2301060000000p-3, 0x1.a6ad180000000p-4, -0x1.d2e46c0000000p-4, -0x1.19fa700000000p-3, 0x1.f59b420000000p-6, -0x1.9bd0c80000000p-4, -0x1.f886c60000000p-3, -0x1.140bca0000000p-6, -0x1.175f4c0000000p-4, 0x1.4e7e740000000p-5, -0x1.cf704c0000000p-4, -0x1.bfc9bc0000000p-4, 0x1.0e45d20000000p-3, -0x1.8345fa0000000p-3, 0x1.8985b60000000p-5, 0x1.a7e12a0000000p-5, -0x1.b71a480000000p-3, 0x1.39d5ae0000000p-3, 0x1.846b440000000p-3, -0x1.f8501a0000000p-5}
}
, {{0x1.9ac95a0000000p-4, 0x1.595e0a0000000p-3, -0x1.3620c00000000p+0, -0x1.c65c120000000p-3, 0x1.d333cc0000000p-5, -0x1.e867780000000p-2, -0x1.2ecb440000000p-2, -0x1.c63afa0000000p-8, -0x1.961af00000000p-2, -0x1.bbe6700000000p-4, 0x1.2214bc0000000p-5, 0x1.5f1c5c0000000p-2, -0x1.346b220000000p-2, -0x1.31e97e0000000p-5, -0x1.cef63e0000000p-2, -0x1.be76b00000000p-3, 0x1.28f4760000000p-3, -0x1.4a73760000000p+0, -0x1.4a518e0000000p-2, 0x1.958f160000000p-8, -0x1.7aef580000000p-3, -0x1.a7404a0000000p-2, -0x1.841bda0000000p-4, 0x1.4358f60000000p-3, -0x1.4e98ba0000000p-3, -0x1.984da20000000p-3, -0x1.791bfe0000000p-12, -0x1.9d31a60000000p-3, -0x1.9bc45a0000000p-4, -0x1.5dd56e0000000p-4, 0x1.b2ac800000000p-5, -0x1.ea75f60000000p-2}
, {0x1.2ba2020000000p-1, 0x1.2b59400000000p-4, -0x1.9fd8ec0000000p-2, 0x1.00a1620000000p-1, -0x1.a25e4a0000000p-3, 0x1.95c0620000000p-1, 0x1.1c0c8c0000000p-2, -0x1.1e4b040000000p-4, 0x1.ac57e20000000p-2, -0x1.174d180000000p-3, -0x1.f8a8a60000000p-3, 0x1.e3a4d80000000p-3, 0x1.1d270a0000000p-2, 0x1.37339c0000000p-5, 0x1.555a1c0000000p-2, 0x1.e5321e0000000p-2, -0x1.4176160000000p-2, -0x1.7bfd0c0000000p-2, 0x1.960df80000000p-3, 0x1.508a8c0000000p-5, -0x1.9a41440000000p-3, 0x1.4c4af40000000p-3, 0x1.e4f3320000000p-2, 0x1.aa47620000000p-6, 0x1.7f98b00000000p-8, 0x1.52286e0000000p-9, 0x1.80a8f00000000p-5, 0x1.2af6ae0000000p-1, -0x1.2cd1b60000000p-5, 0x1.e080340000000p-3, 0x1.25ad1e0000000p-3, -0x1.9549ba0000000p-5}
}
, {{0x1.a20cf40000000p-2, 0x1.79019a0000000p-3, -0x1.b42a040000000p-2, 0x1.7029660000000p-6, -0x1.2983e40000000p-3, 0x1.5d38cc0000000p-3, 0x1.24ef720000000p-3, 0x1.6a7c820000000p-11, 0x1.13d2140000000p-2, 0x1.c3fb840000000p-4, 0x1.75dfce0000000p-3, 0x1.19c1480000000p-3, 0x1.003f920000000p-5, -0x1.7d89c20000000p-3, 0x1.4513720000000p-3, 0x1.10a49c0000000p-1, 0x1.9acb060000000p-4, -0x1.3a0d600000000p-1, -0x1.1ac91e0000000p-6, 0x1.dea55c0000000p-3, -0x1.5263720000000p-3, -0x1.b89d0a0000000p-2, 0x1.24abb40000000p-6, 0x1.14ccde0000000p-2, -0x1.1e3c8e0000000p-3, 0x1.8d12ba0000000p-4, 0x1.bfc62e0000000p-4, 0x1.6735920000000p-2, -0x1.330fc00000000p-4, -0x1.950c420000000p-4, 0x1.866a160000000p-3, -0x1.a9bb900000000p-2}
, {0x1.56553a0000000p-2, -0x1.a3faa80000000p-4, -0x1.d5e8ec0000000p-2, -0x1.0f577c0000000p-7, 0x1.6ddcea0000000p-5, -0x1.6bcaa20000000p-4, 0x1.6a68c20000000p-3, -0x1.d6560e0000000p-5, 0x1.d061bc0000000p-2, 0x1.d95fd60000000p-9, -0x1.ca2c440000000p-4, 0x1.db31d00000000p-3, 0x1.0f461e0000000p-2, -0x1.3dab1c0000000p-6, 0x1.26ce0e0000000p-2, 0x1.2137ae0000000p-2, 0x1.5723ea0000000p-3, -0x1.2338f80000000p-4, 0x1.e691500000000p-3, 0x1.c45e4a0000000p-3, -0x1.d4b8700000000p-2, 0x1.1b23960000000p-3, 0x1.6e1ef80000000p-2, 0x1.1ccc2c0000000p-7, 0x1.706f0c0000000p-6, -0x1.6a41a20000000p-3, -0x1.7fe2500000000p-4, 0x1.e2122e0000000p-3, 0x1.018c840000000p-5, 0x1.8dca740000000p-6, 0x1.3b62680000000p-4, -0x1.1e7e920000000p-4}
}
, {{0x1.06d8520000000p-3, 0x1.4da2c20000000p-3, 0x1.87feb60000000p-1, 0x1.7e410c0000000p-2, -0x1.f75f2a0000000p-3, -0x1.8813880000000p-7, -0x1.c560c80000000p-7, 0x1.7b89740000000p-9, -0x1.b5b5dc0000000p-3, -0x1.a2feda0000000p-3, -0x1.df03040000000p-3, -0x1.e156360000000p-3, 0x1.5e914c0000000p-4, -0x1.ecb9f00000000p-5, 0x1.6fb0900000000p-3, 0x1.bd61120000000p-2, -0x1.7b094c0000000p+0, 0x1.011ce00000000p-2, 0x1.92a6100000000p-3, 0x1.213f3a0000000p-3, 0x1.dd99000000000p-5, -0x1.091a400000000p+0, 0x1.a1ad460000000p-3, 0x1.fe85dc0000000p-4, 0x1.31bdf20000000p-4, -0x1.78022a0000000p-7, -0x1.2331e40000000p-3, 0x1.52e4f60000000p-3, -0x1.cfbc7e0000000p-4, 0x1.701b280000000p-5, 0x1.c31fac0000000p-3, 0x1.40d1020000000p-2}
, {-0x1.27cdfa0000000p-3, -0x1.b6a3d00000000p-6, 0x1.a1ca940000000p-1, 0x1.34a92a0000000p-2, -0x1.c62f580000000p-3, 0x1.9067660000000p-2, 0x1.4e5d380000000p-3, -0x1.aaaa420000000p-3, -0x1.ed47fc0000000p-4, -0x1.1784580000000p-2, -0x1.0e17ca0000000p-5, -0x1.a165c80000000p-7, 0x1.8f6b100000000p-3, -0x1.8dce5e0000000p-4, -0x1.2a06480000000p-5, 0x1.7b8f1e0000000p-2, -0x1.a4db1c0000000p+0, -0x1.b5f4840000000p-5, -0x1.c5ef680000000p-5, 0x1.63421c0000000p-6, -0x1.1e26cc0000000p-3, -0x1.fd88360000000p-1, 0x1.d8add20000000p-4, -0x1.19f7bc0000000p-2, -0x1.96a3960000000p-7, 0x1.a1b2840000000p-3, -0x1.7c87700000000p-3, 0x1.71239e0000000p-5, 0x1.f646040000000p-3, 0x1.7cada80000000p-4, 0x1.1da9000000000p-5, 0x1.5548d60000000p-2}
}
, {{-0x1.b8bb440000000p-2, -0x1.f72d5a0000000p-4, -0x1.23eb600000000p-1, -0x1.0e2d520000000p-5, -0x1.1545220000000p-3, -0x1.1218da0000000p-1, 0x1.1002000000000p-6, 0x1.7dd5920000000p-4, 0x1.e553f20000000p-5, -0x1.b4f5840000000p-3, -0x1.9732940000000p-3, 0x1.8feee60000000p-6, -0x1.71e8da0000000p-2, -0x1.1c989a0000000p-5, -0x1.79f5780000000p-3, -0x1.7992ba0000000p-2, -0x1.eecd680000000p-3, -0x1.cd415a0000000p-4, -0x1.2691060000000p-3, 0x1.2c13f60000000p-4, 0x1.1775040000000p-2, -0x1.091fee0000000p-1, -0x1.52d4160000000p-2, -0x1.fc92340000000p-3, 0x1.3775f00000000p-3, -0x1.fd88600000000p-4, -0x1.f4db680000000p-3, -0x1.367f2a0000000p-2, -0x1.36f0000000000p-3, -0x1.89cd540000000p-3, -0x1.5562240000000p-4, -0x1.ea474e0000000p-3}
, {-0x1.47e51c0000000p-4, 0x1.7b45840000000p-5, -0x1.f8fe5e0000000p-5, -0x1.46d85a0000000p-3, 0x1.03ba8c0000000p-3, -0x1.d1f3a40000000p-4, 0x1.8cbca60000000p-7, 0x1.346f040000000p-4, 0x1.7d3be60000000p-3, 0x1.f2c0160000000p-5, 0x1.2a6d540000000p-6, -0x1.2db9cc0000000p-7, -0x1.0095c00000000p-2, -0x1.03378c0000000p-4, -0x1.1b51ee0000000p-2, -0x1.51655e0000000p-2, 0x1.2002760000000p-2, 0x1.791de20000000p-4, -0x1.70cc320000000p-5, -0x1.b9284c0000000p-3, 0x1.c87d520000000p-3, -0x1.58484a0000000p-1, -0x1.54c27e0000000p-3, -0x1.2546160000000p-3, -0x1.7bafb20000000p-8, 0x1.645cd20000000p-4, -0x1.5be8380000000p-6, -0x1.8348ca0000000p-3, 0x1.1df9b60000000p-3, -0x1.be4ea60000000p-3, 0x1.88ec5e0000000p-6, 0x1.ed9cfc0000000p-4}
}
, {{0x1.85b9e00000000p-4, -0x1.5f8d0c0000000p-3, -0x1.33d4220000000p-2, -0x1.96225a0000000p-2, 0x1.5c7e2a0000000p-5, -0x1.6382fe0000000p-2, 0x1.3f58b00000000p-5, -0x1.4fb8220000000p-3, -0x1.d71a4a0000000p-2, 0x1.93383e0000000p-4, 0x1.f9f1e60000000p-5, 0x1.cd9cee0000000p-2, 0x1.d2f85a0000000p-4, -0x1.0ce9ec0000000p-5, 0x1.060f1e0000000p-2, -0x1.88c89c0000000p-3, -0x1.68cdd40000000p-4, -0x1.1409f40000000p-7, -0x1.b9b5660000000p-4, -0x1.3eab740000000p-3, -0x1.1acd120000000p-1, -0x1.8f536e0000000p-3, 0x1.12a38e0000000p-2, -0x1.eea26c0000000p-4, 0x1.cdbe3a0000000p-5, 0x1.a462ca0000000p-3, -0x1.e6b8040000000p-6, -0x1.3f81e20000000p-3, 0x1.82be780000000p-3, -0x1.e0bc440000000p-3, 0x1.96503c0000000p-3, -0x1.91bc440000000p-4}
, {-0x1.2500a80000000p-5, -0x1.c514ce0000000p-3, -0x1.60aa160000000p-4, -0x1.e456260000000p-3, -0x1.ce101e0000000p-7, -0x1.1250bc0000000p-1, -0x1.4394060000000p-2, -0x1.96bf9c0000000p-5, -0x1.3907260000000p-3, 0x1.0b731a0000000p-3, -0x1.c09a020000000p-3, -0x1.70fcce0000000p-4, -0x1.88eea80000000p-2, -0x1.11cd360000000p-2, -0x1.0a3aae0000000p-2, -0x1.3b6f320000000p-2, -0x1.9456c20000000p-3, -0x1.47ac320000000p-2, -0x1.f4dba60000000p-2, -0x1.3475760000000p-3, -0x1.e09fda0000000p-4, -0x1.3428040000000p-3, -0x1.9a5ad20000000p-3, -0x1.59df680000000p-3, -0x1.b180f20000000p-3, 0x1.52992c0000000p-3, -0x1.668e060000000p-3, -0x1.107cc80000000p-2, 0x1.0e344a0000000p-4, -0x1.d7131c0000000p-7, 0x1.1665cc0000000p-3, -0x1.90fa5a0000000p-3}
}
, {{0x1.b9d4560000000p-2, 0x1.94d6c40000000p-6, 0x1.bbefb00000000p-4, 0x1.f03eba0000000p-3, -0x1.3ef8d40000000p-4, 0x1.d562740000000p-2, 0x1.ab3c600000000p-3, 0x1.d042020000000p-5, 0x1.c449760000000p-4, -0x1.1a1e7c0000000p-3, -0x1.8a0af20000000p-4, -0x1.7147b60000000p-4, 0x1.324aa00000000p-2, 0x1.a7cc140000000p-3, 0x1.e2a3740000000p-3, 0x1.420bf00000000p-2, -0x1.9581020000000p-1, -0x1.eb56e00000000p-5, -0x1.0646480000000p-4, 0x1.65a7580000000p-7, -0x1.8ac02c0000000p-4, -0x1.8fd3400000000p-2, 0x1.0ef9040000000p-2, -0x1.004bc60000000p-3, 0x1.d2efa80000000p-4, 0x1.a2610a0000000p-5, -0x1.ddf17a0000000p-4, 0x1.dc17b20000000p-2, 0x1.2fdc900000000p-4, 0x1.873abc0000000p-2, 0x1.1110440000000p-3, 0x1.b5deec0000000p-5}
, {0x1.0a81700000000p-1, 0x1.bb1c6e0000000p-4, 0x1.4f62fc0000000p-3, 0x1.8071960000000p-3, -0x1.4760340000000p-5, 0x1.3258e60000000p-3, 0x1.d523b40000000p-3, -0x1.1036140000000p-4, 0x1.2bb7a00000000p-2, -0x1.4883ee0000000p-3, 0x1.496e800000000p-3, -0x1.9d4f360000000p-2, 0x1.0fdca40000000p-1, -0x1.964fb60000000p-6, 0x1.e598520000000p-2, 0x1.30d0300000000p-2, -0x1.070b6c0000000p-1, -0x1.d8192e0000000p-3, 0x1.7c848e0000000p-3, 0x1.632f320000000p-5, 0x1.0a185a0000000p-4, -0x1.a65e560000000p-5, 0x1.0c4c1a0000000p-2, 0x1.5021ac0000000p-3, 0x1.aa21720000000p-4, -0x1.ba06960000000p-5, -0x1.39123a0000000p-4, 0x1.355c1e0000000p-1, -0x1.1337020000000p-5, 0x1.a952dc0000000p-5, 0x1.9b14840000000p-6, -0x1.a4ac6e0000000p-4}
}
, {{-0x1.c78b480000000p-4, 0x1.49e25a0000000p-5, -0x1.21720e0000000p-4, 0x1.3c85fe0000000p-4, -0x1.efaf260000000p-8, -0x1.6ddb640000000p-5, -0x1.1c406e0000000p-2, -0x1.320ef60000000p-4, -0x1.a2a1ec0000000p-5, -0x1.52852e0000000p-3, -0x1.c022000000000p-4, -0x1.b2c2f60000000p-3, 0x1.4532440000000p-5, -0x1.8458560000000p-4, -0x1.7344f40000000p-7, -0x1.1a28140000000p-2, -0x1.995dac0000000p-3, -0x1.656cca0000000p-5, -0x1.6464fa0000000p-5, 0x1.2e9f080000000p-3, -0x1.0fb93e0000000p-2, -0x1.02ec5e0000000p-3, -0x1.61ad220000000p-3, 0x1.d723c80000000p-8, -0x1.7ece100000000p-4, -0x1.ab7c3e0000000p-3, -0x1.f7c5900000000p-5, 0x1.a547c40000000p-8, -0x1.72b0700000000p-3, 0x1.83bce20000000p-6, -0x1.87e1b00000000p-3, -0x1.34ca960000000p-2}
, {0x1.07e2200000000p-4, -0x1.c7fd2c0000000p-4, -0x1.af23a60000000p-3, -0x1.4089820000000p-5, -0x1.43d5240000000p-3, -0x1.6ad7a00000000p-6, 0x1.0f122c0000000p-4, -0x1.730d5a0000000p-7, -0x1.0490460000000p-3, 0x1.fa7ada0000000p-4, -0x1.155ad20000000p-3, 0x1.2084aa0000000p-3, -0x1.2432b40000000p-3, -0x1.11c2c80000000p-6, -0x1.efe36e0000000p-4, 0x1.022f560000000p-3, -0x1.7205a00000000p-3, -0x1.3e73160000000p-8, 0x1.2a4a460000000p-3, -0x1.cdf6fe0000000p-5, -0x1.e001020000000p-4, -0x1.43fe4c0000000p-4, -0x1.1fc6100000000p-2, -0x1.a642c60000000p-3, 0x1.2ba7120000000p-3, -0x1.69d1a60000000p-3, -0x1.ea848e0000000p-6, 0x1.460ac40000000p-4, -0x1.ae55400000000p-3, -0x1.63e2c40000000p-5, 0x1.1fdfd20000000p-3, -0x1.aad7e20000000p-3}
}
, {{0x1.1a02400000000p-6, -0x1.31dc0a0000000p-3, 0x1.a4cb460000000p-5, -0x1.f3d6b20000000p-3, 0x1.213c140000000p-3, 0x1.2fd7ea0000000p-6, 0x1.e2b0a00000000p-5, 0x1.c3222a0000000p-3, -0x1.8f44780000000p-2, 0x1.27e23e0000000p-3, -0x1.c3824e0000000p-4, 0x1.2a43140000000p-3, -0x1.15b80a0000000p-3, -0x1.74f1320000000p-4, -0x1.c73f4a0000000p-4, -0x1.92756c0000000p-4, 0x1.fa8edc0000000p-5, -0x1.5ccd2e0000000p-2, 0x1.2913340000000p-3, -0x1.cde7920000000p-4, -0x1.68c4aa0000000p-4, 0x1.4857020000000p-4, -0x1.29d2300000000p-3, 0x1.24fd7e0000000p-3, 0x1.6f7cf40000000p-3, 0x1.407c880000000p-3, 0x1.4975740000000p-5, -0x1.42dcbc0000000p-2, -0x1.ae6da00000000p-3, 0x1.3eeb840000000p-6, 0x1.6b13900000000p-3, -0x1.a3917c0000000p-7}
, {-0x1.3920f40000000p-5, -0x1.2f97020000000p-4, -0x1.5ad1020000000p-3, -0x1.8ca5c00000000p-4, -0x1.3772de0000000p-3, 0x1.9ca2ea0000000p-6, -0x1.a402a80000000p-3, -0x1.8ae1c40000000p-4, -0x1.c69a000000000p-2, -0x1.1295980000000p-3, 0x1.0402f00000000p-4, -0x1.b35a280000000p-3, -0x1.e15c8c0000000p-3, -0x1.ff85440000000p-3, -0x1.87ab4c0000000p-4, -0x1.258f4c0000000p-6, 0x1.a9812a0000000p-4, -0x1.ad55dc0000000p-3, -0x1.3558540000000p-4, -0x1.4fe95e0000000p-7, 0x1.746dca0000000p-3, 0x1.63c4280000000p-4, -0x1.fd0f240000000p-3, -0x1.fe98200000000p-4, -0x1.61804c0000000p-3, -0x1.1918500000000p-3, -0x1.c25d8e0000000p-3, -0x1.3d32520000000p-3, 0x1.362dd40000000p-4, -0x1.ea3c380000000p-4, -0x1.9729280000000p-3, 0x1.3261f80000000p-5}
}
, {{0x1.628fac0000000p-3, 0x1.b249560000000p-4, 0x1.3cddf80000000p-1, 0x1.30374e0000000p-2, 0x1.4458440000000p-3, 0x1.e6a0c80000000p-9, -0x1.a188d80000000p-6, -0x1.3635580000000p-7, -0x1.b4f5a40000000p-6, 0x1.a8896e0000000p-3, 0x1.b3b4540000000p-3, 0x1.677a960000000p-3, 0x1.5ee9880000000p-12, 0x1.0296460000000p-6, 0x1.50840c0000000p-6, 0x1.53836c0000000p-3, -0x1.0ea05c0000000p+0, -0x1.0bdf800000000p-3, 0x1.35a99c0000000p-3, 0x1.e01f420000000p-5, 0x1.bb61120000000p-4, -0x1.95a45c0000000p-1, 0x1.d14fbc0000000p-3, -0x1.a2e5140000000p-4, 0x1.2c60ee0000000p-5, 0x1.5afc400000000p-3, 0x1.1a1afa0000000p-3, 0x1.6c52a20000000p-2, -0x1.3292c80000000p-4, -0x1.a5124a0000000p-9, 0x1.59653e0000000p-6, 0x1.c13b000000000p-4}
, {0x1.5c6a1c0000000p-4, 0x1.3ee2e60000000p-4, 0x1.7702420000000p-2, 0x1.68ba860000000p-2, -0x1.6338ac0000000p-3, 0x1.31b94a0000000p-2, 0x1.de548a0000000p-3, -0x1.387c260000000p-4, -0x1.cd6a2c0000000p-3, -0x1.cc97700000000p-5, 0x1.43a6e60000000p-3, -0x1.fbf3080000000p-4, 0x1.c4009a0000000p-3, 0x1.a747180000000p-5, 0x1.9291780000000p-3, 0x1.ea9d500000000p-2, -0x1.5481d80000000p+0, -0x1.837d1c0000000p-3, 0x1.7b376a0000000p-4, 0x1.4e823e0000000p-3, 0x1.d479b60000000p-11, -0x1.fc7c820000000p-2, 0x1.7038600000000p-3, -0x1.5b51340000000p-4, -0x1.b3099c0000000p-6, 0x1.75b3ee0000000p-3, -0x1.10d6c20000000p-3, 0x1.2324a40000000p-4, -0x1.d45a740000000p-4, -0x1.1f216c0000000p-3, -0x1.4298b20000000p-4, 0x1.b726740000000p-4}
}
, {{-0x1.6aa8520000000p-2, 0x1.641ef20000000p-4, 0x1.0c21760000000p-1, 0x1.3d38480000000p-1, -0x1.c5dcf60000000p-5, -0x1.12bda20000000p-6, 0x1.1ea9020000000p-1, 0x1.4917fa0000000p-3, -0x1.0de0740000000p-7, -0x1.9c2c4e0000000p-4, -0x1.3201780000000p-6, 0x1.3ebfd00000000p-2, 0x1.5f7e580000000p-5, 0x1.e1e35e0000000p-6, -0x1.5930ec0000000p-2, 0x1.78dbdc0000000p-2, -0x1.47d1ea0000000p-3, 0x1.dbaea20000000p-1, 0x1.2e9d820000000p-3, -0x1.4ddee20000000p-3, 0x1.5081be0000000p-1, -0x1.61eea80000000p-2, -0x1.89cada0000000p-2, 0x1.d9e29a0000000p-5, 0x1.91bcd20000000p-3, 0x1.c928fc0000000p-5, -0x1.13c37c0000000p-3, 0x1.9986b20000000p-4, 0x1.aab56c0000000p-3, -0x1.100b920000000p-3, 0x1.cefdcc0000000p-3, 0x1.868fb60000000p-1}
, {-0x1.79b16a0000000p-3, -0x1.cdd33e0000000p-5, -0x1.1ed3b40000000p-3, 0x1.76bc6a0000000p-2, 0x1.77135e0000000p-3, -0x1.83a6920000000p-3, 0x1.2c0f940000000p-2, -0x1.1bb31a0000000p-4, -0x1.6d402a0000000p-5, -0x1.b5eb400000000p-4, 0x1.3dc38e0000000p-3, 0x1.0ef3420000000p-2, 0x1.dd78400000000p-10, 0x1.35a6ee0000000p-3, -0x1.d266960000000p-4, 0x1.39b3480000000p-3, -0x1.de89480000000p-6, 0x1.c9053e0000000p-4, 0x1.c50ebe0000000p-4, -0x1.f2889e0000000p-4, 0x1.1def2a0000000p-4, -0x1.68434e0000000p-1, 0x1.7bd08e0000000p-3, 0x1.48ac460000000p-5, -0x1.1cac460000000p-3, -0x1.e6a66a0000000p-4, -0x1.cb4e540000000p-4, -0x1.1b077c0000000p-3, -0x1.980bc80000000p-3, -0x1.aea4600000000p-5, 0x1.6ea0ba0000000p-3, -0x1.41bb320000000p-2}
}
, {{0x1.44c3140000000p-4, 0x1.0f81b60000000p-5, -0x1.156ef80000000p-4, 0x1.7fd7480000000p-3, -0x1.40040e0000000p-4, -0x1.76ce7e0000000p-3, 0x1.9da85e0000000p-3, -0x1.5ad55e0000000p-4, -0x1.6d199c0000000p-4, -0x1.160a7a0000000p-4, 0x1.93b1ee0000000p-4, -0x1.4422240000000p-3, 0x1.36350a0000000p-3, -0x1.5ecb5e0000000p-7, -0x1.a782ce0000000p-4, -0x1.1093fe0000000p-6, -0x1.0c241e0000000p-3, 0x1.a4f3200000000p-6, -0x1.78799a0000000p-5, 0x1.958f5c0000000p-3, 0x1.8cbf580000000p-8, -0x1.5ba3400000000p-3, -0x1.5a7ae80000000p-5, 0x1.4504ae0000000p-4, -0x1.1a5df80000000p-4, -0x1.16e19e0000000p-3, 0x1.16b9360000000p-3, -0x1.292c8e0000000p-4, -0x1.bf90fa0000000p-4, -0x1.2a0f680000000p-4, -0x1.a57bb80000000p-4, 0x1.26d29c0000000p-6}
, {0x1.6fac2e0000000p-4, 0x1.2fd3260000000p-3, 0x1.a0d0c20000000p-5, 0x1.fbf68e0000000p-7, 0x1.d596900000000p-3, -0x1.bbc5960000000p-4, -0x1.397c900000000p-3, 0x1.98aed40000000p-3, -0x1.19f8140000000p-3, -0x1.ce74780000000p-5, 0x1.a5b6820000000p-4, -0x1.1a117c0000000p-3, -0x1.c1b97a0000000p-4, 0x1.37cef20000000p-3, 0x1.6788620000000p-3, -0x1.c997280000000p-3, -0x1.19451a0000000p-3, -0x1.f9b78c0000000p-4, -0x1.b2fdc20000000p-4, 0x1.3bfe880000000p-4, 0x1.9f7cb60000000p-3, -0x1.44f97a0000000p-3, -0x1.5a45520000000p-3, -0x1.86e6980000000p-3, 0x1.1be7280000000p-4, -0x1.a19ed80000000p-3, -0x1.fb5acc0000000p-8, 0x1.96c47e0000000p-5, 0x1.aa9f800000000p-4, 0x1.a412c60000000p-3, 0x1.5a84a80000000p-3, -0x1.a5beb20000000p-3}
}
, {{-0x1.1af1e20000000p-5, -0x1.36cb640000000p-4, -0x1.8185d00000000p-3, 0x1.4c858e0000000p-4, -0x1.550d520000000p-3, 0x1.7a780a0000000p-5, -0x1.e3f87a0000000p-5, 0x1.60df620000000p-3, -0x1.5af7de0000000p-3, -0x1.09f5100000000p-3, 0x1.117dae0000000p-3, -0x1.02a4400000000p-4, -0x1.2470fc0000000p-2, 0x1.7cb1660000000p-3, 0x1.dbab980000000p-5, 0x1.9a9b760000000p-3, -0x1.aed4600000000p-3, -0x1.6506ea0000000p-3, -0x1.54ceda0000000p-3, -0x1.b7b2140000000p-3, 0x1.2edc2a0000000p-4, 0x1.5202f60000000p-3, -0x1.13ec2c0000000p-2, -0x1.d0ebaa0000000p-3, -0x1.083c460000000p-3, 0x1.0068a80000000p-7, -0x1.d471cc0000000p-6, 0x1.3f9c0c0000000p-5, -0x1.6544ee0000000p-3, -0x1.796d480000000p-5, 0x1.9914d80000000p-4, -0x1.7d1c8a0000000p-3}
, {0x1.0a61e80000000p-4, -0x1.72fd5a0000000p-4, -0x1.bb98dc0000000p-4, -0x1.28e02e0000000p-3, -0x1.142cf80000000p-5, -0x1.026d3a0000000p-2, -0x1.27e29a0000000p-2, 0x1.0059ea0000000p-6, 0x1.a31bfa0000000p-4, 0x1.a0f0fc0000000p-3, -0x1.c9d1ea0000000p-3, 0x1.69bd800000000p-5, 0x1.6a3b680000000p-5, -0x1.0f329e0000000p-4, -0x1.2ace5a0000000p-3, 0x1.1bc7060000000p-3, -0x1.4da6fa0000000p-3, 0x1.67d0ea0000000p-7, -0x1.a538560000000p-3, -0x1.ad576c0000000p-3, 0x1.8bfa3c0000000p-6, -0x1.0c99660000000p-4, -0x1.7a9fb80000000p-4, -0x1.dedf7a0000000p-3, -0x1.01008c0000000p-3, -0x1.92b1140000000p-3, -0x1.0944640000000p-5, -0x1.69b21c0000000p-3, 0x1.2956800000000p-6, 0x1.560f6c0000000p-3, 0x1.25f9a40000000p-6, -0x1.3c820a0000000p-3}
}
, {{-0x1.83c4640000000p-3, -0x1.aaa6860000000p-4, -0x1.71dbbe0000000p-3, -0x1.6478ba0000000p-4, 0x1.038d100000000p-3, 0x1.15f0540000000p-5, -0x1.0204f00000000p-4, 0x1.9d3a820000000p-4, -0x1.733acc0000000p-3, 0x1.171bdc0000000p-3, 0x1.b5206a0000000p-5, -0x1.9151a20000000p-4, -0x1.0e56300000000p-4, 0x1.40f52a0000000p-3, 0x1.d2baba0000000p-5, 0x1.c15a6a0000000p-3, 0x1.86b8980000000p-3, -0x1.0ea3840000000p-2, 0x1.4257180000000p-5, 0x1.bedb320000000p-4, 0x1.3588920000000p-4, 0x1.4f344e0000000p-3, -0x1.2627c60000000p-3, -0x1.361bd00000000p-3, -0x1.21c1980000000p-7, -0x1.c2020c0000000p-3, 0x1.91d9840000000p-4, -0x1.e673d80000000p-3, 0x1.970b620000000p-3, -0x1.aeeb3c0000000p-3, -0x1.aef4b20000000p-3, 0x1.04f42e0000000p-4}
, {-0x1.379aba0000000p-3, -0x1.391c400000000p-4, 0x1.1ec28c0000000p-6, -0x1.bd14560000000p-3, -0x1.9cc6fc0000000p-3, 0x1.ad124e0000000p-4, 0x1.7bc4e40000000p-5, 0x1.2a646e0000000p-3, 0x1.5440fa0000000p-9, 0x1.783cc40000000p-4, 0x1.5502e80000000p-6, 0x1.b1335a0000000p-6, -0x1.9a870c0000000p-4, -0x1.1b6a7c0000000p-4, 0x1.40bc780000000p-3, -0x1.a1ec280000000p-4, -0x1.ff803e0000000p-3, -0x1.424f6a0000000p-5, 0x1.7c2f280000000p-4, -0x1.af7dc80000000p-6, 0x1.c65e160000000p-8, 0x1.b416ce0000000p-4, -0x1.01bcaa0000000p-4, -0x1.7bd1000000000p-4, -0x1.5bc2280000000p-5, 0x1.0e94aa0000000p-4, 0x1.5e631e0000000p-5, -0x1.0abc400000000p-4, 0x1.30230a0000000p-3, -0x1.9135560000000p-4, -0x1.22a4600000000p-3, 0x1.af6cbc0000000p-7}
}
, {{0x1.5cbe500000000p-5, -0x1.23b9400000000p-3, -0x1.1f95a60000000p-5, -0x1.1debfe0000000p-5, -0x1.90ff9c0000000p-3, -0x1.ca204a0000000p-3, -0x1.90deea0000000p-5, 0x1.3374bc0000000p-6, 0x1.0f6caa0000000p-4, -0x1.70aaa80000000p-5, 0x1.4f5dc40000000p-3, -0x1.1627de0000000p-3, -0x1.a7186e0000000p-3, -0x1.0f874e0000000p-2, 0x1.f9c1680000000p-5, -0x1.03cc780000000p-5, 0x1.0418c20000000p-8, -0x1.01ff3a0000000p-4, -0x1.985d220000000p-4, 0x1.5694560000000p-3, -0x1.a15e280000000p-3, 0x1.577e720000000p-3, -0x1.87d1b20000000p-3, 0x1.5690bc0000000p-3, -0x1.d9b4020000000p-7, -0x1.c530460000000p-7, 0x1.42446e0000000p-3, 0x1.6aa2080000000p-5, -0x1.1d3ccc0000000p-4, 0x1.1fa9820000000p-5, 0x1.72b7ac0000000p-3, 0x1.17dcc80000000p-4}
, {0x1.b4beb60000000p-4, -0x1.dfc92e0000000p-6, -0x1.3b2e180000000p-3, -0x1.0df76c0000000p-6, 0x1.e4252c0000000p-5, 0x1.5fd95a0000000p-6, -0x1.2e25880000000p-4, 0x1.b32a460000000p-3, -0x1.a732a60000000p-3, -0x1.674dcc0000000p-3, -0x1.552eae0000000p-5, -0x1.4faf0e0000000p-3, -0x1.0b97cc0000000p-4, 0x1.27d9ac0000000p-3, -0x1.590abe0000000p-3, 0x1.89ad000000000p-8, -0x1.a6ff700000000p-3, 0x1.3e5ff20000000p-4, 0x1.17d13e0000000p-3, 0x1.8d157e0000000p-4, 0x1.32afb80000000p-4, 0x1.c635fa0000000p-7, 0x1.1fcd340000000p-6, -0x1.6593b40000000p-3, -0x1.3eeed00000000p-4, 0x1.0066340000000p-3, 0x1.ec611a0000000p-5, 0x1.d11e220000000p-5, -0x1.e87f060000000p-5, 0x1.0f9bd60000000p-3, 0x1.eb4a020000000p-7, -0x1.9001220000000p-3}
}
, {{0x1.4eb7020000000p-2, -0x1.92d06a0000000p-3, 0x1.87d4d60000000p-2, 0x1.6f47460000000p-2, 0x1.9f6c7a0000000p-4, 0x1.08787c0000000p-3, 0x1.2512f80000000p-3, 0x1.23e1360000000p-4, -0x1.94b9f00000000p-5, 0x1.10da000000000p-3, 0x1.4c09540000000p-3, 0x1.4706d00000000p-7, 0x1.100d6a0000000p-3, -0x1.f7d14c0000000p-5, 0x1.a1a9a60000000p-5, 0x1.b29f120000000p-2, -0x1.8ad7720000000p-1, -0x1.6b61f80000000p-3, 0x1.86d49e0000000p-3, -0x1.5640420000000p-6, -0x1.d6d0d00000000p-5, 0x1.343adc0000000p-2, -0x1.0ef8980000000p-3, -0x1.64f3580000000p-4, -0x1.47326a0000000p-3, -0x1.4ce9540000000p-3, 0x1.905b3a0000000p-3, 0x1.4130040000000p-3, -0x1.86f45e0000000p-4, 0x1.25c0280000000p-4, -0x1.00ddea0000000p-4, 0x1.e255d20000000p-4}
, {0x1.60a0f40000000p-1, -0x1.3647d20000000p-5, 0x1.9a22aa0000000p-2, 0x1.0241220000000p-7, -0x1.061e920000000p-3, -0x1.50761c0000000p-4, -0x1.3e2e380000000p-3, -0x1.85089e0000000p-3, 0x1.5010740000000p-5, 0x1.0ff5440000000p-3, -0x1.23cd3e0000000p-4, 0x1.6b8b7c0000000p-5, -0x1.c4a11e0000000p-4, -0x1.4778fe0000000p-4, 0x1.a69e5c0000000p-3, 0x1.6e7d8a0000000p-2, -0x1.dd03620000000p-2, -0x1.9ce67e0000000p-2, -0x1.5f756e0000000p-3, 0x1.9d3e6a0000000p-4, 0x1.604df80000000p-3, 0x1.97235a0000000p-1, 0x1.97015e0000000p-2, 0x1.11a97e0000000p-3, -0x1.8b43ae0000000p-5, -0x1.30dddc0000000p-3, -0x1.8e6ec40000000p-4, 0x1.3e19e80000000p-2, 0x1.0573420000000p-3, 0x1.a3ee0c0000000p-2, 0x1.07b4760000000p-2, 0x1.fe28660000000p-4}
}
, {{-0x1.7c63ae0000000p-3, 0x1.17405a0000000p-4, 0x1.74979a0000000p-5, 0x1.a10f560000000p-5, -0x1.2fde1c0000000p-6, -0x1.fa56180000000p-3, -0x1.fb38f60000000p-4, -0x1.9b19320000000p-4, -0x1.010c820000000p-2, -0x1.7f78480000000p-3, -0x1.4214c40000000p-3, -0x1.dcf3f20000000p-5, -0x1.bf868e0000000p-3, -0x1.eb92780000000p-5, -0x1.d891760000000p-9, -0x1.7e01a40000000p-3, -0x1.8e22e20000000p-3, -0x1.350a460000000p-3, -0x1.ddc0700000000p-4, -0x1.17c3ae0000000p-4, -0x1.12c5ec0000000p-3, -0x1.8b9a9a0000000p-4, 0x1.a1be540000000p-5, 0x1.c30aee0000000p-4, -0x1.2181f80000000p-3, 0x1.e861900000000p-4, 0x1.21bffa0000000p-3, 0x1.2b7a380000000p-3, -0x1.5860a00000000p-3, -0x1.9aab5e0000000p-5, -0x1.3170820000000p-5, 0x1.05eaf80000000p-3}
, {0x1.abca0c0000000p-4, 0x1.9ba6b60000000p-5, 0x1.08d2620000000p-4, -0x1.d39f500000000p-3, 0x1.f1e5820000000p-4, -0x1.21011e0000000p-3, -0x1.997b740000000p-3, -0x1.e55e7a0000000p-4, -0x1.d360780000000p-3, 0x1.3afff20000000p-5, 0x1.9feffe0000000p-4, 0x1.b4852e0000000p-4, 0x1.215d580000000p-5, 0x1.6ce6c00000000p-6, -0x1.eb43500000000p-4, -0x1.b4464a0000000p-3, -0x1.f55c060000000p-3, 0x1.f0d9b80000000p-6, -0x1.6b03d60000000p-4, 0x1.165bfe0000000p-4, 0x1.2af52a0000000p-5, -0x1.f6f9980000000p-4, 0x1.db85500000000p-8, -0x1.782ab40000000p-4, -0x1.51a2fe0000000p-4, 0x1.b38fb40000000p-5, -0x1.61ed760000000p-4, -0x1.09f77c0000000p-2, -0x1.2cac7a0000000p-3, -0x1.5978340000000p-3, 0x1.261f4a0000000p-6, -0x1.73890c0000000p-3}
}
, {{0x1.aaeb0e0000000p-3, -0x1.ed7c7c0000000p-5, -0x1.2b103e0000000p-2, 0x1.d298ce0000000p-3, 0x1.df6ee20000000p-4, 0x1.fd19300000000p-2, 0x1.a2c8260000000p-3, 0x1.7e0b4a0000000p-4, -0x1.eb1fd80000000p-4, 0x1.19c5340000000p-3, -0x1.2362c20000000p-4, -0x1.f852620000000p-4, 0x1.4eb7fc0000000p-1, 0x1.32cbf80000000p-3, 0x1.921dac0000000p-2, 0x1.3e53e60000000p-3, -0x1.9d56060000000p-2, -0x1.6e5dd40000000p-2, 0x1.4b02020000000p-3, -0x1.8621b40000000p-4, 0x1.0ba3920000000p-2, 0x1.22e04a0000000p-1, 0x1.73441e0000000p-2, 0x1.21364a0000000p-4, -0x1.c4755e0000000p-4, -0x1.6682100000000p-3, 0x1.5b1c320000000p-4, 0x1.5149340000000p-1, 0x1.b009360000000p-4, -0x1.06e5fa0000000p-3, 0x1.218dac0000000p-4, -0x1.9a97280000000p-2}
, {0x1.ab4cf00000000p-1, 0x1.1b76760000000p-2, 0x1.55b54c0000000p-3, 0x1.fdf68a0000000p-3, 0x1.351e660000000p-3, -0x1.35afb80000000p-5, 0x1.ceb5ea0000000p-5, 0x1.86bdfc0000000p-4, -0x1.74e1f00000000p-4, 0x1.ca4a420000000p-4, -0x1.4f861a0000000p-4, -0x1.bec0a80000000p-2, 0x1.de2e760000000p-2, 0x1.82de520000000p-4, 0x1.4aee2a0000000p-2, 0x1.877b9c0000000p-2, -0x1.499be20000000p-7, -0x1.7235040000000p-5, -0x1.bf61c20000000p-3, -0x1.211d120000000p-3, 0x1.f69f1a0000000p-3, 0x1.9288160000000p-1, 0x1.9568280000000p-3, 0x1.20efd00000000p-3, -0x1.0456360000000p-5, -0x1.a4a12a0000000p-3, -0x1.4c3d260000000p-6, 0x1.efb1f00000000p-2, -0x1.1cb4980000000p-4, 0x1.3d1cda0000000p-4, -0x1.14b83c0000000p-3, -0x1.1e25280000000p-4}
}
}
;

#undef INPUT_CHANNELS
#undef CONV_FILTERS
#undef CONV_KERNEL_SIZE
#undef CONV_GROUPS