/**
  ******************************************************************************
  * @file    weights/fc.cc
  * @author  Pierre-Emmanuel Novac <penovac@unice.fr>, LEAT, CNRS, Université Côte d'Azur, France
  * @version 1.0.0
  * @date    24 march 2020
  * @brief   Template generating plain C code for the implementation of Convolutional Neural Networks on MCU
  */

#include <stdint.h>

#define INPUT_SAMPLES 96
#define FC_UNITS 3


const float dense_3_bias[FC_UNITS] = {0x1.00e9540000000p-1, 0x1.a03cd40000000p-3, -0x1.866f040000000p-1}
;

const float dense_3_kernel[FC_UNITS][INPUT_SAMPLES] = {{0x1.67bf9a0000000p-3, 0x1.1b79740000000p-2, 0x1.39f0320000000p-3, -0x1.31df720000000p-3, -0x1.251c000000000p-1, -0x1.914caa0000000p-4, -0x1.048e780000000p-6, -0x1.42b0540000000p-5, -0x1.9136000000000p-6, -0x1.bf3c1a0000000p-2, -0x1.e5cd000000000p-3, -0x1.92a80c0000000p-1, 0x1.010e1a0000000p-3, 0x1.0261400000000p-4, 0x1.0bc3440000000p-4, 0x1.e55ccc0000000p-2, 0x1.18d9660000000p-1, 0x1.8d8b500000000p-3, -0x1.9388c40000000p-1, -0x1.06ba000000000p-2, 0x1.2dade20000000p-3, -0x1.fafecc0000000p-2, -0x1.0f08220000000p-3, -0x1.c0794e0000000p-5, 0x1.992dbe0000000p-1, -0x1.17ea2c0000000p-2, 0x1.88db9a0000000p-2, 0x1.d445160000000p-1, 0x1.10f7d60000000p-5, 0x1.18aedc0000000p-1, -0x1.a71d180000000p-3, 0x1.eb9f900000000p-2, 0x1.5dddd80000000p-2, -0x1.62eb840000000p-8, -0x1.0ce0d40000000p-3, -0x1.142bb80000000p-4, -0x1.de01680000000p-2, -0x1.0dbe2e0000000p-4, -0x1.5a017c0000000p-4, 0x1.a872c20000000p-4, 0x1.513bfc0000000p-4, -0x1.f103860000000p-2, -0x1.de6de00000000p-5, -0x1.96672c0000000p-2, 0x1.0e768a0000000p-4, 0x1.74a4460000000p-4, 0x1.2cd6900000000p-3, 0x1.09e8360000000p-2, 0x1.eaf90e0000000p-2, 0x1.73ead60000000p-3, -0x1.9f9a120000000p-2, -0x1.573ecc0000000p-2, -0x1.0906100000000p-5, -0x1.0ace260000000p-1, 0x1.7019720000000p-5, 0x1.c96b280000000p-4, 0x1.f584aa0000000p-2, 0x1.eb00d80000000p-5, 0x1.edb3a20000000p-2, 0x1.503f820000000p-1, -0x1.34848e0000000p-4, 0x1.4e0de00000000p-1, 0x1.405f140000000p-3, 0x1.cfbf320000000p-2, -0x1.4d1e920000000p-8, -0x1.0933f80000000p-2, -0x1.2ba0360000000p-1, -0x1.9a8b6a0000000p-7, -0x1.bfcf980000000p-2, 0x1.58534e0000000p-4, 0x1.853e400000000p-3, -0x1.7605de0000000p-7, -0x1.42c2cc0000000p-6, -0x1.19571e0000000p-4, 0x1.a087ce0000000p-5, -0x1.3a79200000000p-2, 0x1.6a69e60000000p-2, 0x1.dff30e0000000p-4, -0x1.0d4d9e0000000p-3, 0x1.4edf960000000p-1, 0x1.70a3200000000p-1, -0x1.2e5eda0000000p-4, -0x1.a60f000000000p-1, 0x1.a160820000000p-6, -0x1.d8f15e0000000p-4, -0x1.8ca9720000000p-2, 0x1.3a1eb80000000p-1, 0x1.1ea6940000000p-4, 0x1.dc2e560000000p-2, -0x1.be8f040000000p-4, 0x1.a1f2dc0000000p-2, 0x1.346ee40000000p+0, 0x1.031c120000000p-3, 0x1.7f01f20000000p-2, -0x1.c460b60000000p-4, 0x1.ccba340000000p-2}
, {-0x1.29d7860000000p-8, -0x1.6fc0380000000p-1, -0x1.b36b000000000p-2, 0x1.abf0ec0000000p-4, 0x1.2077020000000p-2, -0x1.a8fcfc0000000p-8, -0x1.1908d40000000p-3, 0x1.faf1e60000000p-4, -0x1.1b74460000000p-3, 0x1.1177420000000p-1, 0x1.78a3fa0000000p-3, 0x1.ba510c0000000p-3, 0x1.c9d33c0000000p-2, -0x1.2626720000000p-5, 0x1.3863060000000p-6, -0x1.a87e580000000p+0, -0x1.5397b60000000p+0, -0x1.7c62580000000p-1, 0x1.0eacd00000000p-3, -0x1.0d9f700000000p-2, -0x1.58a3f00000000p-4, 0x1.f429120000000p-2, -0x1.7acdcc0000000p-2, 0x1.6aeff60000000p-3, -0x1.ce210e0000000p-2, 0x1.d42e4e0000000p-4, -0x1.c6a5e00000000p-1, -0x1.115a320000000p-1, 0x1.7141860000000p-4, -0x1.0494a00000000p+1, 0x1.ce427c0000000p-3, -0x1.4efd780000000p-1, -0x1.571e780000000p-2, -0x1.a030220000000p-2, -0x1.36f1940000000p-2, 0x1.16d12e0000000p-2, -0x1.01c38e0000000p-9, -0x1.d50b1a0000000p-4, 0x1.331bd80000000p-3, 0x1.e76f1a0000000p-3, -0x1.c6a9560000000p-3, 0x1.4506920000000p+0, 0x1.da9c560000000p-10, 0x1.92abac0000000p-2, 0x1.3a64e80000000p-1, -0x1.789e3a0000000p-6, -0x1.8b3c2e0000000p-4, -0x1.824f4a0000000p-1, -0x1.6084300000000p+0, -0x1.01eb380000000p+0, 0x1.b01f880000000p-3, -0x1.8824240000000p-3, 0x1.f0b4d80000000p-7, 0x1.f7ae000000000p-10, -0x1.22b68e0000000p-5, -0x1.73e90e0000000p-3, -0x1.53a5fc0000000p-1, -0x1.d7ff2e0000000p-9, -0x1.a7a47e0000000p-1, -0x1.3ee0ca0000000p-3, -0x1.150fa00000000p-3, -0x1.8227220000000p+0, -0x1.8acdda0000000p-5, -0x1.f95ec20000000p-2, 0x1.28b87c0000000p-6, -0x1.0fb1f60000000p-1, -0x1.0c0f320000000p-2, -0x1.95dd760000000p-3, 0x1.9cbc8a0000000p-2, 0x1.68a87c0000000p-8, 0x1.9154340000000p-3, -0x1.64d70c0000000p-4, 0x1.d3428e0000000p-4, 0x1.342cc00000000p-1, 0x1.f13f6c0000000p-5, 0x1.a02a180000000p-7, 0x1.6de5cc0000000p-3, 0x1.7cc5680000000p-4, 0x1.36610c0000000p-3, -0x1.b54ecc0000000p+0, -0x1.7901360000000p+0, -0x1.2543380000000p-1, -0x1.4de7480000000p-6, -0x1.1cf7660000000p-2, 0x1.1885c40000000p-3, 0x1.0304de0000000p-4, -0x1.83491c0000000p-4, -0x1.b622960000000p-5, -0x1.3d5bfc0000000p-1, -0x1.28d18e0000000p-2, -0x1.70e4440000000p-1, 0x1.1a6cd40000000p-6, -0x1.60f0b00000000p-3, -0x1.954d180000000p+0, -0x1.a759520000000p-3, -0x1.47860c0000000p-1}
, {0x1.c4f0220000000p-5, 0x1.c389180000000p-2, 0x1.f7531c0000000p-4, 0x1.a201d60000000p-6, 0x1.41843a0000000p-2, 0x1.917c080000000p-3, -0x1.6baf820000000p-4, 0x1.14b0780000000p-2, 0x1.6eafae0000000p-4, -0x1.285bec0000000p-2, 0x1.68738c0000000p-4, -0x1.8e737a0000000p-4, -0x1.4113f40000000p-1, 0x1.f293e20000000p-4, 0x1.6b23900000000p-4, 0x1.3b1a8e0000000p-1, 0x1.6211180000000p-1, 0x1.4257be0000000p-1, 0x1.b366a20000000p-2, 0x1.9f877a0000000p-3, -0x1.740fc60000000p-6, 0x1.0ca9460000000p-3, 0x1.6e26ee0000000p-2, -0x1.03ed820000000p-3, -0x1.3f77600000000p-1, -0x1.f96eea0000000p-3, 0x1.7f1e2c0000000p-2, -0x1.fbf0800000000p-2, 0x1.6854fe0000000p-3, 0x1.17548a0000000p+0, -0x1.7c439e0000000p-4, -0x1.1a3d6a0000000p-2, -0x1.0a2f0c0000000p-3, 0x1.1d452c0000000p-1, 0x1.1f9dd60000000p-2, -0x1.be62800000000p-3, 0x1.e491ec0000000p-6, 0x1.2632080000000p-4, -0x1.636e380000000p-2, 0x1.b3f43c0000000p-4, -0x1.1f3a280000000p-5, -0x1.bcbf240000000p-1, -0x1.58513c0000000p-3, 0x1.8cc8720000000p-6, -0x1.3638720000000p-2, 0x1.30c69c0000000p-6, 0x1.a0342e0000000p-3, 0x1.60f25a0000000p-2, 0x1.3356640000000p-1, 0x1.96f7740000000p-1, 0x1.3246a40000000p-1, 0x1.0367c00000000p-1, -0x1.75f1ce0000000p-3, 0x1.2febb60000000p-3, 0x1.32db1c0000000p-2, 0x1.67a8aa0000000p-3, 0x1.522fd80000000p-3, -0x1.b211b40000000p-9, 0x1.2cfb4a0000000p-1, -0x1.a26f900000000p-2, -0x1.5db4de0000000p-7, 0x1.a01f2e0000000p-1, 0x1.925c280000000p-4, -0x1.4b3a880000000p-7, -0x1.b085000000000p-2, 0x1.6454b60000000p-1, 0x1.6fb7f40000000p-1, -0x1.2ba87a0000000p-6, -0x1.7eb78e0000000p-5, -0x1.9c8ce40000000p-5, -0x1.e3c8080000000p-4, -0x1.7e3fba0000000p-4, -0x1.0d314a0000000p-4, -0x1.4d88d00000000p-1, -0x1.7256e80000000p-7, -0x1.1a4f2a0000000p-3, -0x1.1b05800000000p-1, -0x1.5d66d40000000p-3, -0x1.16fa200000000p-3, 0x1.46a0320000000p-2, 0x1.05dace0000000p-1, 0x1.11b5780000000p-1, 0x1.243a0e0000000p-1, 0x1.538ea00000000p-3, -0x1.13b9ec0000000p-3, 0x1.f142f40000000p-6, -0x1.bc74ea0000000p-2, 0x1.9eb53c0000000p-4, -0x1.2c446e0000000p-3, -0x1.052f880000000p-5, 0x1.5c0b860000000p-1, -0x1.1c59a80000000p-2, -0x1.6517c80000000p-5, 0x1.dffcce0000000p-1, -0x1.dd2b360000000p-5, 0x1.a0527c0000000p-4}
}
;

#undef INPUT_SAMPLES
#undef FC_UNITS