/**
  ******************************************************************************
  * @file    weights/fc.cc
  * @author  Pierre-Emmanuel Novac <penovac@unice.fr>, LEAT, CNRS, Université Côte d'Azur, France
  * @version 1.0.0
  * @date    24 march 2020
  * @brief   Template generating plain C code for the implementation of Convolutional Neural Networks on MCU
  */

#include <stdint.h>

#define INPUT_SAMPLES 224
#define FC_UNITS 3


const float dense_16_bias[FC_UNITS] = {0x1.2129000000000p-2, 0x1.8865800000000p-3, -0x1.ef29900000000p-2}
;

const float dense_16_kernel[FC_UNITS][INPUT_SAMPLES] = {{0x1.0070dc0000000p-3, 0x1.2b5f400000000p+0, 0x1.850ff80000000p-4, -0x1.7404aa0000000p-3, -0x1.0c461e0000000p-4, -0x1.1cc9d40000000p-1, 0x1.875c9a0000000p-4, -0x1.6d7e3a0000000p-2, 0x1.68a0560000000p-4, 0x1.f355fe0000000p-2, 0x1.ccbc6a0000000p-5, 0x1.1a0a800000000p-3, -0x1.e38cd40000000p-2, 0x1.5e4cf00000000p-4, 0x1.6478800000000p-3, -0x1.ffc4c00000000p-4, -0x1.294b8a0000000p-8, -0x1.0afbf80000000p-3, -0x1.f382480000000p-3, 0x1.2264a40000000p-3, -0x1.5300e40000000p-2, -0x1.9429e00000000p-4, -0x1.878a620000000p-4, -0x1.7313fe0000000p-2, -0x1.d8d4f80000000p-6, 0x1.5df48e0000000p-2, -0x1.a1a6600000000p-5, -0x1.60e0c20000000p-5, -0x1.69fbe00000000p-4, 0x1.4255f00000000p-4, 0x1.48e1be0000000p-4, -0x1.05edda0000000p-4, 0x1.15fcac0000000p-3, 0x1.767f5a0000000p+0, -0x1.fe13960000000p-6, 0x1.1a284c0000000p-4, -0x1.35de220000000p-3, -0x1.58216c0000000p+0, 0x1.f254ca0000000p-8, -0x1.0a78540000000p-1, 0x1.66200c0000000p-4, 0x1.75bfce0000000p-2, -0x1.a9928c0000000p-3, 0x1.2590180000000p-2, -0x1.202ece0000000p-2, -0x1.cd00800000000p-5, -0x1.4cd1d60000000p-7, -0x1.5757000000000p-3, 0x1.e7633c0000000p-5, 0x1.32319e0000000p-3, -0x1.f548de0000000p-3, 0x1.2c9d420000000p-4, -0x1.54f4420000000p-3, -0x1.182c6e0000000p-8, 0x1.81d2e80000000p-3, -0x1.2452840000000p-2, -0x1.5591140000000p-3, 0x1.3599d80000000p-4, 0x1.12c4a00000000p-3, -0x1.ebffa80000000p-6, -0x1.91edae0000000p-7, -0x1.4318820000000p-4, 0x1.2ae1ec0000000p-6, -0x1.ce15500000000p-6, 0x1.14e7dc0000000p-3, 0x1.100ea40000000p+0, 0x1.be273c0000000p-4, 0x1.878cd80000000p-4, 0x1.506f580000000p-4, -0x1.c1ce220000000p+0, -0x1.b0ff260000000p-5, -0x1.b2df280000000p-4, 0x1.f4e81e0000000p-5, 0x1.6c122e0000000p-3, -0x1.0262fe0000000p-3, 0x1.7a32640000000p-5, -0x1.e012520000000p-2, 0x1.74c7120000000p-4, 0x1.59fe9c0000000p-5, -0x1.c6dbac0000000p-4, -0x1.aa22e60000000p-3, 0x1.381c360000000p-3, -0x1.ae6a7a0000000p-4, -0x1.ebb0060000000p-4, -0x1.4c0af00000000p-2, 0x1.a5ee340000000p-12, 0x1.08cf960000000p-5, -0x1.9dade20000000p-2, -0x1.3421b60000000p-5, 0x1.928eae0000000p-3, 0x1.a771ce0000000p-4, 0x1.95b1800000000p-5, 0x1.e376060000000p-4, -0x1.439ff20000000p-5, -0x1.f6af7a0000000p-4, -0x1.5b2d040000000p-5, 0x1.90359a0000000p-9, 0x1.489d600000000p+0, -0x1.76df4a0000000p-4, 0x1.d0b66a0000000p-6, -0x1.a2d6e00000000p-6, -0x1.0ccb840000000p+0, -0x1.4c7a1c0000000p-4, -0x1.d1c0260000000p-3, 0x1.4ee8b40000000p-8, 0x1.da11660000000p-6, -0x1.9f15a40000000p-7, 0x1.0018000000000p-3, -0x1.6c75020000000p-3, 0x1.0d334a0000000p-7, 0x1.31f3540000000p-5, -0x1.3827920000000p-2, 0x1.d5adea0000000p-6, 0x1.156fb20000000p-4, -0x1.4e051c0000000p-5, 0x1.65cfbc0000000p-3, -0x1.98e3520000000p-3, -0x1.8729320000000p-3, -0x1.f9c6a80000000p-4, -0x1.049cac0000000p-2, -0x1.2345ba0000000p-4, 0x1.7ae3bc0000000p-4, 0x1.9d1d160000000p-4, 0x1.32fd4c0000000p-5, 0x1.3d64000000000p-6, -0x1.835e980000000p-3, -0x1.2fd5c20000000p-9, 0x1.51c03a0000000p-5, 0x1.3ce1280000000p-4, 0x1.27b90c0000000p+0, 0x1.fd50720000000p-6, -0x1.5ff67c0000000p-5, -0x1.3bdc000000000p-3, -0x1.034d4e0000000p+0, 0x1.7e505e0000000p-4, -0x1.ccb5260000000p-3, 0x1.0bc7700000000p-6, 0x1.9f4dac0000000p-3, 0x1.68f9e00000000p-4, 0x1.282b640000000p-2, -0x1.c412780000000p-3, -0x1.0c1d380000000p-7, -0x1.0ada920000000p-3, -0x1.2aaf0e0000000p-1, -0x1.095de20000000p-8, -0x1.1323560000000p-3, -0x1.342c900000000p-4, -0x1.ac5c700000000p-4, -0x1.3d435e0000000p-3, 0x1.6076ce0000000p-6, -0x1.87b99c0000000p-3, -0x1.060da60000000p-3, 0x1.cc0a4e0000000p-4, -0x1.70d9e20000000p-5, -0x1.2a3aa20000000p-5, -0x1.d4abe20000000p-4, 0x1.8fe4580000000p-6, -0x1.3952060000000p-3, 0x1.4465b80000000p-10, -0x1.c228c00000000p-4, 0x1.a83dc60000000p-4, 0x1.0ec1900000000p+0, -0x1.0037160000000p-4, -0x1.4d646a0000000p-3, -0x1.1377200000000p-3, -0x1.d90f440000000p-1, -0x1.6e68cc0000000p-5, -0x1.1663960000000p-2, 0x1.42fb5c0000000p-5, 0x1.74b4840000000p-3, 0x1.f989040000000p-5, 0x1.38e1a40000000p-4, -0x1.1c1b740000000p-2, 0x1.39beb00000000p-5, 0x1.a31a5e0000000p-4, 0x1.48cd5c0000000p-6, -0x1.54e4e20000000p-5, 0x1.30d91c0000000p-4, -0x1.61dcc60000000p-6, 0x1.4b9ce00000000p-3, -0x1.09fa740000000p-2, -0x1.bc2bec0000000p-4, -0x1.1465500000000p-4, 0x1.4f4bcc0000000p-4, -0x1.3e2ff40000000p-5, -0x1.ead3a20000000p-4, -0x1.1fb0840000000p-5, 0x1.a43b620000000p-6, 0x1.0f12480000000p-4, -0x1.ca4d5c0000000p-5, 0x1.329fbc0000000p-3, 0x1.7280840000000p-8, 0x1.a9372e0000000p-4, 0x1.3153c80000000p+0, -0x1.e6c2300000000p-8, 0x1.8d98f60000000p-4, 0x1.1f341e0000000p-4, -0x1.69d1280000000p+0, -0x1.3562a20000000p-7, -0x1.294aae0000000p-1, 0x1.da84220000000p-4, 0x1.9b5b940000000p-2, 0x1.f195980000000p-5, 0x1.0907f60000000p-3, -0x1.aa4c080000000p-2, -0x1.da28e40000000p-6, 0x1.2584a40000000p-3, -0x1.c1dafc0000000p-1, -0x1.546e360000000p-4, -0x1.bf16520000000p-4, 0x1.600d2a0000000p-6, -0x1.245f920000000p-3, -0x1.f68e7e0000000p-3, -0x1.8226880000000p-3, 0x1.75cd520000000p-6, -0x1.b3e6a00000000p-5, -0x1.e7aec80000000p-4, 0x1.a2044e0000000p-5, 0x1.78c1360000000p-4, -0x1.1305f20000000p-2, 0x1.00c9540000000p-5, 0x1.fc3ac40000000p-6, 0x1.3220ba0000000p-3, -0x1.efefda0000000p-7}
, {-0x1.3376b40000000p-2, 0x1.27e06a0000000p+0, -0x1.4335c00000000p-5, -0x1.96e68a0000000p-6, -0x1.0afe660000000p-5, -0x1.fd6f500000000p-11, 0x1.1456f40000000p-9, 0x1.a1a1800000000p-3, -0x1.09c6300000000p-3, -0x1.7f206a0000000p-2, -0x1.3eb0c20000000p-5, 0x1.c50e940000000p-4, 0x1.df8b700000000p-2, -0x1.7522e80000000p-4, -0x1.2af5160000000p-3, -0x1.114aa20000000p-8, 0x1.3798b60000000p-3, 0x1.8932720000000p-12, 0x1.597de00000000p-3, -0x1.7d5d980000000p-3, 0x1.a809160000000p-1, -0x1.38f53e0000000p-3, -0x1.b2b6d60000000p-4, 0x1.3244480000000p-2, -0x1.b8f9ee0000000p-4, -0x1.8a22000000000p-5, 0x1.82d5b60000000p-5, 0x1.d5131a0000000p-4, 0x1.3dfd2c0000000p-3, 0x1.381a1a0000000p-4, -0x1.6beec40000000p-2, -0x1.36757a0000000p-5, -0x1.2503d60000000p-3, 0x1.85b4620000000p-1, -0x1.15f2d00000000p-3, 0x1.6c011e0000000p-4, 0x1.cd0a160000000p-6, 0x1.63b8e20000000p-2, 0x1.1c59b40000000p-4, -0x1.368ab60000000p-5, 0x1.2892aa0000000p-4, -0x1.3962340000000p-2, -0x1.ab65da0000000p-4, 0x1.0245320000000p-4, 0x1.21e1920000000p-1, -0x1.fc31d60000000p-10, -0x1.3e06520000000p-3, -0x1.71bb560000000p-2, -0x1.85803a0000000p-7, -0x1.0f5c6e0000000p-4, -0x1.0eb3820000000p-3, 0x1.405d000000000p-6, 0x1.32436c0000000p-1, -0x1.3165d40000000p-4, -0x1.95c9da0000000p-5, 0x1.0a25f80000000p-2, -0x1.016ede0000000p-4, -0x1.3bd7040000000p-2, -0x1.a37e5e0000000p-7, -0x1.f8400a0000000p-8, 0x1.6cf2b40000000p-5, -0x1.b6b3a00000000p-3, -0x1.007da60000000p-3, -0x1.5e23220000000p-3, -0x1.491c700000000p-2, 0x1.1079020000000p+0, -0x1.5d20120000000p-4, 0x1.ccaa0a0000000p-6, 0x1.54fea00000000p-5, 0x1.35be6a0000000p-2, -0x1.10b0500000000p-3, 0x1.3851240000000p-4, 0x1.0de9340000000p-5, -0x1.7f4f600000000p-2, 0x1.0475e40000000p-4, 0x1.ad40d00000000p-3, 0x1.43d13a0000000p-2, -0x1.9665fc0000000p-3, -0x1.bf99aa0000000p-3, -0x1.3f2a780000000p-2, -0x1.0aea420000000p-3, -0x1.cb649c0000000p-6, 0x1.3ae0a60000000p-6, -0x1.9c93e80000000p-5, 0x1.3b23d80000000p-1, 0x1.0fa6f40000000p-8, -0x1.0388080000000p-2, 0x1.55200a0000000p-4, 0x1.e8ff400000000p-4, -0x1.40ac820000000p-6, -0x1.1136280000000p-5, 0x1.59e4640000000p-4, -0x1.3fb9020000000p-6, 0x1.9b905e0000000p-5, -0x1.1075200000000p-3, -0x1.584c940000000p-5, -0x1.7157860000000p-3, 0x1.0521000000000p+0, -0x1.014d900000000p-3, -0x1.461ffc0000000p-3, -0x1.445f580000000p-3, 0x1.e3f8f60000000p-3, 0x1.63b7fa0000000p-6, 0x1.fc8b5e0000000p-3, -0x1.2456060000000p-3, -0x1.91c8d40000000p-2, -0x1.3b082c0000000p-7, 0x1.a2e4b40000000p-3, 0x1.ed12200000000p-2, -0x1.c8b3ea0000000p-4, -0x1.95a0a00000000p-3, 0x1.a462700000000p-3, 0x1.83305e0000000p-6, 0x1.507aa00000000p-3, 0x1.b970980000000p-3, -0x1.efab480000000p-3, 0x1.28ba540000000p-1, -0x1.07e8320000000p-5, 0x1.b0678c0000000p-6, 0x1.5d4abe0000000p-3, -0x1.d734580000000p-4, -0x1.5309780000000p-11, -0x1.699cb60000000p-6, 0x1.66bba40000000p-5, 0x1.15ca4e0000000p-10, 0x1.a503f20000000p-5, -0x1.4b44640000000p-2, 0x1.f3d1060000000p-7, -0x1.4621780000000p-6, 0x1.ccde0c0000000p-1, 0x1.1d76aa0000000p-3, 0x1.f690200000000p-5, -0x1.3c3db80000000p-4, 0x1.1f692e0000000p-1, 0x1.a7a8140000000p-8, 0x1.2c67680000000p-2, 0x1.5cdff40000000p-4, -0x1.5f546e0000000p-2, -0x1.f58b360000000p-4, -0x1.84b8fc0000000p-4, 0x1.2dea320000000p-1, -0x1.976abc0000000p-5, -0x1.0a16040000000p-2, 0x1.5ab08e0000000p-3, 0x1.ec47560000000p-4, 0x1.2353c40000000p-3, 0x1.6a749a0000000p-3, 0x1.9749a60000000p-5, 0x1.1238ca0000000p-1, -0x1.b090b80000000p-6, -0x1.92a2a00000000p-4, 0x1.0fd33e0000000p-2, 0x1.6224fa0000000p-6, -0x1.5f701c0000000p-4, -0x1.95fee40000000p-5, -0x1.01005a0000000p-3, 0x1.e54cd00000000p-6, -0x1.1d306a0000000p-4, -0x1.6a4fd80000000p-3, 0x1.30c8220000000p-3, -0x1.a3a1520000000p-6, 0x1.1d19ba0000000p+0, 0x1.c6169a0000000p-5, 0x1.391ce80000000p-6, 0x1.3d1fbe0000000p-5, 0x1.b2d4160000000p-3, 0x1.2142d40000000p-5, 0x1.4b54400000000p-2, 0x1.7caf680000000p-4, -0x1.8734200000000p-2, -0x1.18c6ae0000000p-3, 0x1.a2dd1c0000000p-3, 0x1.718c360000000p-2, -0x1.3ce4e60000000p-8, -0x1.ab5b1c0000000p-3, 0x1.83bf080000000p-2, -0x1.37d81e0000000p-6, -0x1.1699a00000000p-3, 0x1.0bb6000000000p-4, -0x1.6314f60000000p-5, 0x1.5b068a0000000p-1, 0x1.31435a0000000p-9, -0x1.a330ba0000000p-3, -0x1.0944400000000p-4, -0x1.6639f20000000p-3, 0x1.78d9ae0000000p-5, 0x1.09ce8e0000000p-4, 0x1.ddf9000000000p-4, 0x1.86d7f20000000p-6, -0x1.a834a00000000p-4, -0x1.49eed20000000p-2, -0x1.7ebfb20000000p-5, -0x1.bbecd40000000p-2, 0x1.4e38100000000p+0, 0x1.536f460000000p-5, -0x1.5283f20000000p-3, 0x1.842eb00000000p-4, 0x1.1f464a0000000p-2, 0x1.5749580000000p-4, 0x1.7fc7780000000p-3, -0x1.79986a0000000p-4, -0x1.5bdbcc0000000p-2, 0x1.2173140000000p-4, 0x1.64032c0000000p-4, 0x1.3faadc0000000p-1, -0x1.3d0b1c0000000p-6, -0x1.a947f80000000p-2, -0x1.4ece3c0000000p-3, -0x1.240b9a0000000p-4, 0x1.32d2300000000p-4, -0x1.4f62460000000p-6, -0x1.cf59080000000p-4, 0x1.88c6980000000p-1, -0x1.f11a880000000p-4, -0x1.955a960000000p-4, 0x1.0530080000000p-5, 0x1.c463d00000000p-4, -0x1.681a060000000p-3, -0x1.3a086c0000000p-3, 0x1.4b781a0000000p-4, 0x1.2da99a0000000p-4, 0x1.38f0de0000000p-4, -0x1.8450380000000p-2, -0x1.4fca100000000p-3}
, {0x1.13c4580000000p-2, -0x1.5d1c700000000p+1, -0x1.2fae160000000p-3, -0x1.b6d2700000000p-4, 0x1.4fda580000000p-7, 0x1.5d8c6a0000000p-1, -0x1.6bfb060000000p-4, 0x1.2d98400000000p-3, 0x1.8f3aa80000000p-7, 0x1.6a495c0000000p-4, 0x1.4066ba0000000p-5, -0x1.f9490e0000000p-4, -0x1.16f8060000000p-2, 0x1.99bc580000000p-4, 0x1.f5d8260000000p-5, 0x1.73abce0000000p-2, 0x1.a020fc0000000p-4, 0x1.985ffe0000000p-4, 0x1.f8d3460000000p-3, 0x1.01c8dc0000000p-3, -0x1.2cb0ae0000000p-1, 0x1.a7e75a0000000p-5, 0x1.d9a4720000000p-4, 0x1.3328d20000000p-4, -0x1.31ff040000000p-7, -0x1.3e73a20000000p-4, -0x1.c0cb6a0000000p-3, 0x1.f1ba3e0000000p-5, -0x1.c806880000000p-5, 0x1.33c0ec0000000p-4, 0x1.c536f60000000p-3, 0x1.22feb60000000p-3, 0x1.72d3ba0000000p-4, -0x1.7effb80000000p+1, 0x1.7ddf660000000p-6, -0x1.2a25fc0000000p-4, -0x1.9489400000000p-4, 0x1.8ee3360000000p-2, -0x1.4f64b20000000p-3, 0x1.1739aa0000000p-3, 0x1.474ede0000000p-3, 0x1.6ba3100000000p-3, 0x1.cd8ba00000000p-5, -0x1.d18cc80000000p-3, -0x1.4301140000000p-1, -0x1.bd5f740000000p-5, 0x1.dfd0360000000p-4, 0x1.3d49a00000000p-2, 0x1.1385200000000p-7, -0x1.4eca240000000p-3, 0x1.d2b92a0000000p-3, 0x1.3e95ce0000000p-7, -0x1.ae1fee0000000p-2, -0x1.5fff360000000p-4, -0x1.29eca80000000p-2, 0x1.ba3d920000000p-4, 0x1.93ec4a0000000p-5, 0x1.3bee420000000p-3, -0x1.9401860000000p-4, 0x1.9daa400000000p-4, -0x1.79ee240000000p-4, -0x1.9740660000000p-6, 0x1.3a91080000000p-4, 0x1.7eb8280000000p-8, 0x1.1ee2320000000p-3, -0x1.a2d5600000000p+1, -0x1.cbe43c0000000p-5, 0x1.76351e0000000p-5, 0x1.4b289a0000000p-3, 0x1.c1fcf60000000p-1, 0x1.48d4e80000000p-3, 0x1.b8e3900000000p-6, 0x1.07d1ac0000000p-7, -0x1.8dfdbc0000000p-7, -0x1.cf871e0000000p-5, -0x1.f491b20000000p-4, -0x1.7796d80000000p-2, -0x1.e5f1600000000p-6, -0x1.65e4120000000p-5, 0x1.2bb0ae0000000p-1, 0x1.6f3c140000000p-3, 0x1.50fd7e0000000p-4, 0x1.7db6c00000000p-3, -0x1.8bd6d00000000p-5, -0x1.1d93040000000p-1, -0x1.469f500000000p-5, 0x1.a2cbf60000000p-3, -0x1.3e544e0000000p-2, -0x1.bf4c160000000p-5, -0x1.1b7b0e0000000p-3, -0x1.cced940000000p-3, -0x1.83015a0000000p-4, -0x1.7cb8ee0000000p-6, 0x1.d3c07e0000000p-6, 0x1.76644a0000000p-2, -0x1.c071740000000p-4, 0x1.de313a0000000p-4, -0x1.7692fe0000000p+1, -0x1.004e4a0000000p-3, 0x1.f49d480000000p-7, 0x1.1f6c1a0000000p-6, 0x1.33499e0000000p-1, 0x1.f288960000000p-4, 0x1.c269b00000000p-13, 0x1.23f4f40000000p-3, 0x1.89f02a0000000p-3, -0x1.914ce80000000p-4, -0x1.8693fa0000000p-3, -0x1.bc21ac0000000p-2, 0x1.34df880000000p-7, 0x1.24d0080000000p-3, 0x1.9cc02a0000000p-2, -0x1.49b65a0000000p-4, 0x1.0e9bfa0000000p-3, -0x1.32c5700000000p-7, 0x1.19f44e0000000p-3, -0x1.1e4f5c0000000p-1, -0x1.2537d00000000p-5, -0x1.704dc40000000p-5, -0x1.5c8f460000000p-4, 0x1.342f860000000p-5, 0x1.9f6f660000000p-3, -0x1.13c0400000000p-3, 0x1.d04ebc0000000p-4, 0x1.0e13660000000p-4, -0x1.58722a0000000p-7, 0x1.996af80000000p-2, 0x1.5a37c80000000p-6, 0x1.9cd8b00000000p-6, -0x1.36d8fc0000000p+1, 0x1.1aac660000000p-4, 0x1.37f9360000000p-3, 0x1.5f91c80000000p-3, 0x1.8ee6b40000000p-2, 0x1.d855e20000000p-4, 0x1.e84bee0000000p-4, 0x1.fcda220000000p-5, -0x1.a53df60000000p-5, -0x1.62ee620000000p-5, -0x1.e4475c0000000p-3, -0x1.3ce1180000000p-2, 0x1.380b560000000p-3, 0x1.74ecec0000000p-3, 0x1.9e2dec0000000p-2, 0x1.00431e0000000p-3, -0x1.2f4d8c0000000p-6, 0x1.4f28b80000000p-2, 0x1.7123e40000000p-6, -0x1.169c820000000p-1, -0x1.1a19a20000000p-5, 0x1.4c1b9c0000000p-5, -0x1.9f989a0000000p-4, -0x1.92794c0000000p-4, -0x1.69ed460000000p-7, -0x1.59cfb80000000p-5, 0x1.5990ec0000000p-5, -0x1.e9acec0000000p-5, 0x1.1f4f1e0000000p-3, 0x1.61e6400000000p-2, 0x1.6791200000000p-6, 0x1.a882600000000p-4, -0x1.7982080000000p+1, -0x1.11fa1a0000000p-4, 0x1.7cad940000000p-4, 0x1.471db00000000p-6, 0x1.f6c7560000000p-2, 0x1.c6bf400000000p-4, -0x1.9697440000000p-4, -0x1.43a30c0000000p-4, 0x1.a17a500000000p-6, -0x1.1235700000000p-11, -0x1.729d600000000p-4, -0x1.fe4e000000000p-4, 0x1.b051180000000p-6, 0x1.dfe64e0000000p-4, -0x1.a751cc0000000p-3, 0x1.2bd4840000000p-4, -0x1.9278920000000p-5, 0x1.c6cdcc0000000p-4, -0x1.137e740000000p-5, -0x1.1d2ba80000000p-1, 0x1.6b8f0a0000000p-4, -0x1.13c7b00000000p-2, 0x1.5252100000000p-3, 0x1.02b97a0000000p-4, 0x1.3963fe0000000p-4, -0x1.34337a0000000p-4, -0x1.0a34ae0000000p-7, -0x1.ab5fd00000000p-3, 0x1.7a5dfa0000000p-4, 0x1.2f437a0000000p-3, 0x1.34a5640000000p-5, 0x1.b2d0ca0000000p-4, -0x1.92b3680000000p+1, -0x1.9cc94e0000000p-6, 0x1.7f9df20000000p-5, -0x1.48b9200000000p-4, 0x1.9e43b60000000p-1, 0x1.9bbfb80000000p-5, 0x1.37f97e0000000p-3, -0x1.6c65a60000000p-6, 0x1.31600e0000000p-3, 0x1.285a460000000p-3, -0x1.d0d45e0000000p-3, -0x1.630fae0000000p-1, 0x1.3c21e40000000p-4, 0x1.62fdee0000000p-6, 0x1.55fc640000000p-1, 0x1.a5f9dc0000000p-5, -0x1.2dd86e0000000p-7, 0x1.2b2b920000000p-3, 0x1.7bb2560000000p-4, -0x1.cac58a0000000p-1, 0x1.d79f720000000p-3, -0x1.9a16b80000000p-3, -0x1.11857a0000000p-2, 0x1.01029c0000000p-8, -0x1.99b1d60000000p-3, 0x1.d6492e0000000p-5, -0x1.32fe760000000p-4, -0x1.4c26400000000p-3, -0x1.1ba2fa0000000p-5, 0x1.5b92c60000000p-2, 0x1.51fd9a0000000p-5}
}
;

#undef INPUT_SAMPLES
#undef FC_UNITS