/**
  ******************************************************************************
  * @file    weights/fc.cc
  * @author  Pierre-Emmanuel Novac <penovac@unice.fr>, LEAT, CNRS, Université Côte d'Azur, France
  * @version 1.0.0
  * @date    24 march 2020
  * @brief   Template generating plain C code for the implementation of Convolutional Neural Networks on MCU
  */

#include <stdint.h>

#define INPUT_SAMPLES 96
#define FC_UNITS 3


const float dense_7_bias[FC_UNITS] = {0x1.7066760000000p-4, -0x1.600e0e0000000p-3, 0x1.33ff6e0000000p-3}
;

const float dense_7_kernel[FC_UNITS][INPUT_SAMPLES] = {{0x1.0f1cde0000000p-3, -0x1.9866020000000p-5, -0x1.314e740000000p-2, -0x1.7606e80000000p-4, 0x1.e5c95a0000000p-3, -0x1.6a05ac0000000p-5, 0x1.7385f00000000p-4, 0x1.42867e0000000p-3, -0x1.73e9100000000p-3, 0x1.4c34500000000p-3, -0x1.c5c6340000000p-4, 0x1.9f344e0000000p-5, 0x1.bb0b6e0000000p-10, 0x1.bca1fe0000000p-4, 0x1.18a8000000000p-4, 0x1.51a8f80000000p-5, 0x1.869cc80000000p-3, -0x1.c9a7f20000000p-3, -0x1.8421660000000p-5, 0x1.f927d80000000p-4, 0x1.7017d20000000p-5, 0x1.954d160000000p-4, 0x1.72d9860000000p-7, -0x1.1eb4fe0000000p-5, 0x1.0f51100000000p-6, -0x1.3880de0000000p-5, 0x1.4782280000000p-4, 0x1.0f67c20000000p-5, -0x1.5db5060000000p-3, 0x1.3367b00000000p-9, -0x1.1c41b20000000p-3, 0x1.1ec5f20000000p-2, 0x1.67a3ce0000000p-3, -0x1.d717000000000p-4, -0x1.38260e0000000p-2, -0x1.82a3900000000p-3, -0x1.285f7a0000000p-4, 0x1.d2c4600000000p-3, 0x1.1dd0300000000p-2, -0x1.5a847a0000000p-4, -0x1.154e7e0000000p-3, -0x1.19e4900000000p-5, 0x1.ae80840000000p-3, 0x1.2e5eb60000000p-3, 0x1.3d8fe00000000p-5, -0x1.8999d40000000p-4, 0x1.0b4f600000000p-4, -0x1.6493740000000p-3, -0x1.e53fd80000000p-3, 0x1.1ca7480000000p-6, -0x1.d09ba60000000p-4, -0x1.3b059e0000000p-3, 0x1.781c040000000p-3, 0x1.20bdd60000000p-5, 0x1.df06560000000p-4, 0x1.6cc5800000000p-4, 0x1.52f3900000000p-6, 0x1.5dc0d80000000p-7, 0x1.86376c0000000p-3, 0x1.0316220000000p-2, 0x1.8f58860000000p-4, -0x1.7a0d880000000p-6, 0x1.240df60000000p-2, 0x1.161ddc0000000p-2, 0x1.fe7a000000000p-5, -0x1.675e1a0000000p-3, -0x1.b926be0000000p-4, -0x1.c814220000000p-3, 0x1.762ad60000000p-9, -0x1.7231be0000000p-3, -0x1.05b7a80000000p-4, 0x1.523aaa0000000p-2, 0x1.6c01340000000p-3, -0x1.5e2c840000000p-3, -0x1.4983180000000p-4, -0x1.7da1f60000000p-3, -0x1.27ecd00000000p-3, 0x1.4dc5a80000000p-2, -0x1.fedffa0000000p-3, 0x1.c860bc0000000p-4, 0x1.ef13b00000000p-4, -0x1.3183ea0000000p-7, 0x1.128e3c0000000p-3, 0x1.d65ea40000000p-4, 0x1.8a44d80000000p-4, -0x1.86cb180000000p-6, 0x1.3c42c80000000p-6, -0x1.4d41e80000000p-4, 0x1.88b61a0000000p-3, -0x1.86de420000000p-4, -0x1.328e2a0000000p-6, 0x1.44ee700000000p-3, -0x1.b299380000000p-6, -0x1.409ad40000000p-3, 0x1.0c8a200000000p-4, -0x1.54202c0000000p-4}
, {0x1.1dc57a0000000p-4, 0x1.6ae0d40000000p-4, -0x1.fc7cd60000000p-4, 0x1.10d49e0000000p-2, 0x1.b617620000000p-4, 0x1.4f87200000000p-3, -0x1.788a260000000p-3, 0x1.87acce0000000p-5, -0x1.a8cdd60000000p-3, -0x1.75982a0000000p-3, -0x1.1d53e60000000p-3, -0x1.b7ff800000000p-5, -0x1.3304920000000p-5, -0x1.d4ab6c0000000p-3, -0x1.c6a7ea0000000p-4, -0x1.5dd3680000000p-3, -0x1.08a5480000000p-5, 0x1.886a860000000p-4, -0x1.aa1e520000000p-4, 0x1.cced380000000p-4, -0x1.9401e20000000p-4, 0x1.2fa6700000000p-6, 0x1.4cb8760000000p-4, -0x1.d606980000000p-3, -0x1.916d940000000p-3, -0x1.0809ae0000000p-4, -0x1.c5a1e80000000p-3, 0x1.3bce940000000p-6, -0x1.244be20000000p-2, 0x1.352d600000000p-3, -0x1.1c6d720000000p-3, -0x1.438bac0000000p-3, -0x1.7639d00000000p-4, 0x1.df80b20000000p-4, -0x1.e0812a0000000p-2, -0x1.410c400000000p-5, -0x1.9288ea0000000p-5, -0x1.8823200000000p-3, 0x1.8db9640000000p-3, -0x1.a848ec0000000p-3, 0x1.f877740000000p-3, -0x1.c4e0960000000p-3, -0x1.ea91c00000000p-3, 0x1.ed832a0000000p-5, 0x1.5281c00000000p-3, 0x1.7432d20000000p-4, 0x1.1965f00000000p-4, -0x1.79a8fe0000000p-5, -0x1.e5d5d20000000p-7, 0x1.4d63360000000p-3, 0x1.e1155c0000000p-5, 0x1.9ee7d40000000p-7, -0x1.5940b60000000p-4, -0x1.e959b40000000p-3, 0x1.d144360000000p-5, -0x1.6232a00000000p-7, 0x1.282ae20000000p-3, 0x1.61cf9e0000000p-6, -0x1.5334c40000000p-4, -0x1.0f4b7e0000000p-4, 0x1.25f2120000000p-4, 0x1.665d840000000p-3, 0x1.61385e0000000p-3, 0x1.d38dde0000000p-4, -0x1.1e57ba0000000p-4, -0x1.12d9e00000000p-2, -0x1.864d500000000p-1, 0x1.3e67da0000000p-2, -0x1.4c9fe40000000p-6, 0x1.9067b80000000p-4, 0x1.9aac360000000p-3, 0x1.5290d40000000p-3, -0x1.2fcbdc0000000p-3, -0x1.eadd660000000p-6, -0x1.7f9d780000000p-3, 0x1.449c8c0000000p-3, 0x1.1588560000000p-3, -0x1.26e4b20000000p-6, -0x1.9916580000000p-4, 0x1.15d0800000000p-3, 0x1.03a2780000000p-4, -0x1.7d47320000000p-5, -0x1.c513a80000000p-3, 0x1.6f0e0a0000000p-3, -0x1.16487c0000000p-5, 0x1.7f3cc40000000p-3, -0x1.c5bf820000000p-4, -0x1.4972d00000000p-6, -0x1.39c8ba0000000p-8, -0x1.7d8df60000000p-3, -0x1.bbdc920000000p-3, 0x1.9c95720000000p-3, 0x1.9f279e0000000p-3, -0x1.cb592e0000000p-3, 0x1.85c58a0000000p-4, 0x1.cdf2fa0000000p-5}
, {0x1.d8fea80000000p-3, -0x1.37278a0000000p-4, 0x1.16c2b60000000p-1, 0x1.2ac65c0000000p-5, 0x1.ba187c0000000p-3, 0x1.e105760000000p-4, -0x1.c7f5260000000p-8, -0x1.e0c0100000000p-3, -0x1.1cd5540000000p-4, 0x1.4fada60000000p-2, -0x1.9380ae0000000p-4, 0x1.ab26360000000p-3, 0x1.6f0cc60000000p-4, 0x1.f642180000000p-3, 0x1.16b3980000000p-6, 0x1.36158a0000000p-6, 0x1.f821520000000p-5, 0x1.7904620000000p-4, 0x1.5bb04a0000000p-3, -0x1.46c3c80000000p-4, -0x1.aaa7d80000000p-6, 0x1.98de540000000p-3, 0x1.3df1c00000000p-4, 0x1.8378b20000000p-3, 0x1.6f302e0000000p-3, -0x1.c5e3760000000p-3, 0x1.49f43e0000000p-4, -0x1.6d66020000000p-5, -0x1.e9d1fe0000000p-7, 0x1.48bb6e0000000p-3, 0x1.83e8500000000p-3, 0x1.2b43600000000p-3, -0x1.9060de0000000p-4, 0x1.4d0eba0000000p-6, 0x1.0527bc0000000p-1, 0x1.39ee7c0000000p-4, 0x1.51bf260000000p-5, 0x1.1d96b80000000p-7, -0x1.cecfd20000000p-3, 0x1.da49c80000000p-4, -0x1.4fd6020000000p-4, -0x1.0cad320000000p-4, 0x1.b83e700000000p-3, 0x1.0bf97e0000000p-2, -0x1.58b7680000000p-3, 0x1.d9911a0000000p-3, -0x1.b65bb00000000p-4, 0x1.b7dcc00000000p-3, 0x1.30ac7c0000000p-3, 0x1.2aa1900000000p-2, -0x1.8536ea0000000p-3, 0x1.8fe3f80000000p-3, -0x1.298e8e0000000p-4, -0x1.04bcec0000000p-3, -0x1.60565e0000000p-4, 0x1.aad31c0000000p-3, -0x1.a111f20000000p-3, 0x1.d42ab00000000p-3, 0x1.8729dc0000000p-4, 0x1.5ba6c60000000p-5, 0x1.f860180000000p-5, 0x1.84129a0000000p-3, 0x1.efc9880000000p-3, 0x1.4e7bd00000000p-4, -0x1.00a2740000000p-2, -0x1.8ebc5e0000000p-3, -0x1.30de120000000p-6, 0x1.e5059c0000000p-3, -0x1.5ef0220000000p-3, -0x1.e334ec0000000p-6, 0x1.394ce80000000p-6, -0x1.0d01c00000000p-3, 0x1.2a0e140000000p-9, -0x1.0555a00000000p-5, 0x1.5009660000000p-3, 0x1.a5c7740000000p-4, -0x1.96fbca0000000p-8, -0x1.a7931a0000000p-3, 0x1.0ef9120000000p-2, 0x1.438d820000000p-3, 0x1.63e78c0000000p-3, 0x1.aba4ec0000000p-4, 0x1.d410f40000000p-3, 0x1.85089e0000000p-3, -0x1.4767f40000000p-6, 0x1.e2165c0000000p-4, -0x1.9efba80000000p-3, -0x1.1695bc0000000p-3, -0x1.d2b5d20000000p-3, -0x1.2fa9ee0000000p-5, 0x1.60b4a80000000p-9, 0x1.05d32e0000000p-4, -0x1.c25dc40000000p-3, 0x1.44e0c20000000p-4, -0x1.016c940000000p-4, 0x1.6b0de60000000p-4}
}
;

#undef INPUT_SAMPLES
#undef FC_UNITS